const char posture_model_tflite[] = {
  0x1c, 0x00, 0x00, 0x00, 0x54, 0x46, 0x4c, 0x33, 0x14, 0x00, 0x20, 0x00,
  0x1c, 0x00, 0x18, 0x00, 0x14, 0x00, 0x10, 0x00, 0x0c, 0x00, 0x00, 0x00,
  0x08, 0x00, 0x04, 0x00, 0x14, 0x00, 0x00, 0x00, 0x1c, 0x00, 0x00, 0x00,
  0x90, 0x00, 0x00, 0x00, 0xe8, 0x00, 0x00, 0x00, 0x18, 0x35, 0x00, 0x00,
  0x28, 0x35, 0x00, 0x00, 0xe4, 0x3a, 0x00, 0x00, 0x03, 0x00, 0x00, 0x00,
  0x01, 0x00, 0x00, 0x00, 0x10, 0x00, 0x00, 0x00, 0x00, 0x00, 0x0a, 0x00,
  0x10, 0x00, 0x0c, 0x00, 0x08, 0x00, 0x04, 0x00, 0x0a, 0x00, 0x00, 0x00,
  0x0c, 0x00, 0x00, 0x00, 0x1c, 0x00, 0x00, 0x00, 0x38, 0x00, 0x00, 0x00,
  0x0f, 0x00, 0x00, 0x00, 0x73, 0x65, 0x72, 0x76, 0x69, 0x6e, 0x67, 0x5f,
  0x64, 0x65, 0x66, 0x61, 0x75, 0x6c, 0x74, 0x00, 0x01, 0x00, 0x00, 0x00,
  0x04, 0x00, 0x00, 0x00, 0x98, 0xff, 0xff, 0xff, 0x0a, 0x00, 0x00, 0x00,
  0x04, 0x00, 0x00, 0x00, 0x07, 0x00, 0x00, 0x00, 0x64, 0x65, 0x6e, 0x73,
  0x65, 0x5f, 0x32, 0x00, 0x01, 0x00, 0x00, 0x00, 0x04, 0x00, 0x00, 0x00,
  0xca, 0xca, 0xff, 0xff, 0x04, 0x00, 0x00, 0x00, 0x0b, 0x00, 0x00, 0x00,
  0x64, 0x65, 0x6e, 0x73, 0x65, 0x5f, 0x69, 0x6e, 0x70, 0x75, 0x74, 0x00,
  0x02, 0x00, 0x00, 0x00, 0x34, 0x00, 0x00, 0x00, 0x04, 0x00, 0x00, 0x00,
  0xdc, 0xff, 0xff, 0xff, 0x0d, 0x00, 0x00, 0x00, 0x04, 0x00, 0x00, 0x00,
  0x13, 0x00, 0x00, 0x00, 0x43, 0x4f, 0x4e, 0x56, 0x45, 0x52, 0x53, 0x49,
  0x4f, 0x4e, 0x5f, 0x4d, 0x45, 0x54, 0x41, 0x44, 0x41, 0x54, 0x41, 0x00,
  0x08, 0x00, 0x0c, 0x00, 0x08, 0x00, 0x04, 0x00, 0x08, 0x00, 0x00, 0x00,
  0x0c, 0x00, 0x00, 0x00, 0x04, 0x00, 0x00, 0x00, 0x13, 0x00, 0x00, 0x00,
  0x6d, 0x69, 0x6e, 0x5f, 0x72, 0x75, 0x6e, 0x74, 0x69, 0x6d, 0x65, 0x5f,
  0x76, 0x65, 0x72, 0x73, 0x69, 0x6f, 0x6e, 0x00, 0x0e, 0x00, 0x00, 0x00,
  0x2c, 0x34, 0x00, 0x00, 0x24, 0x34, 0x00, 0x00, 0xd4, 0x33, 0x00, 0x00,
  0xa8, 0x33, 0x00, 0x00, 0x18, 0x33, 0x00, 0x00, 0x88, 0x0a, 0x00, 0x00,
  0x78, 0x02, 0x00, 0x00, 0xa8, 0x00, 0x00, 0x00, 0xa0, 0x00, 0x00, 0x00,
  0x98, 0x00, 0x00, 0x00, 0x90, 0x00, 0x00, 0x00, 0x88, 0x00, 0x00, 0x00,
  0x68, 0x00, 0x00, 0x00, 0x04, 0x00, 0x00, 0x00, 0x7a, 0xcb, 0xff, 0xff,
  0x04, 0x00, 0x00, 0x00, 0x54, 0x00, 0x00, 0x00, 0x0c, 0x00, 0x00, 0x00,
  0x08, 0x00, 0x0e, 0x00, 0x08, 0x00, 0x04, 0x00, 0x08, 0x00, 0x00, 0x00,
  0x10, 0x00, 0x00, 0x00, 0x24, 0x00, 0x00, 0x00, 0x00, 0x00, 0x06, 0x00,
  0x08, 0x00, 0x04, 0x00, 0x06, 0x00, 0x00, 0x00, 0x04, 0x00, 0x00, 0x00,
  0x00, 0x00, 0x00, 0x00, 0x00, 0x00, 0x0a, 0x00, 0x10, 0x00, 0x0c, 0x00,
  0x08, 0x00, 0x04, 0x00, 0x0a, 0x00, 0x00, 0x00, 0x02, 0x00, 0x00, 0x00,
  0x02, 0x00, 0x00, 0x00, 0x04, 0x00, 0x00, 0x00, 0x06, 0x00, 0x00, 0x00,
  0x32, 0x2e, 0x31, 0x32, 0x2e, 0x30, 0x00, 0x00, 0xda, 0xcb, 0xff, 0xff,
  0x04, 0x00, 0x00, 0x00, 0x10, 0x00, 0x00, 0x00, 0x31, 0x2e, 0x35, 0x2e,
  0x30, 0x00, 0x00, 0x00, 0x00, 0x00, 0x00, 0x00, 0x00, 0x00, 0x00, 0x00,
  0xe8, 0xc6, 0xff, 0xff, 0xec, 0xc6, 0xff, 0xff, 0xf0, 0xc6, 0xff, 0xff,
  0xf4, 0xc6, 0xff, 0xff, 0x06, 0xcc, 0xff, 0xff, 0x04, 0x00, 0x00, 0x00,
  0xc0, 0x01, 0x00, 0x00, 0x29, 0xc9, 0x18, 0xbf, 0xd2, 0xcf, 0x6c, 0xbf,
  0x2d, 0x08, 0xf9, 0x3e, 0x5c, 0x69, 0x1f, 0x3f, 0x4a, 0xa6, 0xac, 0xbe,
  0x5b, 0xda, 0x84, 0xbe, 0x25, 0xbd, 0xdd, 0xbe, 0xa8, 0xc6, 0xc8, 0x3d,
  0x82, 0x16, 0xaa, 0x3d, 0x55, 0x1d, 0xb3, 0xbe, 0x86, 0xa8, 0xf2, 0x3e,
  0x89, 0x7c, 0x4f, 0xbf, 0x98, 0xde, 0xaa, 0xbd, 0x7e, 0x66, 0x8a, 0xbe,
  0x04, 0x15, 0xbc, 0xbe, 0x38, 0xec, 0x78, 0xbe, 0xcd, 0xff, 0x93, 0x3d,
  0x3b, 0x57, 0x01, 0xbf, 0x24, 0x89, 0x1d, 0xbf, 0x4d, 0x10, 0xb8, 0xbe,
  0xf1, 0x8e, 0x8c, 0xbe, 0xca, 0xda, 0xd6, 0xbe, 0x96, 0xe2, 0xad, 0xbe,
  0xa2, 0x4a, 0x81, 0x3e, 0xfe, 0xd7, 0xc8, 0x3e, 0x12, 0x62, 0xf2, 0xbc,
  0x64, 0xe4, 0xf5, 0xbd, 0xcd, 0x24, 0x44, 0xbc, 0x3c, 0x39, 0xce, 0x3e,
  0x03, 0xef, 0x1e, 0x3f, 0x4c, 0x62, 0x90, 0x3d, 0xc2, 0x5d, 0xca, 0xbe,
  0x72, 0xee, 0x74, 0xbe, 0x04, 0x7e, 0x58, 0x3d, 0x65, 0xdc, 0x0a, 0x3f,
  0x3b, 0xb8, 0xbb, 0xbe, 0x49, 0xdb, 0x90, 0xbe, 0x67, 0xa8, 0x16, 0xbd,
  0x65, 0x25, 0x0d, 0xbe, 0xd6, 0x29, 0xb7, 0xbe, 0x46, 0xef, 0xa7, 0x3e,
  0x81, 0x13, 0x9a, 0x3e, 0x53, 0xdd, 0x63, 0xbf, 0xe8, 0xf1, 0xf1, 0x3e,
  0xaf, 0xdd, 0x00, 0xbf, 0x71, 0xb2, 0x07, 0xbe, 0x38, 0xe9, 0xef, 0x3e,
  0x04, 0x8b, 0x50, 0x3e, 0x62, 0xc1, 0x09, 0xbe, 0x03, 0x4a, 0xf5, 0x3c,
  0x3b, 0x35, 0x59, 0xbe, 0x37, 0x88, 0xad, 0xbe, 0xd2, 0x73, 0x68, 0x3e,
  0x3a, 0xf1, 0x10, 0x3f, 0x8f, 0xc9, 0xec, 0x3e, 0x64, 0xd9, 0xd1, 0xbe,
  0x9a, 0x36, 0x68, 0xbe, 0x7a, 0xf5, 0x7f, 0x3c, 0x97, 0x7d, 0x18, 0xbe,
  0x28, 0x29, 0x85, 0xbf, 0x69, 0xae, 0xe1, 0x3e, 0xfd, 0x29, 0xf4, 0x3e,
  0x3d, 0x99, 0x15, 0xbd, 0xa7, 0xe8, 0x0a, 0xbf, 0x40, 0xec, 0x84, 0x3e,
  0x51, 0x3b, 0x56, 0xbc, 0xe6, 0x06, 0x22, 0xbf, 0xb6, 0xd7, 0x2c, 0xbe,
  0xe7, 0x6c, 0xec, 0x3e, 0xed, 0xb6, 0xb5, 0xbe, 0x0f, 0x8a, 0xf7, 0x3e,
  0xd1, 0x09, 0x02, 0x3e, 0x78, 0xf0, 0x13, 0xbf, 0x58, 0x79, 0xa4, 0xbe,
  0x5e, 0x77, 0xdb, 0x3e, 0x48, 0x44, 0x50, 0x3e, 0xfe, 0xc5, 0x0c, 0x3e,
  0x1c, 0x29, 0x59, 0xbf, 0xc9, 0x2d, 0x0b, 0x3f, 0x7b, 0xba, 0xd0, 0xbe,
  0x95, 0xe8, 0x17, 0xbe, 0xcf, 0x78, 0x02, 0xbe, 0x6d, 0x44, 0x9e, 0xbe,
  0xc8, 0x6e, 0x13, 0xbd, 0x13, 0x2a, 0xd4, 0x3c, 0xa2, 0xae, 0x11, 0xbc,
  0x51, 0xd5, 0x06, 0xbe, 0xac, 0xf9, 0x2b, 0x3e, 0xee, 0x37, 0x02, 0xbf,
  0x05, 0x40, 0x9d, 0x3e, 0xb1, 0x43, 0x17, 0xbf, 0x4f, 0x09, 0x39, 0x3e,
  0x81, 0x28, 0x1e, 0x3f, 0x82, 0x49, 0x00, 0xbe, 0x1d, 0x27, 0xe8, 0xbe,
  0x08, 0x6a, 0x10, 0x3f, 0xc4, 0x03, 0xe0, 0xbe, 0x8e, 0xd6, 0x0d, 0x3f,
  0xc7, 0x1e, 0x41, 0x3e, 0xed, 0xba, 0x21, 0xbe, 0x58, 0x84, 0x26, 0xbe,
  0xae, 0x39, 0x26, 0xbf, 0x85, 0xfe, 0xa4, 0x3e, 0x79, 0x54, 0x22, 0xbf,
  0x87, 0x5f, 0xcc, 0x3c, 0xcf, 0x58, 0x1c, 0xbf, 0x18, 0xc5, 0xaf, 0x3e,
  0xb4, 0x3f, 0xed, 0xbe, 0xed, 0xe7, 0x18, 0xbf, 0x69, 0xca, 0x21, 0xbd,
  0x61, 0xae, 0x1e, 0xbf, 0xc8, 0xec, 0x0f, 0x3f, 0xd2, 0xcd, 0xff, 0xff,
  0x04, 0x00, 0x00, 0x00, 0x00, 0x08, 0x00, 0x00, 0x81, 0xc3, 0x8d, 0x3e,
  0xb9, 0x56, 0xe0, 0xbe, 0x3b, 0xa2, 0xb4, 0x3e, 0xd6, 0xa8, 0x08, 0xbe,
  0xf6, 0x33, 0x1b, 0xbe, 0xa8, 0x58, 0x00, 0x3e, 0x34, 0xcd, 0x51, 0xbd,
  0x7f, 0xf6, 0x25, 0xbe, 0x12, 0x5a, 0x8e, 0xbe, 0x90, 0xbd, 0xa7, 0x3e,
  0x2f, 0x95, 0x91, 0x3d, 0xc8, 0xe0, 0xab, 0x3e, 0x4e, 0x4e, 0xc6, 0xbe,
  0xa8, 0x5e, 0xf4, 0x3e, 0xb6, 0x4e, 0xf9, 0xbe, 0xfa, 0xd2, 0xc5, 0x3c,
  0x04, 0x71, 0x03, 0x3e, 0xfe, 0xc6, 0x61, 0x3d, 0xd5, 0xf5, 0x13, 0x3e,
  0xf4, 0xe7, 0xde, 0xbd, 0x48, 0x64, 0xc5, 0xbd, 0xe2, 0xe7, 0x6e, 0xbe,
  0x85, 0xbd, 0xce, 0xbd, 0xd6, 0x2b, 0xa8, 0x3d, 0x9a, 0x2c, 0x1f, 0xbe,
  0x4c, 0x60, 0x60, 0xbd, 0xd4, 0x2a, 0x69, 0x3e, 0x5e, 0x7e, 0x35, 0xbe,
  0xd0, 0xb6, 0x17, 0x3e, 0x86, 0x40, 0x23, 0xbd, 0x6b, 0xaf, 0xb4, 0x3e,
  0xf3, 0x17, 0xca, 0xbe, 0x04, 0xdd, 0xc1, 0x3c, 0x85, 0x14, 0x5e, 0x3e,
  0x54, 0x56, 0xca, 0x3d, 0xd3, 0xa4, 0x9b, 0xbe, 0x14, 0xc4, 0xce, 0x3d,
  0xfd, 0x63, 0xce, 0x3e, 0xcf, 0x96, 0xc7, 0x3d, 0xad, 0xef, 0xa6, 0xbc,
  0x11, 0x5f, 0x85, 0xbe, 0x1b, 0x61, 0xbe, 0x3e, 0xb4, 0xc2, 0xbb, 0x3e,
  0x14, 0xfa, 0xcd, 0xbd, 0xfc, 0xc9, 0x0b, 0xbe, 0x28, 0x8d, 0xd7, 0xbd,
  0x9b, 0xf6, 0x7d, 0x3e, 0xe5, 0x56, 0x05, 0xbe, 0x5d, 0xe9, 0x3f, 0xbe,
  0x23, 0x3f, 0x4c, 0xbe, 0xd4, 0x3f, 0xb6, 0x3e, 0x70, 0x60, 0x6e, 0xbd,
  0x11, 0xa3, 0xf9, 0xbd, 0x0f, 0x2f, 0xbd, 0x3d, 0xd0, 0x67, 0x23, 0xbe,
  0x48, 0x7d, 0xb7, 0x3e, 0x3c, 0x32, 0x49, 0xbe, 0xe2, 0xa2, 0x03, 0x3f,
  0xc5, 0x02, 0x93, 0xbd, 0x50, 0x4d, 0xdc, 0xbb, 0x89, 0x4c, 0x29, 0xbe,
  0x01, 0x33, 0x27, 0x3e, 0xdd, 0x28, 0xc2, 0x3e, 0x50, 0x2e, 0xa7, 0x3e,
  0xf8, 0xce, 0xbd, 0xbe, 0x93, 0xe3, 0x89, 0x3d, 0x4c, 0x8d, 0x85, 0xbd,
  0x99, 0xd3, 0x00, 0xbd, 0x3b, 0x58, 0x9b, 0xbe, 0x90, 0xbc, 0x04, 0xbe,
  0xf9, 0x81, 0xbb, 0x3e, 0xec, 0xd8, 0x73, 0x3e, 0xd0, 0x22, 0xbc, 0x3d,
  0xef, 0xf8, 0x70, 0xbe, 0x7e, 0x57, 0x1e, 0xbe, 0x7b, 0xe0, 0x17, 0x3e,
  0x19, 0x04, 0x00, 0x3e, 0xa7, 0xed, 0x96, 0x3d, 0x98, 0xbc, 0xa5, 0xbe,
  0xc4, 0x97, 0x5a, 0x3e, 0x61, 0xf5, 0xe6, 0x3e, 0x85, 0x4a, 0xd1, 0xbd,
  0xf5, 0x3c, 0xa6, 0xbe, 0x5f, 0x64, 0x4a, 0xbd, 0x02, 0x34, 0xcb, 0x3e,
  0x68, 0x9a, 0x91, 0x3e, 0x94, 0x7f, 0xe2, 0x3e, 0x28, 0xc1, 0xe8, 0xbd,
  0xae, 0x65, 0x99, 0x3e, 0xb6, 0xbd, 0xc1, 0xbe, 0x14, 0xab, 0xbb, 0xbe,
  0xba, 0xaa, 0x40, 0xbd, 0x78, 0xf1, 0x92, 0x3e, 0x22, 0xb4, 0x8a, 0x3c,
  0x52, 0xdd, 0x25, 0xbe, 0x1c, 0xfe, 0x6f, 0xbe, 0x90, 0x3e, 0xfb, 0xbe,
  0x57, 0xba, 0xbe, 0xbe, 0xb7, 0x19, 0x3c, 0x3e, 0x65, 0xed, 0x52, 0xbe,
  0xd5, 0xfe, 0xa4, 0x3b, 0x1f, 0xac, 0xa0, 0x3e, 0x0f, 0x99, 0x11, 0xbe,
  0x02, 0xfd, 0xd9, 0x3e, 0x4f, 0x95, 0x45, 0x3e, 0x1a, 0xa0, 0xc0, 0xbe,
  0xc9, 0x4e, 0x3c, 0xbd, 0x09, 0x0d, 0xb4, 0x3e, 0xf3, 0xbd, 0xa5, 0x3e,
  0x20, 0xb2, 0x95, 0x3e, 0xe1, 0xbf, 0xdd, 0x3d, 0x69, 0xfd, 0xee, 0x3e,
  0xfe, 0x78, 0xab, 0x3d, 0xfd, 0xf1, 0x0b, 0xbe, 0x6a, 0xb3, 0xa8, 0xbe,
  0x83, 0xb3, 0x86, 0x3c, 0xf5, 0xd7, 0xc8, 0x3e, 0x87, 0x73, 0xb2, 0xbe,
  0xb8, 0xd0, 0x6b, 0x3c, 0x89, 0xb5, 0x07, 0xbf, 0x45, 0x1d, 0xb6, 0x3e,
  0x13, 0xfb, 0x30, 0xbe, 0xbb, 0x5b, 0x29, 0xbd, 0x13, 0xc2, 0x8b, 0xbe,
  0xeb, 0x6d, 0xa0, 0xbd, 0x58, 0x37, 0x13, 0xbf, 0x28, 0xcf, 0xde, 0x3d,
  0x67, 0x37, 0x8a, 0x3e, 0x13, 0x17, 0xaa, 0xbd, 0x8a, 0xdb, 0x0b, 0xbe,
  0x24, 0x71, 0xf3, 0x3b, 0x20, 0xb9, 0x8c, 0xbe, 0x8c, 0x07, 0xe8, 0xbd,
  0xd2, 0x0e, 0xa4, 0x3e, 0x49, 0x14, 0xd2, 0xbe, 0x4c, 0x35, 0xe1, 0x3c,
  0x15, 0xcf, 0x83, 0x3d, 0x62, 0xac, 0x9a, 0x3d, 0x6f, 0x96, 0x10, 0x3e,
  0x9c, 0xf9, 0xb8, 0x3e, 0x8c, 0xdd, 0x89, 0xbe, 0x12, 0x3d, 0xa8, 0x3e,
  0xb2, 0x3f, 0xa1, 0xbe, 0x02, 0xd6, 0x53, 0x3e, 0x16, 0x39, 0x2f, 0xbe,
  0xec, 0x40, 0x98, 0xbd, 0xd4, 0x13, 0xd5, 0xbd, 0x3d, 0x79, 0x99, 0x3d,
  0x36, 0xc6, 0xed, 0x3d, 0xf3, 0xf8, 0x82, 0xbe, 0xa0, 0x14, 0x90, 0xbe,
  0x9e, 0xa2, 0x20, 0x3d, 0x6d, 0xfe, 0x72, 0xbd, 0x3f, 0xb3, 0xac, 0x3e,
  0x45, 0xc2, 0x83, 0x3d, 0xbb, 0x9f, 0xc2, 0x3e, 0x31, 0x2f, 0x88, 0x3e,
  0xb7, 0xec, 0x2a, 0xbc, 0x3d, 0xb1, 0x1b, 0xbb, 0x49, 0xd4, 0x36, 0xbe,
  0x41, 0x2c, 0x83, 0x3d, 0x54, 0x67, 0x84, 0x3d, 0x99, 0x0f, 0xbd, 0xbe,
  0xc4, 0x56, 0x37, 0x3e, 0x0a, 0x17, 0x52, 0x3e, 0x46, 0x57, 0x0e, 0xbe,
  0xf1, 0x3f, 0xb3, 0x3e, 0xa1, 0x02, 0xa7, 0x3e, 0x14, 0x63, 0xd8, 0x3e,
  0x43, 0x5b, 0x5c, 0x3e, 0xd3, 0x46, 0x47, 0x3d, 0x7a, 0x5f, 0xa5, 0xbd,
  0xa5, 0x25, 0xf5, 0x3d, 0xf9, 0x91, 0x4e, 0xbd, 0xae, 0x2f, 0xd7, 0xbe,
  0x78, 0x09, 0xb8, 0xbd, 0xa1, 0x45, 0x1e, 0xbe, 0xaf, 0x4d, 0x70, 0xbe,
  0x62, 0x4e, 0x95, 0x3c, 0x5c, 0xb0, 0xab, 0xbe, 0xf5, 0x77, 0xf4, 0xbd,
  0xaa, 0x29, 0x29, 0x3d, 0xff, 0x0a, 0xb8, 0x3e, 0x33, 0x24, 0xfc, 0x3e,
  0x72, 0xa5, 0xa1, 0x3e, 0xc5, 0xed, 0x01, 0x3f, 0x83, 0x24, 0x03, 0xbe,
  0x3e, 0x0f, 0x70, 0xbb, 0xa1, 0x01, 0xf5, 0x3e, 0xf6, 0xfe, 0xa7, 0x3e,
  0x27, 0x9c, 0x52, 0xbe, 0x68, 0x4a, 0xaa, 0x3e, 0x8a, 0xf4, 0xe5, 0xbd,
  0xf2, 0x54, 0x73, 0x3c, 0x86, 0x60, 0xc3, 0xba, 0xd0, 0x21, 0x9b, 0x3e,
  0x2a, 0x27, 0x24, 0xbe, 0x5e, 0x4e, 0xa2, 0xbe, 0x38, 0x69, 0xae, 0x3e,
  0x1b, 0x78, 0x8c, 0xbe, 0x19, 0x75, 0xaa, 0x3e, 0x75, 0x42, 0x91, 0xbe,
  0x12, 0x30, 0x77, 0xbe, 0x66, 0x5a, 0x0e, 0xbe, 0xc5, 0x0c, 0x85, 0x3d,
  0x23, 0x27, 0xf1, 0x3d, 0x10, 0xde, 0xa6, 0x3c, 0xb0, 0xd9, 0x76, 0xbd,
  0xac, 0xcf, 0x4e, 0xbe, 0x29, 0xe9, 0x35, 0x3e, 0x50, 0x83, 0x94, 0x3d,
  0xfd, 0x2d, 0x80, 0xbe, 0x16, 0xbe, 0x2c, 0x3d, 0x87, 0x3e, 0xa6, 0xbe,
  0x6b, 0xd6, 0x07, 0xbe, 0xa9, 0x53, 0xaf, 0xbe, 0xe8, 0x99, 0x44, 0xbd,
  0x75, 0xb6, 0x0d, 0x3d, 0x39, 0x8c, 0x6b, 0xbe, 0xa3, 0x0f, 0xa4, 0xbe,
  0xca, 0x1a, 0xb9, 0xbe, 0x85, 0x56, 0x25, 0xbe, 0x53, 0x84, 0x1b, 0x3e,
  0x2d, 0x2d, 0x20, 0x3d, 0x28, 0xe0, 0x0a, 0x3e, 0x45, 0x45, 0xae, 0x3b,
  0x39, 0xe9, 0x5e, 0x3e, 0x9c, 0x64, 0x89, 0x3e, 0x61, 0x72, 0x9d, 0xbe,
  0xb0, 0x67, 0x82, 0x3e, 0xdf, 0x2c, 0x89, 0xbe, 0xdb, 0xfe, 0x27, 0x3e,
  0xed, 0xc6, 0x1a, 0x3e, 0x9a, 0xdd, 0x8d, 0xbe, 0x04, 0x7f, 0xdb, 0xbd,
  0xdb, 0xa8, 0xd2, 0xbd, 0x68, 0x1a, 0x84, 0x3d, 0x62, 0x43, 0x43, 0xbe,
  0x44, 0x84, 0x23, 0x3e, 0xaa, 0x16, 0xfd, 0x3d, 0xd5, 0xf2, 0x8a, 0xbe,
  0x77, 0x83, 0xda, 0x3e, 0x1b, 0xb2, 0xc3, 0xbe, 0x13, 0xbe, 0x3f, 0x3e,
  0xc1, 0xa5, 0xa5, 0x3e, 0x70, 0xfb, 0x60, 0xbe, 0xe4, 0xac, 0x9f, 0x3e,
  0xe5, 0x72, 0x22, 0xbe, 0xfb, 0xbb, 0x1f, 0xbe, 0xf8, 0xa9, 0xc8, 0xbe,
  0x69, 0x52, 0x05, 0x3f, 0xfa, 0x12, 0xc1, 0xbd, 0x7e, 0x87, 0x94, 0x3e,
  0xfd, 0x73, 0xba, 0x3e, 0xe1, 0x22, 0xc8, 0x3e, 0xb4, 0x01, 0x7d, 0xbe,
  0x68, 0xcf, 0x52, 0xbe, 0x64, 0xfd, 0xbd, 0xbd, 0xaf, 0xc5, 0x80, 0xbe,
  0x09, 0xa3, 0x90, 0xbe, 0x53, 0x17, 0x89, 0x3e, 0xb0, 0x3a, 0xb7, 0xbe,
  0x8f, 0x0a, 0x5c, 0x3d, 0x83, 0x46, 0x36, 0xbe, 0x93, 0x65, 0x7c, 0x3e,
  0xab, 0xb8, 0x0d, 0x3e, 0xe6, 0xf6, 0x7f, 0x3e, 0x3b, 0x9e, 0x8d, 0x3e,
  0xe4, 0x1d, 0x62, 0x3e, 0x49, 0x84, 0x82, 0x3e, 0x7b, 0xd9, 0x01, 0x3e,
  0xc2, 0x9b, 0xc9, 0xbc, 0x09, 0x61, 0x71, 0x3e, 0x09, 0x35, 0x86, 0xbd,
  0x8d, 0x7e, 0xe0, 0xbe, 0x92, 0xbb, 0x79, 0x3e, 0xf1, 0xfc, 0x8c, 0x3d,
  0xf7, 0x8a, 0x4e, 0xbe, 0x80, 0xe1, 0x0c, 0x3f, 0x8a, 0xc0, 0xa7, 0x3e,
  0x4a, 0xf8, 0x9d, 0x3d, 0x63, 0xb4, 0x91, 0xbe, 0x41, 0xe5, 0x48, 0x3e,
  0x0e, 0xce, 0xfe, 0xbd, 0xda, 0x06, 0x57, 0x3a, 0xcd, 0xed, 0xcd, 0x3d,
  0x45, 0x12, 0x22, 0x3e, 0xeb, 0x79, 0x64, 0x3c, 0x56, 0xdd, 0xe1, 0xbe,
  0x46, 0x76, 0x05, 0x3e, 0xb8, 0x9a, 0x10, 0xbe, 0xf3, 0x4f, 0x44, 0x3e,
  0x18, 0x07, 0xeb, 0x3e, 0x02, 0x18, 0x8a, 0xbd, 0x23, 0xbe, 0x87, 0xbd,
  0xa6, 0x5a, 0x6a, 0xbe, 0xec, 0xa6, 0x58, 0xbe, 0xec, 0xc6, 0xb4, 0x3c,
  0x2c, 0xf1, 0xc1, 0xbc, 0xb0, 0x23, 0x21, 0xbe, 0x11, 0xa3, 0xfb, 0xbd,
  0x94, 0x0d, 0x51, 0xbe, 0xbf, 0x49, 0xba, 0xbd, 0x17, 0xfa, 0x5e, 0xbe,
  0xed, 0xd3, 0xcc, 0x3e, 0xb8, 0x71, 0x21, 0x3e, 0x7b, 0xe4, 0x39, 0x3e,
  0x78, 0x34, 0x9f, 0x3e, 0xda, 0xb0, 0x20, 0x3e, 0xbe, 0xc5, 0xef, 0x3e,
  0x51, 0x75, 0x3a, 0xbe, 0xc1, 0xd0, 0x42, 0x3d, 0xba, 0x03, 0xac, 0xbe,
  0x95, 0xfb, 0x9c, 0x3e, 0xad, 0xad, 0xc4, 0xba, 0x2d, 0x57, 0x0c, 0x3e,
  0x99, 0x07, 0xa9, 0x3d, 0x18, 0x40, 0xe3, 0x3d, 0x5b, 0xb2, 0xbc, 0x3e,
  0x50, 0xce, 0xd0, 0xbe, 0x98, 0xdd, 0x10, 0x3f, 0x00, 0xba, 0x58, 0xbe,
  0xb5, 0x34, 0x5d, 0x3e, 0x0e, 0x80, 0x5b, 0x3e, 0x3a, 0xd7, 0xc3, 0xbe,
  0xca, 0x0a, 0xc2, 0x3d, 0x57, 0xff, 0x1d, 0xbe, 0x61, 0x0d, 0x38, 0x3e,
  0x01, 0xb9, 0x21, 0x3d, 0xad, 0xba, 0x56, 0xbd, 0xfc, 0x9d, 0x55, 0x3e,
  0x3e, 0xdf, 0x6f, 0x3c, 0x70, 0xdd, 0x3b, 0xbe, 0x3b, 0xd7, 0x8d, 0xbb,
  0x47, 0xf8, 0x44, 0xbe, 0xc6, 0x4f, 0x48, 0xbe, 0x7f, 0xfa, 0x05, 0xbe,
  0x10, 0x49, 0xe0, 0x3d, 0xac, 0xef, 0xf9, 0x3e, 0x64, 0x82, 0x05, 0x3f,
  0xe9, 0x2b, 0xfa, 0x3e, 0x4e, 0xb1, 0xe2, 0xbe, 0xf1, 0xe1, 0x94, 0x3e,
  0x6e, 0xa5, 0xe3, 0xbe, 0xb0, 0x07, 0x35, 0x3e, 0x87, 0xa5, 0xd3, 0xbd,
  0xf3, 0x71, 0xa5, 0xbe, 0x46, 0xc3, 0x61, 0x3e, 0xca, 0x66, 0x80, 0x3e,
  0xac, 0xd1, 0x2f, 0xbe, 0x60, 0x96, 0x9b, 0x3d, 0x2f, 0x16, 0xb9, 0x3e,
  0xd5, 0xef, 0x7e, 0x3e, 0xc7, 0x1b, 0x18, 0x3f, 0xe1, 0x14, 0x9e, 0x3d,
  0x01, 0x8e, 0x10, 0xbe, 0x3e, 0xe0, 0x91, 0x3e, 0x7b, 0x7f, 0x30, 0x3e,
  0xbf, 0x9f, 0x0b, 0x3e, 0x15, 0x42, 0x42, 0x3e, 0xdf, 0x1f, 0xaa, 0xbc,
  0xeb, 0x33, 0x87, 0x3e, 0xc1, 0x8d, 0x0f, 0xbd, 0x04, 0xa4, 0x31, 0xbe,
  0xbf, 0x1f, 0x0f, 0xbe, 0x1c, 0xc1, 0xf6, 0x3d, 0x9a, 0x19, 0xc9, 0x3c,
  0x96, 0xd4, 0x79, 0x3c, 0x8b, 0xaf, 0xdc, 0x3e, 0x8d, 0x38, 0x21, 0x3e,
  0x47, 0x5e, 0x04, 0xbe, 0xa1, 0x7b, 0x0f, 0xbd, 0x60, 0x4c, 0x7b, 0x3e,
  0x99, 0x9a, 0x11, 0x3e, 0x4c, 0x3d, 0xb7, 0x3d, 0x27, 0x61, 0xf5, 0xbd,
  0xe2, 0x2c, 0xfb, 0xbe, 0xc3, 0x9b, 0x80, 0x3e, 0x97, 0xb1, 0xa8, 0x3e,
  0xe8, 0xc6, 0x2f, 0xbe, 0x10, 0x69, 0x07, 0xbe, 0x54, 0x94, 0xaa, 0x3e,
  0xca, 0x5c, 0x01, 0x3d, 0x74, 0x5c, 0xe8, 0xbe, 0xe0, 0xca, 0x82, 0xbd,
  0x58, 0x6b, 0x2b, 0xbe, 0x8d, 0x88, 0xcc, 0x3e, 0xf1, 0xc1, 0x01, 0x3f,
  0x71, 0xf2, 0x9d, 0x3e, 0xf1, 0x9c, 0x0a, 0x3e, 0xbe, 0xd0, 0xcc, 0x3d,
  0xed, 0x21, 0x38, 0x3d, 0x3b, 0xc2, 0x0c, 0xbe, 0x76, 0x5e, 0x5d, 0xbd,
  0x0b, 0xaa, 0x18, 0x3e, 0xbd, 0x9b, 0xaa, 0xbe, 0xd7, 0x50, 0x02, 0x3f,
  0xa4, 0xab, 0x13, 0xbe, 0xc1, 0xdd, 0x92, 0x3e, 0x81, 0x74, 0xb5, 0xbe,
  0x23, 0xb9, 0x90, 0xbd, 0xc7, 0x09, 0xa5, 0xbe, 0xea, 0xc3, 0xb2, 0xbe,
  0x28, 0x73, 0xb1, 0x3e, 0x04, 0x73, 0x22, 0xbd, 0xbd, 0xb0, 0xd0, 0xbd,
  0x10, 0xd3, 0x9c, 0xbe, 0xc1, 0x36, 0xb5, 0x3e, 0xdf, 0xd5, 0x7b, 0xbd,
  0x32, 0xb1, 0xcc, 0xbe, 0x2d, 0xf8, 0x97, 0xbd, 0x9f, 0xa6, 0x5e, 0x3d,
  0xb7, 0x63, 0x1a, 0x3e, 0x41, 0x6d, 0x97, 0x3e, 0x14, 0x57, 0x17, 0xbc,
  0x64, 0x54, 0xbc, 0xbe, 0x4b, 0x52, 0xed, 0xbd, 0xf2, 0xc1, 0xe6, 0xbd,
  0x26, 0x83, 0xee, 0xbe, 0x90, 0x4d, 0xb2, 0x3d, 0x1a, 0xce, 0xbb, 0x3e,
  0xd4, 0x85, 0xb3, 0x3e, 0x49, 0x75, 0xf4, 0xbd, 0xb8, 0xf9, 0x3e, 0x3e,
  0xa3, 0x8b, 0x56, 0x3d, 0x2d, 0xa3, 0x50, 0x3e, 0xe4, 0xc6, 0x41, 0x3e,
  0x05, 0xa5, 0x27, 0xbd, 0xe8, 0xda, 0x67, 0x3e, 0xbc, 0x4e, 0x80, 0xbe,
  0x07, 0x72, 0xea, 0x3e, 0xa2, 0x16, 0x6c, 0xbd, 0x47, 0xab, 0x39, 0xbe,
  0x47, 0x08, 0x96, 0xbe, 0xd8, 0x42, 0x8e, 0x3e, 0xf8, 0xc5, 0x9a, 0x3e,
  0x02, 0x0a, 0xe6, 0x3c, 0x12, 0xfc, 0x7e, 0xbe, 0xb3, 0x67, 0x96, 0x3e,
  0xc3, 0xa8, 0xb0, 0x3d, 0x50, 0x97, 0xf2, 0xbd, 0x8c, 0xcc, 0x37, 0xbe,
  0xd3, 0x23, 0x84, 0x3e, 0x76, 0x98, 0x96, 0xbd, 0xa8, 0x5d, 0x67, 0x3e,
  0x46, 0x03, 0xe0, 0x3d, 0x17, 0x6f, 0x40, 0xbe, 0x33, 0x80, 0x29, 0x3e,
  0xcc, 0xa8, 0xc7, 0x3e, 0x6a, 0x38, 0x8e, 0xbd, 0xaa, 0x5e, 0x68, 0xbe,
  0x48, 0x8b, 0xc4, 0xbe, 0x2b, 0x2b, 0xad, 0x3d, 0x3c, 0x3a, 0x3c, 0xbc,
  0x3a, 0x25, 0x93, 0x3e, 0x82, 0x89, 0x52, 0x3e, 0xac, 0x8d, 0x81, 0x3d,
  0x97, 0x5c, 0x85, 0x3e, 0x3d, 0x67, 0x60, 0x3e, 0xa0, 0xd4, 0x94, 0x3e,
  0xf7, 0x8c, 0xc6, 0xbe, 0x14, 0x02, 0xb4, 0x3e, 0xf1, 0x47, 0xa4, 0xbe,
  0x5e, 0xbe, 0x24, 0x3e, 0x00, 0x73, 0x5a, 0xbd, 0xea, 0x82, 0x07, 0x3e,
  0x00, 0x32, 0xd4, 0x3e, 0xe9, 0x6f, 0xa7, 0x3e, 0x82, 0x74, 0x83, 0xbe,
  0x0f, 0x0f, 0xf6, 0x3e, 0x3f, 0xc2, 0xdc, 0x3e, 0x3f, 0x99, 0x7f, 0x3e,
  0xfd, 0x19, 0xb9, 0xbe, 0x2e, 0x25, 0xbc, 0x3e, 0xcb, 0xe9, 0x63, 0x3e,
  0xf0, 0xf2, 0x1b, 0xbe, 0x90, 0x16, 0xc8, 0xbe, 0x5e, 0xa8, 0xa8, 0x3e,
  0x2f, 0x4b, 0x8a, 0x3e, 0xb3, 0x0a, 0xb9, 0xbe, 0x37, 0xad, 0x84, 0xbd,
  0x8f, 0xb5, 0xf1, 0x3e, 0xfe, 0xbc, 0x99, 0x3e, 0x13, 0x2d, 0x9b, 0x3e,
  0xb0, 0x78, 0x61, 0x3d, 0xe3, 0x99, 0xb5, 0x3e, 0xc1, 0xb8, 0x02, 0x3e,
  0x8d, 0x11, 0x86, 0x3d, 0x53, 0xba, 0x99, 0xbe, 0x09, 0x1b, 0xa6, 0x3e,
  0x88, 0xc4, 0xdd, 0x3e, 0x7f, 0xd3, 0x5a, 0x3e, 0xdf, 0x56, 0x01, 0x3f,
  0xd0, 0x77, 0x11, 0xbe, 0xe0, 0xe1, 0x26, 0x3e, 0xe7, 0x13, 0xc6, 0xbd,
  0x7f, 0xc0, 0xe0, 0x3d, 0x73, 0x9a, 0x94, 0xbe, 0xdb, 0x6d, 0x5c, 0xbe,
  0x18, 0x04, 0x68, 0xbe, 0x5f, 0x17, 0x5d, 0xbe, 0x2c, 0x6f, 0xbf, 0x3e,
  0x05, 0xdd, 0x00, 0xbf, 0xa5, 0x3b, 0x55, 0xbd, 0xce, 0x9f, 0x9d, 0x3d,
  0x90, 0xdd, 0x07, 0xbd, 0xa5, 0xb3, 0x33, 0x3e, 0xe3, 0xba, 0xb8, 0xbc,
  0xf0, 0xf0, 0x7d, 0xbe, 0x43, 0x62, 0x06, 0x3f, 0x10, 0xdb, 0x17, 0xbd,
  0x75, 0x7d, 0xb7, 0x3e, 0xde, 0xd5, 0xff, 0xff, 0x04, 0x00, 0x00, 0x00,
  0x80, 0x28, 0x00, 0x00, 0x52, 0xb4, 0xca, 0x3d, 0x22, 0x33, 0xc6, 0xbd,
  0xbb, 0xff, 0x13, 0x3e, 0x23, 0x9a, 0x4f, 0x3e, 0x85, 0x98, 0x98, 0xbb,
  0xe3, 0xef, 0xef, 0x3d, 0xe6, 0x8b, 0xf7, 0x3d, 0x69, 0x2f, 0x81, 0xbe,
  0x77, 0xc8, 0xa1, 0xb9, 0xed, 0x05, 0x9a, 0x3e, 0x29, 0x9e, 0xaf, 0x3e,
  0x8d, 0x55, 0x5b, 0x3e, 0xd0, 0xcc, 0x5b, 0x3e, 0xa6, 0x0e, 0x3d, 0x3e,
  0x4c, 0x69, 0x92, 0x3e, 0x29, 0x82, 0x52, 0x3e, 0x97, 0xb9, 0xef, 0xbc,
  0x6c, 0x66, 0x1d, 0x3e, 0x4d, 0x00, 0x3b, 0xbe, 0x71, 0x8c, 0xc8, 0xbc,
  0x97, 0xed, 0xc8, 0x3e, 0xe8, 0x69, 0xd5, 0x3e, 0x96, 0x2b, 0xd8, 0x3e,
  0x70, 0x38, 0x2c, 0x3e, 0x04, 0x4a, 0x81, 0x3e, 0x67, 0xaa, 0xb6, 0xbc,
  0x04, 0x9d, 0x90, 0x3d, 0x5a, 0x02, 0x8b, 0xbe, 0xcf, 0x3f, 0x1a, 0x3d,
  0x01, 0xaa, 0x4c, 0xbe, 0x83, 0x93, 0xd7, 0xbc, 0x27, 0x73, 0x4e, 0xbe,
  0x30, 0x03, 0xdb, 0xbd, 0x43, 0xeb, 0xd6, 0xbd, 0xe7, 0xbd, 0x98, 0xbe,
  0x43, 0x93, 0x68, 0xbe, 0x01, 0x6e, 0x81, 0x3d, 0xd4, 0x61, 0x8b, 0xbd,
  0x43, 0xe6, 0x98, 0x3c, 0x53, 0x0e, 0x98, 0xbe, 0x7a, 0xfe, 0xb7, 0x3d,
  0x72, 0x24, 0x29, 0xbe, 0xc5, 0xcd, 0xa8, 0xbe, 0xb4, 0x60, 0x91, 0x3d,
  0x68, 0xa6, 0x02, 0x3e, 0x68, 0xd3, 0x31, 0xbd, 0xd9, 0xf2, 0xd3, 0x3e,
  0x6e, 0x5d, 0xa7, 0x3d, 0x81, 0x1a, 0x27, 0x3d, 0x09, 0x62, 0xa2, 0x3e,
  0x03, 0x28, 0x98, 0xbc, 0x64, 0x53, 0x91, 0x3b, 0x8c, 0xe6, 0x6c, 0xba,
  0x13, 0xc4, 0x52, 0x3d, 0x5c, 0x83, 0x01, 0xbe, 0x0e, 0x45, 0x67, 0xbe,
  0xaf, 0xba, 0xee, 0x3c, 0x41, 0x9d, 0x06, 0x3e, 0x8d, 0x27, 0xc8, 0x3d,
  0xb3, 0xda, 0xc4, 0x3d, 0x68, 0x7d, 0x3b, 0xbd, 0x04, 0x6a, 0x4e, 0xbd,
  0xd1, 0x56, 0x1c, 0x3e, 0x66, 0xc7, 0x79, 0xbe, 0x74, 0xf9, 0xae, 0x3b,
  0x1f, 0x67, 0xcb, 0xbc, 0x4e, 0xa9, 0x98, 0x3d, 0x2c, 0x37, 0x35, 0x3d,
  0xc3, 0x1f, 0x38, 0xbd, 0x9b, 0x50, 0x85, 0xbd, 0x4a, 0x69, 0x8d, 0xbd,
  0xf1, 0x14, 0xa0, 0x3d, 0x8a, 0x26, 0x59, 0xbe, 0x5b, 0x1f, 0x98, 0xbe,
  0x6a, 0xca, 0x8e, 0xbe, 0x83, 0x7a, 0xfa, 0xbd, 0xfe, 0xc3, 0xd0, 0xbe,
  0x8c, 0x16, 0x04, 0xbe, 0x6b, 0x2f, 0xe2, 0xbc, 0x57, 0xec, 0x85, 0xbe,
  0x67, 0xd8, 0x2e, 0xbe, 0xc5, 0x91, 0xbf, 0xbd, 0xd2, 0x31, 0x8a, 0x3e,
  0xcd, 0x65, 0x04, 0x3e, 0x20, 0x9e, 0x5d, 0xbd, 0x0d, 0x1a, 0x5e, 0x3e,
  0xec, 0xe8, 0x68, 0x3e, 0xc8, 0xeb, 0xf7, 0xbd, 0x9c, 0xc0, 0x2b, 0xbe,
  0xbc, 0x9f, 0xd7, 0xbd, 0xba, 0x65, 0xc4, 0x3d, 0x9c, 0x6f, 0x89, 0xbd,
  0x86, 0x7b, 0xdd, 0x3b, 0x95, 0x70, 0x36, 0xbe, 0xaa, 0x5c, 0xf9, 0xbd,
  0x98, 0x5d, 0x5c, 0x3e, 0xbc, 0x6e, 0x38, 0xbe, 0x0e, 0xaf, 0x9c, 0xbc,
  0x8b, 0x1e, 0xe0, 0x3d, 0x66, 0x1c, 0x97, 0xbe, 0x04, 0xf7, 0xb1, 0x3c,
  0x52, 0xa4, 0xca, 0xbd, 0xca, 0xf1, 0x54, 0x3e, 0x69, 0x1f, 0x25, 0xbd,
  0xde, 0xab, 0x1e, 0xbe, 0x9b, 0x18, 0xb3, 0x3d, 0x4a, 0x9f, 0xf0, 0x3d,
  0x97, 0x5b, 0x25, 0xbd, 0x6a, 0x01, 0x34, 0xbe, 0x25, 0xf6, 0xaa, 0x3d,
  0x54, 0xad, 0x81, 0xbe, 0x18, 0x2b, 0x23, 0x3e, 0xae, 0xea, 0x0c, 0xbe,
  0x75, 0x7f, 0x98, 0xbe, 0x4d, 0x87, 0x2c, 0xbe, 0x74, 0x79, 0x72, 0xbe,
  0x5d, 0xbb, 0x46, 0xbe, 0x5b, 0x2f, 0xb3, 0x3d, 0x73, 0xc6, 0x5c, 0x3e,
  0xca, 0x51, 0x98, 0x3e, 0xd4, 0x05, 0x4c, 0x3e, 0xaa, 0x92, 0xbf, 0x3d,
  0x29, 0xcb, 0x0e, 0xbd, 0x04, 0x6a, 0x54, 0x3e, 0x45, 0xae, 0x18, 0xbe,
  0xb9, 0x3d, 0xcb, 0x3d, 0xef, 0x8f, 0x63, 0x3e, 0x5f, 0x3d, 0xfa, 0x3d,
  0x71, 0x09, 0x63, 0xb9, 0xf9, 0xa7, 0xec, 0xbd, 0x45, 0x07, 0x0a, 0x3e,
  0xe8, 0x74, 0x2f, 0xbe, 0xdd, 0x95, 0x32, 0x3e, 0xcd, 0x7e, 0x2b, 0x3c,
  0xdf, 0xd6, 0xc5, 0xbb, 0x75, 0x10, 0xa0, 0x3e, 0xb2, 0x63, 0xd0, 0xbd,
  0xa4, 0x18, 0xca, 0xbd, 0x62, 0xbd, 0x0c, 0xbe, 0x5d, 0x2d, 0xa2, 0x3d,
  0x40, 0x96, 0xc6, 0xbd, 0xa3, 0x11, 0xb4, 0x3d, 0x6f, 0x01, 0x67, 0xbe,
  0xea, 0xc4, 0x06, 0xbe, 0x33, 0x86, 0xfe, 0x3d, 0x90, 0x4a, 0x7e, 0xbd,
  0x1e, 0xbc, 0xc6, 0xbc, 0x65, 0x67, 0x17, 0xbe, 0x9a, 0x42, 0x11, 0x3d,
  0x5a, 0x30, 0xdd, 0xbc, 0x49, 0x2b, 0xa0, 0xbd, 0xeb, 0x62, 0x1b, 0xbe,
  0x4c, 0xb8, 0x97, 0xbe, 0x27, 0xb9, 0x22, 0x3e, 0x11, 0x4e, 0x62, 0x3e,
  0xa0, 0x1f, 0x08, 0x3e, 0xda, 0x68, 0x16, 0x3e, 0x30, 0x20, 0x3b, 0xbe,
  0xfc, 0xdc, 0x83, 0x3d, 0x89, 0xbb, 0x2d, 0x3e, 0x86, 0x0f, 0xa7, 0xbd,
  0xaa, 0x31, 0x6e, 0x3d, 0x1a, 0x82, 0x4c, 0x3e, 0xef, 0x5f, 0x5e, 0x3e,
  0xe7, 0xb2, 0x19, 0xbd, 0x01, 0x0b, 0x6a, 0x3c, 0x9c, 0x57, 0x03, 0xbe,
  0xa1, 0x5b, 0x0f, 0x3e, 0xf0, 0xc9, 0x8d, 0x3d, 0x64, 0xbe, 0xdb, 0x3c,
  0xf1, 0xd7, 0x8e, 0xbe, 0xcb, 0x0d, 0x9d, 0x3d, 0xc4, 0x4f, 0x1f, 0xbe,
  0xfc, 0x40, 0x17, 0x3e, 0x48, 0xde, 0x10, 0xbe, 0xd8, 0x1e, 0xa6, 0x3d,
  0xbb, 0x86, 0x5b, 0xbd, 0xa2, 0x03, 0x2e, 0xbe, 0x0b, 0xcb, 0xb7, 0x3d,
  0x7e, 0x26, 0x93, 0xbe, 0x3f, 0xd1, 0x90, 0x3d, 0x04, 0x59, 0xc3, 0x3d,
  0x61, 0x7b, 0xa7, 0xbe, 0x03, 0xd8, 0x50, 0x3d, 0xc8, 0xb9, 0xd8, 0x3c,
  0x15, 0x26, 0x34, 0xbe, 0x3a, 0xa6, 0xa3, 0xbe, 0xda, 0xb2, 0x99, 0xbd,
  0x5a, 0xab, 0x3a, 0xbe, 0xbc, 0x2a, 0x97, 0xbd, 0xb1, 0x25, 0x89, 0xbe,
  0x30, 0xeb, 0x55, 0xbd, 0xa6, 0xc5, 0x9f, 0x3d, 0xcf, 0x57, 0x26, 0xbe,
  0xc7, 0xbb, 0x3a, 0xbe, 0xee, 0x54, 0x85, 0xbe, 0x91, 0xb9, 0x0d, 0xbe,
  0xf9, 0x83, 0x01, 0xbe, 0x61, 0xcc, 0x5e, 0x3e, 0x2c, 0x2f, 0xe3, 0x3c,
  0x52, 0x5d, 0xcb, 0xbd, 0x35, 0x74, 0x66, 0x3e, 0x37, 0xf2, 0x76, 0xbb,
  0x18, 0x5f, 0x0d, 0x3e, 0xe4, 0xd0, 0xc0, 0xbb, 0xb9, 0x3f, 0x5e, 0xbd,
  0x5f, 0xf2, 0xdb, 0xbd, 0xf1, 0x55, 0x0b, 0x3e, 0x72, 0x29, 0x2e, 0xbe,
  0xf9, 0x46, 0x48, 0x3e, 0xef, 0xc8, 0xe1, 0xbd, 0x28, 0xd7, 0x0a, 0xbe,
  0x27, 0x54, 0x94, 0x3c, 0xae, 0xc8, 0x2d, 0x3d, 0x69, 0x74, 0x2e, 0x3d,
  0x9a, 0xb2, 0x2b, 0xbe, 0xe9, 0xda, 0xea, 0x3d, 0xfc, 0x4b, 0x3a, 0x3e,
  0xe4, 0x2f, 0x8a, 0x3e, 0x75, 0xfd, 0xd9, 0x3d, 0x68, 0x2d, 0x9e, 0x3d,
  0x8f, 0xf3, 0x22, 0x3e, 0xea, 0x76, 0x36, 0x3d, 0x48, 0x8c, 0x93, 0xbc,
  0x88, 0xf9, 0x12, 0xbe, 0xc3, 0x2f, 0xc1, 0xbe, 0x94, 0xfb, 0x00, 0xbe,
  0x3e, 0x38, 0x28, 0xbe, 0x78, 0xc3, 0x31, 0xbe, 0x56, 0xa2, 0x4b, 0xbd,
  0x21, 0xb8, 0xc2, 0xbc, 0x88, 0xe7, 0x79, 0xbe, 0x88, 0xf4, 0x98, 0xbe,
  0x3e, 0xae, 0x82, 0xbe, 0x33, 0xf2, 0xed, 0xbd, 0x9e, 0x46, 0x0a, 0xbe,
  0x99, 0xdb, 0x3b, 0xbe, 0x48, 0x10, 0xe6, 0x3d, 0x5c, 0x04, 0x39, 0x3c,
  0x3e, 0xe3, 0x34, 0xbe, 0xb9, 0xd6, 0x4c, 0xbd, 0x22, 0x3a, 0x86, 0xbe,
  0x0a, 0x17, 0x9c, 0x3c, 0xb5, 0x41, 0xbe, 0xbc, 0x45, 0x11, 0x6b, 0xbd,
  0x46, 0x63, 0x47, 0xbe, 0xc3, 0x69, 0xbf, 0xbd, 0xbb, 0xcc, 0xe2, 0xbd,
  0x13, 0x5b, 0x96, 0xbe, 0xeb, 0xd7, 0xc0, 0xbd, 0x9b, 0x3a, 0x85, 0xbe,
  0x86, 0xf7, 0x6a, 0xbd, 0x0c, 0x9c, 0xbe, 0xbe, 0x03, 0x73, 0xaa, 0x3d,
  0x23, 0xec, 0xa1, 0xbe, 0x87, 0x5e, 0xe8, 0xbb, 0xf3, 0x17, 0xb6, 0xbe,
  0xc2, 0xb4, 0x5e, 0xbe, 0xfe, 0xfb, 0xbc, 0xbd, 0x88, 0x29, 0x22, 0x3e,
  0x8b, 0x90, 0x9b, 0x3d, 0xb6, 0x5d, 0x08, 0xbd, 0x42, 0x11, 0xf1, 0xbd,
  0x33, 0xe0, 0xd0, 0x3d, 0x31, 0x14, 0xa0, 0xbe, 0x16, 0x7d, 0xd3, 0xbc,
  0x5d, 0xa4, 0xb6, 0xbe, 0xff, 0xf0, 0xa9, 0xbe, 0x94, 0xa5, 0x8b, 0xbd,
  0x54, 0x06, 0xfe, 0xbd, 0xcc, 0xff, 0xe2, 0xbc, 0x56, 0xbd, 0x7e, 0xbc,
  0x97, 0x8a, 0xa2, 0xbe, 0x0b, 0x56, 0xd0, 0xbb, 0xc9, 0x68, 0x24, 0x3d,
  0x6f, 0xd7, 0x36, 0xbe, 0xed, 0x62, 0xb8, 0xbe, 0x84, 0xe7, 0x2f, 0x3c,
  0x72, 0x29, 0x34, 0x3e, 0xa5, 0x09, 0x7d, 0xbd, 0xaa, 0xde, 0xbe, 0x3e,
  0x7f, 0x65, 0x7e, 0x3d, 0x0b, 0x33, 0x12, 0x3e, 0xca, 0x4e, 0xaf, 0x3e,
  0xa6, 0x06, 0x42, 0x3e, 0x6b, 0xcc, 0x81, 0x3e, 0x51, 0x24, 0xd5, 0xbd,
  0x5f, 0xd3, 0x17, 0x3d, 0xdb, 0x63, 0xb3, 0x3c, 0xd9, 0xed, 0x2d, 0x3e,
  0xbb, 0xd4, 0x5e, 0x3d, 0x68, 0x22, 0xee, 0xbc, 0xf0, 0x56, 0xb9, 0xbd,
  0x27, 0xd2, 0x86, 0x3e, 0x0e, 0xda, 0x9a, 0x3e, 0x3e, 0xb4, 0x22, 0x3b,
  0x8a, 0xf6, 0xd6, 0x3c, 0xc1, 0xaf, 0x81, 0xbd, 0xf0, 0xff, 0x11, 0xbe,
  0xf8, 0x34, 0x9e, 0x3e, 0x1f, 0xbe, 0x87, 0x3d, 0xe2, 0xbb, 0x9f, 0x3e,
  0xe1, 0x29, 0x5c, 0x3e, 0x88, 0x12, 0x29, 0x3e, 0x42, 0xee, 0x18, 0xbd,
  0xfc, 0x2d, 0x61, 0x3d, 0x1a, 0xa6, 0x6e, 0xbe, 0x4d, 0x20, 0xa7, 0x3d,
  0x93, 0xac, 0xd1, 0x3d, 0xfa, 0x2a, 0xb1, 0x3d, 0xc4, 0x61, 0x21, 0x3e,
  0x86, 0xcf, 0x1b, 0xbd, 0xc9, 0x1f, 0x16, 0xbe, 0xfe, 0xd3, 0xf8, 0xbd,
  0x40, 0x87, 0x61, 0x3e, 0x0b, 0x73, 0x0f, 0xbe, 0x07, 0x0d, 0xb0, 0x3d,
  0x3a, 0xf5, 0x37, 0x3e, 0x8f, 0x20, 0x45, 0xbe, 0x3e, 0x64, 0xaf, 0x3d,
  0x85, 0xd5, 0x1c, 0xbc, 0xa2, 0x27, 0x81, 0xbd, 0x8e, 0xa9, 0xc7, 0x3d,
  0x02, 0x61, 0x2f, 0xbe, 0xbf, 0x0e, 0xbc, 0x3c, 0x00, 0xaa, 0x26, 0xbe,
  0x4b, 0xd8, 0x20, 0xbe, 0x1a, 0x01, 0x0c, 0xbe, 0x74, 0x9d, 0x22, 0x3e,
  0x2f, 0xa0, 0x0e, 0x3e, 0x25, 0xd0, 0x87, 0x3d, 0x68, 0x68, 0x7c, 0xbd,
  0x0f, 0xf0, 0x49, 0x3b, 0xd1, 0x67, 0x6e, 0xbe, 0x2b, 0x1b, 0x49, 0x3e,
  0x5f, 0xd3, 0x05, 0x3e, 0xd4, 0x37, 0x6c, 0xbe, 0x23, 0x1a, 0x08, 0xbe,
  0x05, 0x6c, 0x26, 0x3e, 0xc1, 0x7f, 0x56, 0x3e, 0x0b, 0x9a, 0xe5, 0x3d,
  0xdd, 0x3e, 0x3c, 0x3e, 0xe4, 0xc7, 0x48, 0xbe, 0xa0, 0x48, 0xf1, 0x3d,
  0x1a, 0x17, 0x56, 0xbe, 0x11, 0x5d, 0xc3, 0xbd, 0x77, 0x20, 0x8e, 0xbc,
  0x8b, 0x6d, 0x34, 0xbe, 0x0b, 0xdf, 0x4a, 0xbe, 0x26, 0xe0, 0x02, 0xbe,
  0xa6, 0x5f, 0xf9, 0x3d, 0x36, 0x4d, 0xc2, 0xbb, 0xbc, 0x3e, 0xa1, 0xbd,
  0x70, 0x2c, 0x0c, 0xbd, 0xb5, 0xf5, 0x40, 0xbe, 0xf0, 0xd6, 0x44, 0x3d,
  0xc2, 0x82, 0x71, 0x3d, 0xba, 0x71, 0x00, 0xbe, 0xae, 0xcd, 0x13, 0xbe,
  0xcd, 0x55, 0x65, 0x3e, 0x1c, 0x20, 0x03, 0x3e, 0xde, 0xdc, 0xa1, 0x3d,
  0x4f, 0x8f, 0x02, 0xbe, 0xf2, 0xeb, 0x52, 0x3e, 0x5b, 0xe6, 0xb9, 0xbd,
  0x56, 0x92, 0x5a, 0xbc, 0x45, 0x41, 0x36, 0x3e, 0xbb, 0x1c, 0x43, 0x3e,
  0xe4, 0x9a, 0x8f, 0x3e, 0xcb, 0xaf, 0x15, 0x3e, 0x87, 0xc5, 0x37, 0x3d,
  0x30, 0xdb, 0x1e, 0xbe, 0x03, 0x3b, 0x57, 0x3e, 0xcd, 0x5e, 0x96, 0x3d,
  0x03, 0xa6, 0x5d, 0xbd, 0x85, 0x1d, 0x19, 0xbe, 0x9a, 0xf6, 0xe8, 0xbc,
  0xb1, 0x4c, 0x8d, 0xbd, 0x0c, 0xc0, 0x03, 0x3d, 0x2c, 0xde, 0x94, 0xbe,
  0xb0, 0xfe, 0x0f, 0xbe, 0x1d, 0x99, 0x64, 0xbe, 0x2b, 0x7e, 0x81, 0xbe,
  0x66, 0x1d, 0x47, 0x3d, 0xaf, 0xdf, 0x76, 0xbe, 0x46, 0x1a, 0xbd, 0xbc,
  0xc3, 0x37, 0x75, 0x3e, 0xb5, 0xe4, 0x11, 0x3e, 0x86, 0x85, 0x8a, 0x3e,
  0x5a, 0xd4, 0x99, 0x3e, 0x99, 0x67, 0x13, 0xbe, 0xdd, 0x3d, 0x01, 0x3c,
  0xe0, 0x4d, 0xc9, 0xbd, 0x33, 0xa4, 0xf7, 0xbd, 0xfb, 0x1d, 0xd5, 0xbb,
  0x02, 0x5d, 0xb2, 0x3c, 0x26, 0x1b, 0x34, 0xbe, 0x81, 0xbb, 0x91, 0x3d,
  0xc0, 0xf1, 0x05, 0x3c, 0x9a, 0x74, 0x49, 0xbd, 0xf6, 0x05, 0x3d, 0xbe,
  0xec, 0xf8, 0x0a, 0xbd, 0xd1, 0xda, 0xc7, 0xbd, 0x4c, 0x0f, 0xcf, 0x3d,
  0x6e, 0x6f, 0xfc, 0x3c, 0x44, 0x0a, 0x44, 0xbe, 0x1e, 0xcf, 0x8d, 0x3d,
  0x2e, 0x5a, 0x54, 0x3e, 0xab, 0x3a, 0x4c, 0x3e, 0xde, 0x97, 0x81, 0x3e,
  0xc8, 0x09, 0x85, 0x3e, 0xd0, 0xf4, 0xd3, 0xbd, 0xe9, 0x06, 0x37, 0xbe,
  0x11, 0x00, 0x61, 0x3d, 0xd7, 0xd7, 0x36, 0x3e, 0x44, 0x24, 0xc1, 0x3d,
  0xae, 0xc4, 0x5f, 0x3e, 0xd8, 0x3e, 0x82, 0x3e, 0xa1, 0x0f, 0x80, 0x3e,
  0x34, 0x3c, 0xbe, 0x3d, 0xbc, 0xc8, 0x8d, 0xbd, 0x79, 0x28, 0x5b, 0x3e,
  0xaa, 0x28, 0x4a, 0xbe, 0x5c, 0x12, 0x6c, 0x3d, 0xad, 0xc6, 0x93, 0x3e,
  0x58, 0x1e, 0x0f, 0x3e, 0x6f, 0x3b, 0xb5, 0xbd, 0x2a, 0xa2, 0x2b, 0x3e,
  0xe1, 0x8f, 0x97, 0x3e, 0x7f, 0x43, 0x94, 0x3e, 0x42, 0x88, 0x3d, 0x3d,
  0xe0, 0xf1, 0x36, 0x3e, 0x80, 0x8f, 0xe7, 0xbd, 0x38, 0x90, 0x7d, 0x3e,
  0x5b, 0x66, 0xed, 0xbc, 0x58, 0x6f, 0x26, 0xbb, 0x87, 0x39, 0x35, 0x3e,
  0x14, 0xf6, 0x3c, 0x3e, 0xbe, 0xa7, 0xc4, 0xbb, 0xbe, 0xe5, 0x2c, 0x3e,
  0xa8, 0x2b, 0x2b, 0xbe, 0x04, 0xd6, 0x69, 0xbd, 0xb9, 0x67, 0x27, 0x3e,
  0xee, 0x8d, 0x8c, 0x3e, 0x3f, 0xc9, 0xc0, 0xbc, 0x3a, 0xd4, 0xbf, 0xbd,
  0xd5, 0x23, 0xbd, 0xbd, 0x13, 0xe9, 0xa0, 0x3c, 0x2e, 0x10, 0x3b, 0x3e,
  0x16, 0x50, 0x69, 0xbe, 0x5d, 0xf1, 0x0e, 0x3e, 0x15, 0xe3, 0x10, 0x3e,
  0x65, 0xbb, 0x33, 0x3d, 0xfd, 0x03, 0x76, 0x3e, 0x9d, 0xd6, 0xb4, 0x3d,
  0xc7, 0xc0, 0xa4, 0x3d, 0xdf, 0x2c, 0x87, 0x3e, 0x47, 0x3f, 0x6c, 0xbe,
  0x3d, 0x94, 0x37, 0xbe, 0x28, 0x32, 0x2d, 0xbe, 0xbd, 0x7b, 0xa5, 0xbd,
  0xa2, 0x23, 0x8b, 0xbd, 0x7c, 0xc9, 0x4a, 0x3e, 0x69, 0x7e, 0x9d, 0x3e,
  0x3c, 0xd9, 0x94, 0x3d, 0xdc, 0xec, 0x30, 0x3e, 0x8e, 0x7a, 0x96, 0xbd,
  0x2e, 0x3c, 0x78, 0x3d, 0xbb, 0xc7, 0x4c, 0xbd, 0xda, 0xd1, 0x87, 0xbd,
  0xe7, 0x8a, 0x01, 0xbe, 0x20, 0x40, 0x3b, 0x3e, 0x0c, 0xb6, 0x27, 0xbe,
  0xf4, 0x62, 0x21, 0xbe, 0xee, 0x22, 0x87, 0xbd, 0x9a, 0x94, 0xd4, 0xbd,
  0x7b, 0x95, 0xc8, 0x3d, 0xbe, 0x34, 0xc8, 0x3d, 0xff, 0xca, 0x2a, 0x3d,
  0x2a, 0x33, 0x1a, 0x3e, 0x86, 0x53, 0x26, 0xbe, 0x7a, 0x92, 0x91, 0x3d,
  0xc1, 0x26, 0xf4, 0x3d, 0x38, 0xb2, 0x55, 0x3e, 0x42, 0x6c, 0x18, 0xbe,
  0xa6, 0x17, 0x07, 0xbe, 0xb2, 0x56, 0x37, 0x3d, 0xd5, 0x26, 0x70, 0xbd,
  0x43, 0x45, 0xd4, 0xbd, 0xb1, 0x6e, 0x36, 0x3e, 0xc0, 0xc2, 0xbe, 0x3c,
  0x21, 0x34, 0x2e, 0xbd, 0xa7, 0x5b, 0x28, 0x3e, 0xad, 0x74, 0x8a, 0x3e,
  0x4e, 0x91, 0x12, 0xbe, 0x8b, 0x13, 0xb2, 0xbd, 0xb4, 0x53, 0x4d, 0x3d,
  0xdf, 0x8f, 0x09, 0xbe, 0xf5, 0x92, 0x53, 0xbd, 0xa8, 0x63, 0xba, 0x3d,
  0x12, 0x42, 0x25, 0xbe, 0x96, 0x0c, 0xf1, 0xbd, 0xc2, 0x3a, 0x4d, 0xbe,
  0x33, 0xed, 0x71, 0xbe, 0xd7, 0xc2, 0x65, 0xbe, 0x9d, 0xe3, 0x19, 0xbe,
  0x1b, 0x5f, 0x54, 0x3e, 0x4b, 0xa7, 0x20, 0x3d, 0xa4, 0xe0, 0xd4, 0xbd,
  0x18, 0xda, 0x87, 0xbb, 0x2f, 0xdc, 0xa3, 0x3c, 0x57, 0xc0, 0xaf, 0x3d,
  0x10, 0x24, 0x4e, 0xbd, 0x20, 0x46, 0xe7, 0x3b, 0xf2, 0x9b, 0xf9, 0x3a,
  0x25, 0x9f, 0x98, 0x3d, 0x88, 0x34, 0x11, 0xbe, 0x8f, 0x0d, 0x8e, 0xbd,
  0xe3, 0x7c, 0x58, 0x3d, 0xef, 0x85, 0x43, 0xbd, 0x2e, 0xec, 0x8a, 0xbc,
  0x24, 0x53, 0x5c, 0xbe, 0xd1, 0xba, 0xb5, 0x3d, 0xca, 0x44, 0xcb, 0x3c,
  0x13, 0x9e, 0x06, 0x3e, 0xb2, 0xd5, 0x71, 0x3e, 0x0a, 0x7b, 0x7c, 0xbe,
  0x1b, 0x58, 0x6a, 0xbd, 0x5d, 0x9b, 0x5e, 0xbe, 0xa4, 0xad, 0x70, 0xbd,
  0xcb, 0x5e, 0xce, 0xbd, 0x73, 0x54, 0xa9, 0x3e, 0x58, 0xda, 0xa4, 0x3e,
  0x54, 0x65, 0x62, 0xbe, 0xc6, 0x16, 0xf2, 0xbd, 0x98, 0xad, 0x22, 0xbe,
  0x54, 0x97, 0x53, 0xbd, 0x0d, 0xab, 0x7f, 0x3d, 0x0a, 0x88, 0x0e, 0x3d,
  0x8b, 0x91, 0x40, 0x3e, 0xf4, 0xa4, 0x39, 0x3e, 0x4e, 0xce, 0x74, 0xbc,
  0x5f, 0x35, 0x03, 0x3d, 0xef, 0xd2, 0x5a, 0xbd, 0xe7, 0x35, 0x32, 0xbe,
  0x95, 0x3b, 0xca, 0x3d, 0x23, 0x61, 0xd0, 0x3c, 0x8a, 0x74, 0x4d, 0xbe,
  0x57, 0x0a, 0x58, 0xbd, 0xd2, 0xfd, 0xc0, 0x3e, 0xc8, 0xa2, 0x13, 0x3e,
  0x9f, 0x25, 0x8c, 0xbc, 0x76, 0xe1, 0xb3, 0xbd, 0x4b, 0x82, 0x2f, 0xbd,
  0x44, 0x7e, 0x0d, 0xbe, 0x52, 0xbf, 0xc2, 0x3c, 0x93, 0x47, 0x34, 0x3e,
  0x98, 0x94, 0xc2, 0x3d, 0x2e, 0xbe, 0xe8, 0x3d, 0xe8, 0x99, 0xd4, 0x3d,
  0x5d, 0x3c, 0xbe, 0x3d, 0x7f, 0xc1, 0x54, 0x3e, 0x3a, 0xbb, 0x29, 0x3e,
  0xab, 0x90, 0x4d, 0xbe, 0x36, 0x88, 0x2b, 0xbe, 0x7f, 0x6d, 0x0c, 0xbe,
  0x59, 0xd3, 0x1a, 0xbe, 0x8a, 0x55, 0xb0, 0x3d, 0x81, 0x4c, 0x86, 0x3e,
  0xa1, 0xe4, 0x5c, 0xbc, 0x46, 0xd2, 0x15, 0x3e, 0xc6, 0xda, 0x79, 0x3e,
  0x9e, 0x4c, 0x42, 0xbb, 0x8e, 0xa6, 0x24, 0xbc, 0xb2, 0x41, 0x5f, 0xbe,
  0xc0, 0x6f, 0x97, 0x3e, 0x28, 0x14, 0xa7, 0x3d, 0xc6, 0xee, 0xf2, 0x3c,
  0x18, 0x9f, 0x40, 0x3d, 0xe9, 0x19, 0x57, 0xbd, 0xa7, 0x85, 0x10, 0xbe,
  0xdc, 0x51, 0xe9, 0xbd, 0x0f, 0xb1, 0xec, 0xbd, 0x5b, 0xf3, 0x99, 0xbc,
  0x14, 0xd8, 0x83, 0x3d, 0x32, 0xbf, 0x5d, 0x3c, 0xef, 0xae, 0x95, 0x3c,
  0xe3, 0xd9, 0x9e, 0xbe, 0x01, 0xfb, 0xf9, 0x3d, 0xe2, 0xae, 0x00, 0xbe,
  0xbe, 0xc1, 0xcc, 0xbd, 0x8e, 0xf8, 0x96, 0xbe, 0x55, 0x9c, 0xd0, 0xbd,
  0xc4, 0xa3, 0x1e, 0x3e, 0x56, 0x9f, 0x65, 0xbd, 0x98, 0xbd, 0xb4, 0xbe,
  0xe0, 0xb9, 0x1b, 0xbe, 0xc0, 0xf6, 0x65, 0x3d, 0xbf, 0x15, 0xa8, 0xbd,
  0xa1, 0xfd, 0x2c, 0x3d, 0xc9, 0xd8, 0x96, 0xbe, 0xd7, 0xa1, 0x38, 0xbe,
  0x96, 0xc3, 0x70, 0x3e, 0xd7, 0x71, 0xa1, 0xbe, 0x01, 0x77, 0x2a, 0xbd,
  0x93, 0xff, 0x1d, 0xbe, 0x85, 0xa6, 0xbc, 0xbe, 0x44, 0x1a, 0x83, 0xbe,
  0xd8, 0x0f, 0x0f, 0xbe, 0x85, 0x98, 0x8e, 0xbe, 0x1f, 0x91, 0x89, 0xbe,
  0x10, 0x83, 0x0b, 0x3e, 0x9c, 0x3f, 0x94, 0xbe, 0x1a, 0xe2, 0xc7, 0x3d,
  0x90, 0x96, 0x84, 0xbe, 0x88, 0x27, 0x92, 0xbe, 0x4b, 0xf1, 0x82, 0xbe,
  0x9c, 0x5b, 0xa7, 0x3d, 0xf0, 0x04, 0x03, 0xbd, 0x52, 0xa3, 0x0a, 0x3d,
  0x98, 0x81, 0x07, 0xbe, 0x26, 0xf2, 0x11, 0xbd, 0x45, 0x2d, 0x82, 0xbe,
  0x7b, 0x8b, 0x40, 0xbe, 0xe1, 0x74, 0xef, 0x3c, 0x42, 0x31, 0xe7, 0x3d,
  0xde, 0xd0, 0x6e, 0xbe, 0xbe, 0x76, 0x0d, 0x3d, 0x9b, 0x39, 0x93, 0xbe,
  0x65, 0x53, 0xa5, 0x3d, 0x1d, 0xba, 0x97, 0xbe, 0x29, 0xc0, 0x00, 0x3e,
  0x69, 0xd2, 0x13, 0x3d, 0x1e, 0x0f, 0x71, 0xbe, 0x58, 0xd8, 0xed, 0xbd,
  0xd8, 0xd6, 0x8b, 0xbe, 0x60, 0x48, 0x66, 0x3b, 0x80, 0x1d, 0x9b, 0xbd,
  0x21, 0x1f, 0x2b, 0x3e, 0xa7, 0xcf, 0x64, 0xbd, 0x07, 0x67, 0x60, 0xbd,
  0x1c, 0xff, 0x6d, 0x3e, 0xa6, 0x5a, 0x33, 0xbe, 0xe1, 0xdd, 0xa8, 0x3d,
  0xff, 0xdc, 0x11, 0xbe, 0x04, 0xcf, 0x90, 0x3e, 0x10, 0xf8, 0xcb, 0xbc,
  0xb2, 0x84, 0x39, 0xbd, 0x1d, 0x17, 0x61, 0xbe, 0x92, 0x48, 0x9e, 0x3b,
  0x46, 0x08, 0x10, 0x3d, 0xb5, 0xcd, 0x8f, 0xbd, 0x00, 0x8c, 0x24, 0xbe,
  0x76, 0x99, 0xc0, 0x3d, 0x32, 0x87, 0x07, 0x3e, 0xe0, 0x1a, 0x5c, 0xbd,
  0x47, 0x72, 0x43, 0x3e, 0x47, 0x87, 0x4d, 0x3b, 0x66, 0x38, 0x07, 0xbe,
  0xfe, 0x47, 0x3a, 0x3e, 0x37, 0xab, 0x03, 0xbe, 0xcc, 0x9d, 0x16, 0x3e,
  0x74, 0xda, 0x38, 0x3c, 0x8a, 0xe8, 0x40, 0xbe, 0x39, 0x71, 0x8c, 0x3e,
  0x46, 0x70, 0x79, 0x3e, 0xf3, 0x31, 0x22, 0xbe, 0x40, 0x6f, 0x17, 0x3d,
  0x5d, 0xfb, 0x2a, 0xbd, 0x5d, 0x24, 0x3f, 0x3e, 0xd0, 0x24, 0x8b, 0x3d,
  0xc3, 0xd6, 0x2b, 0xbd, 0xee, 0x88, 0x22, 0xbd, 0x4e, 0xcf, 0xa7, 0xbd,
  0x2d, 0x13, 0x95, 0x3e, 0x70, 0xac, 0x27, 0x3d, 0x3c, 0xcd, 0x6d, 0xbe,
  0x41, 0x60, 0xd0, 0xbd, 0xc7, 0xdf, 0x12, 0x3e, 0x4d, 0x20, 0x0c, 0x3e,
  0x5d, 0x98, 0xa0, 0xbd, 0xba, 0x58, 0x0e, 0x3c, 0x6c, 0xc6, 0x26, 0xbd,
  0x9d, 0xd9, 0xb0, 0x3c, 0x0b, 0xdc, 0x15, 0x3d, 0xd6, 0xb0, 0x86, 0x3d,
  0x8c, 0x8c, 0x8e, 0x3d, 0xa7, 0x26, 0xbd, 0xbd, 0x8a, 0xcc, 0x83, 0xbc,
  0x67, 0xa4, 0x40, 0x3e, 0x1e, 0x2f, 0x8f, 0x3d, 0x7c, 0xff, 0x82, 0x3e,
  0x19, 0x20, 0x56, 0x3e, 0x32, 0x1f, 0x0b, 0x3b, 0x0c, 0x76, 0x5f, 0x3e,
  0x89, 0x3d, 0x02, 0x3e, 0x01, 0xc8, 0x90, 0xbd, 0x08, 0x9a, 0x73, 0xbd,
  0xf0, 0x5a, 0x52, 0x3d, 0xc5, 0xa8, 0xbb, 0x3c, 0x0e, 0xcc, 0x3c, 0x3e,
  0x3f, 0xc0, 0x8b, 0x3c, 0x6f, 0x18, 0x11, 0xbe, 0xcc, 0xed, 0x38, 0x3e,
  0x20, 0x45, 0x02, 0xbe, 0x1f, 0xbe, 0xe7, 0xbd, 0x26, 0x4e, 0x38, 0xbe,
  0xec, 0x9b, 0x69, 0xbe, 0x79, 0x11, 0x13, 0x3e, 0x6f, 0xab, 0x9e, 0x3e,
  0x1b, 0xd5, 0xec, 0x3d, 0xd0, 0x12, 0x02, 0xbd, 0x0f, 0x9a, 0xff, 0xbd,
  0xfc, 0x31, 0x51, 0x3e, 0xb0, 0xe0, 0xb5, 0xbd, 0xa3, 0xdc, 0xfa, 0x3c,
  0xfb, 0x4d, 0x80, 0x3e, 0xaf, 0x38, 0x71, 0x3e, 0xc3, 0x5d, 0x8c, 0x3e,
  0xaa, 0xd5, 0x85, 0xbc, 0x00, 0x4e, 0x38, 0xbe, 0x99, 0xfd, 0x96, 0x3d,
  0x90, 0x07, 0x6c, 0x3e, 0x70, 0x3f, 0x39, 0x3c, 0xc9, 0x23, 0x90, 0x3d,
  0x5c, 0x95, 0x3a, 0xbd, 0x57, 0x2f, 0x5b, 0x3e, 0xf5, 0xe6, 0xec, 0x3c,
  0x5e, 0xe3, 0x1d, 0x3e, 0xc3, 0xc6, 0xbc, 0x3d, 0xb9, 0xbe, 0x2e, 0x3e,
  0xe6, 0xd9, 0x11, 0xbd, 0x70, 0x72, 0x50, 0x3e, 0x5e, 0xb8, 0x3c, 0xbe,
  0x08, 0xa5, 0x84, 0x3d, 0xc4, 0x6a, 0x5b, 0x3d, 0x0a, 0x57, 0x5a, 0x3e,
  0xed, 0xc4, 0x9f, 0x3d, 0x42, 0x02, 0xcc, 0x3d, 0x2e, 0x98, 0x21, 0xbe,
  0xc7, 0xa4, 0x1e, 0x3e, 0xf0, 0xb2, 0x8c, 0x3e, 0xb3, 0x61, 0x51, 0xbd,
  0x30, 0x11, 0x71, 0xbb, 0x03, 0xfc, 0x57, 0x3e, 0x87, 0x92, 0xb5, 0x3d,
  0x60, 0xdc, 0x3c, 0x3e, 0x26, 0x8c, 0x7a, 0x3d, 0x6e, 0xb3, 0xd5, 0xbc,
  0xe5, 0xe6, 0x77, 0xbd, 0x3b, 0x8f, 0x4c, 0x3d, 0x81, 0x43, 0x65, 0x3e,
  0x10, 0x10, 0x97, 0x3e, 0x55, 0xe0, 0x52, 0x3e, 0xee, 0x2a, 0x44, 0xbe,
  0xc4, 0xa4, 0x8e, 0x3e, 0x6e, 0x1d, 0xa5, 0x3d, 0x94, 0xc5, 0xbf, 0xbc,
  0x47, 0xe2, 0xd3, 0x3d, 0x23, 0x35, 0xd5, 0x3d, 0x57, 0xbe, 0x3c, 0x3e,
  0x22, 0x34, 0x31, 0xbd, 0x71, 0x02, 0x87, 0xbd, 0x7d, 0xce, 0xe1, 0xbd,
  0x28, 0x7b, 0xcc, 0xbc, 0x79, 0x54, 0xf0, 0xbd, 0x39, 0x5b, 0x12, 0x3e,
  0x0e, 0xf5, 0x24, 0x3c, 0xe8, 0xb6, 0xd9, 0x3c, 0xc1, 0xa3, 0x74, 0xbb,
  0xe2, 0xe0, 0x01, 0xbd, 0xa6, 0xde, 0xd5, 0xbd, 0xd5, 0x98, 0x40, 0xbe,
  0x5d, 0x24, 0x12, 0x3e, 0x57, 0xe3, 0x6b, 0xbe, 0x87, 0xe6, 0x44, 0x3e,
  0x9d, 0x9b, 0x67, 0x3e, 0x4d, 0x39, 0x10, 0xbe, 0x30, 0xc1, 0x40, 0x3d,
  0xe7, 0x04, 0x01, 0xbb, 0x3a, 0xa4, 0x52, 0xbe, 0x8f, 0x44, 0x17, 0xbe,
  0x74, 0xb6, 0x8e, 0x3e, 0x12, 0x52, 0xc1, 0x3d, 0x62, 0x4d, 0x88, 0x3c,
  0x67, 0x04, 0x12, 0x3e, 0x13, 0x4d, 0x26, 0xba, 0x21, 0xb4, 0x5e, 0xbe,
  0x8d, 0x8d, 0x2f, 0xbe, 0xac, 0xcd, 0x2f, 0xbe, 0xf8, 0x6f, 0xdc, 0x3d,
  0xe5, 0xb9, 0x9e, 0x3e, 0x0f, 0xd3, 0x3c, 0xbe, 0xcb, 0xae, 0x2d, 0x3c,
  0x49, 0x30, 0x43, 0x3e, 0xee, 0x35, 0x9c, 0xbd, 0xe7, 0xae, 0x09, 0xbe,
  0x44, 0xa5, 0x5d, 0x3e, 0xec, 0x6e, 0x38, 0xbd, 0x91, 0x43, 0x0c, 0x3e,
  0x9a, 0x47, 0x17, 0x3e, 0x3e, 0xb4, 0xa3, 0xbe, 0x03, 0xdc, 0x42, 0xbb,
  0xc6, 0x3e, 0x0b, 0xbe, 0xd4, 0xa8, 0x1d, 0xbe, 0x82, 0xad, 0xb4, 0xbe,
  0x47, 0xb3, 0x94, 0xbe, 0x0e, 0xef, 0x8f, 0xbe, 0x6b, 0x9d, 0x26, 0xbe,
  0xad, 0xf2, 0x05, 0x3d, 0xd5, 0x89, 0x2e, 0x3e, 0xd0, 0xfd, 0x85, 0xbe,
  0x6f, 0x88, 0xd6, 0x3c, 0xdf, 0x63, 0x11, 0x3e, 0xc7, 0x3d, 0x25, 0xbe,
  0x95, 0x3e, 0x5e, 0xbe, 0x48, 0xdf, 0x13, 0x3d, 0x0f, 0xf0, 0x2d, 0xbc,
  0xa0, 0x9e, 0x4d, 0xbe, 0x17, 0x62, 0xa6, 0x3d, 0xf0, 0x4e, 0x80, 0x3d,
  0xab, 0xd7, 0x6a, 0xbd, 0x82, 0x9c, 0x98, 0x3e, 0x5b, 0x5a, 0x89, 0x3d,
  0xc8, 0x4d, 0x26, 0x3d, 0xe7, 0x23, 0x90, 0xbd, 0xd2, 0xf2, 0x2c, 0xbb,
  0x51, 0x4d, 0xdc, 0xbc, 0x6e, 0x39, 0xae, 0x3e, 0x08, 0x1e, 0x7d, 0x3e,
  0x93, 0x4f, 0x89, 0x3e, 0xe2, 0x9c, 0xa7, 0x3e, 0xfa, 0xcc, 0xd7, 0x3d,
  0x3e, 0x97, 0xfb, 0x3b, 0xdc, 0xbb, 0x1c, 0x3e, 0xf7, 0x55, 0x8b, 0xbe,
  0x5c, 0x04, 0xfa, 0xbb, 0xf6, 0x92, 0x8c, 0x3e, 0xb4, 0x52, 0x49, 0xbd,
  0x90, 0xee, 0x72, 0x3b, 0x9e, 0x1a, 0xc1, 0x3d, 0xe6, 0x83, 0x46, 0x3c,
  0xc6, 0xc8, 0x3b, 0x3e, 0x3d, 0x3c, 0xcf, 0xbd, 0xf9, 0xd1, 0xac, 0xbd,
  0xac, 0x8a, 0x12, 0xbe, 0x2d, 0x0b, 0x37, 0xbd, 0xb8, 0x51, 0x48, 0xbd,
  0x46, 0xd3, 0x2c, 0x3c, 0x88, 0x6a, 0x0d, 0xbe, 0xef, 0xc9, 0x99, 0x3d,
  0xe4, 0x73, 0xd0, 0x3d, 0xa9, 0xef, 0x74, 0xbd, 0x6e, 0x19, 0x1e, 0xbd,
  0x2e, 0x23, 0x4c, 0xbc, 0xff, 0xa8, 0x0f, 0xbe, 0x29, 0xd4, 0x69, 0xbd,
  0x23, 0x6e, 0x0d, 0xbe, 0xf5, 0x20, 0x5d, 0x3d, 0x3b, 0x88, 0x43, 0xbd,
  0xb7, 0xaf, 0xb3, 0x3d, 0x76, 0xbb, 0x05, 0xbe, 0x23, 0x7a, 0x87, 0xbc,
  0x60, 0xad, 0x49, 0xbe, 0xbe, 0xa3, 0x91, 0xbd, 0xf1, 0x49, 0x17, 0xbe,
  0x59, 0xf1, 0x7f, 0xbe, 0xee, 0x25, 0x81, 0xbe, 0xc7, 0xa5, 0xf1, 0xbd,
  0xa0, 0xaf, 0x84, 0xbe, 0xd0, 0x0b, 0x77, 0xbe, 0x84, 0x72, 0xca, 0xbd,
  0xa6, 0x48, 0x07, 0x3e, 0x47, 0x4e, 0x28, 0x3e, 0x14, 0xdf, 0x86, 0xbd,
  0x20, 0x22, 0x80, 0xbe, 0xb3, 0x61, 0x52, 0xbd, 0x52, 0x96, 0x77, 0xbe,
  0x0a, 0x78, 0x63, 0xbd, 0xf0, 0x48, 0x5e, 0xbe, 0x0d, 0x0c, 0x2e, 0xbe,
  0xcd, 0x0e, 0x26, 0x3d, 0x02, 0xee, 0x3c, 0xbe, 0x1c, 0x88, 0x53, 0x3d,
  0xbd, 0x3d, 0x9d, 0xbe, 0x2c, 0x65, 0x38, 0xbe, 0x32, 0x50, 0xaa, 0xbe,
  0x8c, 0x7f, 0x09, 0xbe, 0x93, 0x6b, 0x6a, 0xbe, 0xae, 0x43, 0x62, 0xbe,
  0xef, 0xf1, 0xbc, 0xbd, 0x11, 0x29, 0xa8, 0xbd, 0xc8, 0xa5, 0x96, 0x3e,
  0x5f, 0xde, 0x84, 0x3e, 0xd4, 0xe3, 0x0d, 0xbe, 0xaa, 0x22, 0x8e, 0x3e,
  0x5a, 0x5d, 0x72, 0xbb, 0xfa, 0x1d, 0xd9, 0xbd, 0xc5, 0x7e, 0xa0, 0xbd,
  0xa9, 0xf5, 0x97, 0x3d, 0x3c, 0x9f, 0xa6, 0x3d, 0x65, 0xd8, 0x72, 0x3e,
  0x18, 0xfe, 0x0c, 0xbe, 0x46, 0x45, 0x03, 0xbe, 0xae, 0x00, 0x7f, 0x3e,
  0x91, 0x99, 0xd4, 0x3d, 0x93, 0xb5, 0x20, 0x3c, 0x68, 0xff, 0x3f, 0xbe,
  0xe6, 0x44, 0x06, 0xbe, 0x7a, 0xb4, 0x63, 0xbe, 0xf1, 0xef, 0x63, 0x3e,
  0x0d, 0xb9, 0xf0, 0xbd, 0x56, 0xd7, 0x02, 0xbe, 0xcb, 0x44, 0x06, 0xbe,
  0x25, 0xb9, 0x7e, 0x3e, 0x50, 0x07, 0x45, 0x3e, 0x72, 0xeb, 0x2e, 0xbd,
  0x7b, 0x71, 0x25, 0xbe, 0xc5, 0x09, 0xc6, 0x3d, 0x7c, 0x31, 0x14, 0xbd,
  0x60, 0x0c, 0x0f, 0x3e, 0x38, 0x16, 0x20, 0xbe, 0x1e, 0xd0, 0xd8, 0x3d,
  0x4f, 0xbe, 0x0b, 0xbe, 0x14, 0x38, 0x6d, 0xbd, 0xea, 0xe7, 0xde, 0xbd,
  0x97, 0xf9, 0xaa, 0x3c, 0x9f, 0x28, 0x62, 0xbe, 0x75, 0x33, 0x15, 0xbe,
  0x1d, 0x16, 0xc4, 0xbd, 0x93, 0xfc, 0x04, 0x3e, 0xd9, 0x0b, 0x89, 0xbd,
  0xee, 0xf0, 0x0e, 0xbe, 0xb7, 0x97, 0x39, 0xbe, 0xcd, 0x6d, 0x5f, 0x3b,
  0x7f, 0xdd, 0x0c, 0xbe, 0xf8, 0xac, 0xe9, 0xbd, 0x91, 0x06, 0xcc, 0x3c,
  0x06, 0x72, 0xc6, 0xbd, 0x66, 0x1f, 0x29, 0xbd, 0xb2, 0x03, 0x09, 0xbe,
  0x99, 0xfe, 0xd9, 0xbd, 0x09, 0x17, 0x1f, 0xbe, 0xd3, 0xf7, 0xfe, 0xbd,
  0x9e, 0x39, 0xc2, 0x3d, 0x4a, 0x10, 0x62, 0x3e, 0x06, 0x75, 0x6c, 0x3d,
  0x2a, 0xad, 0x97, 0xbc, 0x35, 0xf3, 0x40, 0xbe, 0x7b, 0x1f, 0x60, 0x39,
  0x38, 0xfd, 0x8c, 0xbc, 0xce, 0xff, 0x9a, 0xbc, 0xa4, 0x8a, 0x28, 0xbd,
  0x52, 0x95, 0x89, 0x3c, 0x6a, 0x38, 0x52, 0x3d, 0x0b, 0x4c, 0x07, 0x3e,
  0x89, 0xa5, 0x0d, 0x3e, 0x48, 0xbb, 0x8c, 0xbd, 0xfe, 0x24, 0x0d, 0x3e,
  0xbc, 0xd3, 0x99, 0x3e, 0x9b, 0xbd, 0x44, 0x3e, 0x10, 0x10, 0x0c, 0xbe,
  0xf5, 0xed, 0xa2, 0xbd, 0x03, 0x13, 0x84, 0x3c, 0x2d, 0xf7, 0x2d, 0x3e,
  0x72, 0x2f, 0x0a, 0x3e, 0x73, 0x89, 0x00, 0x3e, 0xb4, 0x5c, 0xeb, 0xbd,
  0x87, 0xf7, 0x71, 0xbe, 0x9e, 0x04, 0x0e, 0x3e, 0x9b, 0x13, 0x6e, 0xbe,
  0x57, 0xf3, 0x24, 0xbe, 0xfd, 0xbc, 0xbd, 0xbd, 0x2e, 0x9d, 0x5a, 0xbe,
  0x42, 0x4d, 0x9f, 0xbe, 0x05, 0x3e, 0xbf, 0xbe, 0x26, 0x87, 0xab, 0xbd,
  0x73, 0xc6, 0x25, 0xbe, 0xf6, 0xcd, 0x1c, 0x3d, 0x6a, 0x53, 0x92, 0xbe,
  0x55, 0x09, 0x7f, 0xbe, 0x4f, 0x33, 0x93, 0xbe, 0x49, 0x89, 0x85, 0xbe,
  0x6b, 0xef, 0x1c, 0xbd, 0x22, 0x33, 0x1b, 0xbd, 0x2b, 0x4c, 0xaf, 0xbd,
  0xc1, 0xba, 0x98, 0xbe, 0x0a, 0x76, 0x38, 0xbe, 0xfa, 0x50, 0x00, 0x3d,
  0x6b, 0x93, 0xb7, 0x3d, 0xef, 0x97, 0x54, 0xbe, 0x6c, 0xd6, 0x89, 0xbe,
  0x5d, 0x95, 0xab, 0xbd, 0x76, 0x46, 0x1b, 0xbe, 0xcf, 0xb9, 0x9b, 0xbe,
  0xad, 0xc5, 0xa1, 0xbe, 0x20, 0xbf, 0xe8, 0xbd, 0xe4, 0x42, 0x8f, 0xbe,
  0x62, 0xb4, 0xe9, 0x3d, 0xd7, 0x8b, 0xd0, 0x3d, 0xb6, 0x7d, 0x09, 0xbe,
  0x0c, 0x56, 0x88, 0xbe, 0x06, 0x74, 0x6b, 0xbe, 0x55, 0x8a, 0x8f, 0xbe,
  0xbc, 0x98, 0x9b, 0x3c, 0x07, 0x21, 0x92, 0xbe, 0xd2, 0x21, 0x5b, 0xbe,
  0x92, 0xdf, 0xf9, 0x3d, 0x17, 0x93, 0x8f, 0x3e, 0x62, 0xe4, 0x17, 0x3d,
  0x3a, 0x37, 0x5f, 0x3e, 0x92, 0x87, 0x6f, 0x3e, 0x26, 0x19, 0x20, 0x3e,
  0x62, 0x5c, 0x5e, 0x3e, 0xb0, 0xe4, 0x4f, 0x3e, 0x48, 0xd0, 0x07, 0xbe,
  0x3d, 0x63, 0x1a, 0x3e, 0x03, 0x26, 0xf6, 0xbd, 0xe8, 0x30, 0xec, 0xbd,
  0x01, 0x52, 0x20, 0xbe, 0x87, 0x64, 0x9a, 0x3d, 0x02, 0x60, 0x11, 0xbe,
  0x42, 0x97, 0xaf, 0xbd, 0xdb, 0x00, 0xf6, 0x3d, 0x8f, 0xa7, 0x8a, 0xbe,
  0xe2, 0xff, 0xf2, 0xbd, 0x30, 0x2d, 0x2e, 0xbd, 0x96, 0x58, 0xdd, 0x39,
  0xdc, 0xaf, 0xa8, 0x3e, 0x3f, 0xb8, 0x4c, 0x3e, 0x2c, 0x44, 0x8c, 0x3e,
  0xd2, 0xdf, 0x90, 0x3e, 0x3e, 0xa1, 0x9a, 0x3e, 0x2e, 0xbd, 0xd8, 0x3c,
  0xc2, 0x79, 0x33, 0xbe, 0xe8, 0x3a, 0xe7, 0xbc, 0x69, 0x73, 0x19, 0x3e,
  0x19, 0xf9, 0x93, 0x3e, 0x7b, 0xd4, 0xe1, 0x3d, 0x21, 0xb1, 0xe8, 0xbd,
  0x2b, 0xd6, 0xa4, 0xbd, 0x89, 0xf1, 0x3e, 0xbd, 0xba, 0xca, 0x1e, 0x3e,
  0xfe, 0xfa, 0x2c, 0x3d, 0x7d, 0x33, 0x04, 0x3d, 0x6b, 0xe7, 0xd7, 0xbd,
  0x60, 0x51, 0x42, 0x3e, 0x8e, 0xd1, 0xbb, 0x3d, 0xd9, 0xd7, 0x0c, 0x3c,
  0x09, 0xf3, 0x89, 0x3e, 0x87, 0x0c, 0x65, 0x3e, 0x82, 0x27, 0x0e, 0xbe,
  0x0b, 0xe8, 0x79, 0xbe, 0xc2, 0xe3, 0xdc, 0xbd, 0xd8, 0xa7, 0x58, 0xbe,
  0x46, 0xdd, 0xc5, 0x3d, 0xfe, 0xb4, 0x7f, 0x3c, 0xb9, 0x82, 0x2a, 0x3e,
  0xf5, 0xcb, 0x79, 0xbb, 0x07, 0xe4, 0x0c, 0x3d, 0x6f, 0x31, 0x6c, 0xbe,
  0xaf, 0x7e, 0xf1, 0xbd, 0x71, 0x04, 0x5e, 0x3e, 0xf4, 0x0a, 0x93, 0x3e,
  0xec, 0x9b, 0xa6, 0xbd, 0x3e, 0x51, 0x82, 0x3e, 0xab, 0x0c, 0x1d, 0x3e,
  0xc5, 0xf6, 0x7f, 0x3e, 0xa2, 0xa2, 0xed, 0xbd, 0x7b, 0x36, 0x6a, 0xbe,
  0x23, 0xf9, 0x29, 0x3e, 0xe8, 0xd1, 0x51, 0x3e, 0xaf, 0xa8, 0x4a, 0x3d,
  0x52, 0x5e, 0x21, 0x3e, 0xc9, 0xa6, 0x21, 0x3b, 0x51, 0x3a, 0x4d, 0x3e,
  0x30, 0x73, 0x89, 0x3e, 0xb9, 0x52, 0x42, 0x3e, 0x94, 0xb4, 0xcf, 0x3d,
  0xf5, 0xe3, 0x6d, 0xbe, 0xb4, 0x8b, 0x0d, 0x3c, 0xa3, 0x3e, 0x33, 0x3e,
  0x5b, 0xcb, 0xb8, 0xbc, 0x48, 0x8d, 0x6c, 0x3d, 0x23, 0x26, 0x2e, 0xbe,
  0x34, 0xd0, 0x54, 0x3d, 0x5e, 0x8c, 0xe7, 0xbc, 0xaf, 0x71, 0x1c, 0x3d,
  0xc7, 0xf4, 0x93, 0xbe, 0xc6, 0xd0, 0x65, 0xbe, 0x74, 0xf6, 0xdb, 0xbd,
  0x5d, 0xc5, 0xbc, 0xbe, 0xce, 0x06, 0x61, 0x3c, 0x7d, 0x53, 0x0a, 0xbe,
  0x44, 0x1b, 0x23, 0xbe, 0x1c, 0xdd, 0x36, 0xbe, 0xb8, 0x68, 0x49, 0xbe,
  0x89, 0xd1, 0x41, 0x3e, 0xca, 0xf1, 0x66, 0x3e, 0x3d, 0xf2, 0x86, 0x3e,
  0x52, 0x54, 0x85, 0x3e, 0xdd, 0x81, 0x42, 0x3e, 0xd1, 0xb2, 0x02, 0x3d,
  0x1a, 0xb9, 0x12, 0xbd, 0x3f, 0x36, 0xde, 0x3d, 0x0f, 0xd2, 0x01, 0xbe,
  0xdd, 0xa6, 0x51, 0x3e, 0x89, 0x38, 0x4c, 0xbc, 0x81, 0xec, 0x9a, 0x3e,
  0xc1, 0x79, 0x71, 0xbd, 0xb1, 0xd5, 0x3d, 0x3e, 0x89, 0xab, 0x15, 0x3d,
  0x9f, 0x3e, 0xb7, 0x3c, 0x59, 0x85, 0x0a, 0xbe, 0xbf, 0xa9, 0x1a, 0x3d,
  0x2d, 0x7d, 0x24, 0x3e, 0x16, 0x1e, 0x73, 0x3e, 0x24, 0xfa, 0x39, 0x3e,
  0x57, 0x80, 0x1a, 0xbd, 0xc1, 0x18, 0x26, 0x3e, 0x2b, 0xbc, 0x30, 0x3e,
  0x71, 0xb9, 0x93, 0x3e, 0x1b, 0xf8, 0x97, 0x3e, 0x07, 0xf2, 0x0a, 0xbe,
  0xe4, 0xe8, 0x2a, 0xbe, 0x47, 0xd6, 0xf2, 0xbd, 0x40, 0xd4, 0x23, 0xbe,
  0x3b, 0x9a, 0x3d, 0x3e, 0xad, 0xe8, 0x05, 0xbb, 0xe0, 0xd3, 0x6d, 0x3c,
  0x7b, 0xdd, 0x02, 0xbe, 0x99, 0xde, 0x37, 0x3d, 0x74, 0xd6, 0x4b, 0x3d,
  0x0f, 0xa8, 0x93, 0xbd, 0x39, 0x2a, 0xf2, 0xbc, 0x7b, 0xc0, 0xec, 0xbd,
  0x4a, 0x1d, 0x25, 0x3e, 0x0b, 0x52, 0xe5, 0xbd, 0x50, 0xcc, 0x0f, 0x3d,
  0xe3, 0x9d, 0x2f, 0x3e, 0x06, 0x8f, 0xbb, 0x3d, 0x67, 0xad, 0x06, 0xbe,
  0x4f, 0x65, 0x38, 0xbe, 0xae, 0xc8, 0x20, 0x3e, 0xd8, 0xe4, 0x59, 0xbe,
  0x91, 0x95, 0x3b, 0xbe, 0x29, 0x98, 0x58, 0x3e, 0x6e, 0x79, 0x75, 0x3e,
  0x1b, 0xe4, 0x41, 0xbe, 0x32, 0x7d, 0xec, 0xbd, 0x41, 0xf0, 0xe6, 0xbd,
  0x13, 0x3a, 0x39, 0xbe, 0xbe, 0xf2, 0xc3, 0x3e, 0x1e, 0x69, 0x02, 0x3d,
  0x57, 0x5a, 0x94, 0x3d, 0x2e, 0x3a, 0x6c, 0x3b, 0x09, 0x9d, 0x5a, 0x3e,
  0x67, 0x3f, 0x39, 0xbe, 0x54, 0xbd, 0x5b, 0x3e, 0x42, 0xb3, 0xd9, 0xbd,
  0x06, 0xf0, 0x8f, 0xbd, 0x57, 0xce, 0xb9, 0x3e, 0x63, 0x24, 0x64, 0x3e,
  0xb3, 0xbc, 0x48, 0x3e, 0xc1, 0x53, 0x81, 0xbd, 0xcf, 0xbc, 0x16, 0x3e,
  0x31, 0x53, 0x4a, 0x3e, 0x58, 0xcd, 0x69, 0x3e, 0xc2, 0x1c, 0x82, 0xbd,
  0x00, 0x0a, 0x4a, 0x3e, 0xa0, 0x13, 0x1c, 0xbe, 0x85, 0x1a, 0xe7, 0x3c,
  0x8f, 0xee, 0x0a, 0x3e, 0xea, 0x1b, 0x98, 0x3d, 0x9b, 0xd9, 0x0e, 0x3e,
  0x56, 0x5a, 0x85, 0xbe, 0x94, 0x38, 0x3a, 0x3e, 0xdd, 0xe8, 0xeb, 0x3c,
  0xe1, 0x09, 0x89, 0xbe, 0xb3, 0x2a, 0x1d, 0x3d, 0x18, 0xb7, 0xaf, 0xbd,
  0xcd, 0x41, 0xdb, 0xbc, 0xd0, 0x50, 0xf9, 0x3d, 0x23, 0x1e, 0x47, 0xbe,
  0xb6, 0xe7, 0x6d, 0xbe, 0x7d, 0xcf, 0x9b, 0xbe, 0x8f, 0xfa, 0xf6, 0x3a,
  0x36, 0x92, 0x72, 0xba, 0x79, 0x3c, 0x40, 0xbe, 0x5d, 0x21, 0x8e, 0xbe,
  0x75, 0xcd, 0x77, 0x3d, 0xb5, 0x29, 0xac, 0xbc, 0x22, 0x2b, 0x35, 0xbe,
  0x7f, 0x62, 0x19, 0xbe, 0x32, 0x8b, 0x3f, 0x3d, 0x76, 0xc6, 0x24, 0x39,
  0xbf, 0x8b, 0x5f, 0xbe, 0x75, 0xd4, 0x46, 0xbd, 0x3a, 0x8f, 0xc2, 0xbe,
  0x93, 0x55, 0x8f, 0xbc, 0xdc, 0x23, 0xb1, 0x3d, 0x08, 0x74, 0x49, 0xbe,
  0xbc, 0xab, 0x6f, 0xbe, 0x44, 0x24, 0x1d, 0xbd, 0x3a, 0x27, 0x30, 0xbd,
  0x83, 0xc4, 0x4f, 0x3d, 0x09, 0x5c, 0x46, 0x3e, 0xb3, 0xcd, 0xfa, 0x3d,
  0x1e, 0x45, 0xd7, 0x3d, 0x99, 0x16, 0xc2, 0xbd, 0x3b, 0x0a, 0x31, 0xbe,
  0x24, 0x8d, 0x6e, 0xbc, 0x95, 0x1b, 0xea, 0xbd, 0x95, 0xf8, 0x82, 0xbc,
  0x64, 0x48, 0x66, 0xbe, 0x3e, 0x67, 0xb3, 0x3e, 0xd9, 0xd3, 0x17, 0x3d,
  0x30, 0xee, 0xea, 0xbd, 0x01, 0x59, 0x74, 0x3e, 0x9c, 0xba, 0x80, 0xbd,
  0x6d, 0x95, 0x0a, 0x3e, 0x17, 0x31, 0xf9, 0x3c, 0x2d, 0xd7, 0x1e, 0xbe,
  0x4b, 0xa2, 0x24, 0x3e, 0x99, 0xfb, 0x7a, 0xbd, 0x87, 0x62, 0x51, 0xbc,
  0xb6, 0x36, 0x2d, 0xbc, 0xe9, 0x2b, 0x69, 0x3e, 0x38, 0x2a, 0x0e, 0x3d,
  0xfe, 0x24, 0x45, 0x3d, 0x8c, 0xe7, 0x71, 0x3e, 0xa6, 0x4a, 0xeb, 0xbd,
  0x89, 0x34, 0x8d, 0xbe, 0x37, 0xa7, 0xa9, 0xbe, 0xe8, 0xb0, 0x39, 0xbd,
  0x9e, 0xd4, 0xa3, 0xb9, 0xe8, 0x14, 0x10, 0x3d, 0x4f, 0x36, 0x56, 0xbd,
  0x85, 0x58, 0xba, 0x3d, 0xd1, 0x86, 0x0a, 0xbd, 0xf0, 0x6e, 0xa7, 0xbd,
  0x49, 0x93, 0x01, 0x3e, 0x1f, 0x61, 0x4b, 0xbe, 0xc8, 0xbb, 0x28, 0x3e,
  0xd2, 0x92, 0x98, 0x3d, 0xb2, 0xc2, 0xa9, 0xbd, 0x45, 0x0b, 0x26, 0xbe,
  0x4f, 0xc4, 0xaa, 0xbc, 0x7d, 0xbb, 0x78, 0xbe, 0x6c, 0xb0, 0xd0, 0x3d,
  0x15, 0x0c, 0x4d, 0xbe, 0x5f, 0x0c, 0x04, 0xbc, 0xe1, 0x9f, 0x27, 0xbe,
  0x50, 0x5f, 0x50, 0xbd, 0xba, 0x21, 0x85, 0xbe, 0x7a, 0x50, 0xfc, 0xbc,
  0x19, 0xc6, 0x83, 0xbd, 0x55, 0x1c, 0x2c, 0xbd, 0x77, 0x9a, 0xde, 0xbc,
  0x48, 0x57, 0x63, 0xbe, 0x76, 0x9c, 0x68, 0x3e, 0x9f, 0x1e, 0x52, 0xbe,
  0x8c, 0x8b, 0x9d, 0xbe, 0x09, 0x95, 0xa3, 0xbb, 0x4b, 0x60, 0x89, 0xbe,
  0x41, 0x30, 0x04, 0x3d, 0x3c, 0x30, 0x67, 0xbe, 0xd1, 0xe5, 0x35, 0xbe,
  0xe7, 0x2f, 0xde, 0x3c, 0xb0, 0x85, 0x79, 0xbd, 0xff, 0xdf, 0x40, 0x3e,
  0x6c, 0xa7, 0x6a, 0xbe, 0xb0, 0x77, 0xfe, 0xbd, 0x3f, 0x06, 0x40, 0xbe,
  0x45, 0x3d, 0x5f, 0x3e, 0xa7, 0x72, 0x69, 0x3d, 0x19, 0xbd, 0xc9, 0xbd,
  0x26, 0xd7, 0x1e, 0x3e, 0xa8, 0x33, 0x32, 0x3e, 0x62, 0xa7, 0x40, 0x3e,
  0x99, 0x9d, 0x00, 0xbc, 0xd2, 0x83, 0x79, 0xbd, 0xe1, 0x07, 0xe0, 0xbd,
  0xda, 0x48, 0x03, 0xbe, 0xc9, 0xf7, 0xd2, 0xbd, 0x10, 0x5e, 0x0c, 0x3d,
  0x5f, 0xdb, 0x68, 0xbd, 0x11, 0x2c, 0x91, 0x3d, 0x09, 0x40, 0xf7, 0x3d,
  0x38, 0x00, 0x11, 0xbd, 0x51, 0x2c, 0x50, 0x3e, 0x69, 0x9f, 0x22, 0x3d,
  0x63, 0x3c, 0x07, 0x3d, 0xc1, 0xb7, 0x63, 0xbd, 0xd0, 0x50, 0xa3, 0x3c,
  0xf2, 0x49, 0xf0, 0x3d, 0xa3, 0x95, 0x0c, 0x3d, 0x96, 0xcc, 0x14, 0xbe,
  0x1f, 0x43, 0xb0, 0xbd, 0x01, 0x67, 0x5e, 0x3e, 0x52, 0x62, 0x53, 0x3e,
  0x0e, 0x0f, 0x8a, 0x3d, 0xdd, 0xf1, 0x55, 0x3e, 0x02, 0xbe, 0x07, 0x3e,
  0x12, 0x12, 0x2a, 0xbe, 0x48, 0x78, 0x07, 0x3e, 0x8e, 0xe7, 0xf6, 0x3d,
  0x46, 0xcc, 0x6d, 0xbe, 0xd6, 0x37, 0x08, 0xbe, 0x36, 0xa4, 0x66, 0x3d,
  0xd7, 0x62, 0x58, 0xbe, 0x0d, 0x0c, 0x5b, 0x3d, 0x80, 0x0b, 0x22, 0x3d,
  0x5b, 0x55, 0x7a, 0xbe, 0x53, 0x3e, 0x43, 0xbd, 0xb4, 0x48, 0x1b, 0x3e,
  0x37, 0x47, 0xe8, 0xbd, 0x30, 0x6c, 0x11, 0xbd, 0x82, 0x69, 0x3a, 0xbe,
  0x03, 0x86, 0xc1, 0x3d, 0xf0, 0x93, 0xf8, 0x3b, 0x43, 0x2b, 0xcd, 0x3d,
  0x1c, 0xc0, 0xe0, 0x3d, 0x90, 0xc5, 0x44, 0xbe, 0x70, 0x0e, 0x00, 0x3e,
  0x65, 0xf8, 0x89, 0xbe, 0xd8, 0x07, 0x55, 0xbc, 0xbf, 0x9f, 0x5b, 0xbe,
  0x8c, 0xc6, 0x32, 0xbd, 0xc4, 0xcd, 0xff, 0xbd, 0x2d, 0xab, 0x03, 0x3e,
  0xb7, 0x9c, 0x90, 0xbe, 0xfd, 0x11, 0x72, 0x3d, 0x44, 0x24, 0x9f, 0xbd,
  0x32, 0xaf, 0x7d, 0xbd, 0x5e, 0x09, 0x0f, 0x3e, 0x78, 0x72, 0x92, 0xbe,
  0x34, 0x68, 0xcd, 0x3d, 0x78, 0x98, 0xff, 0xbd, 0xfa, 0x10, 0x8a, 0xbd,
  0x7c, 0xe9, 0x92, 0xbe, 0x48, 0xb6, 0x3c, 0x3e, 0xaa, 0xdf, 0x3c, 0xbd,
  0x6b, 0xb9, 0xc3, 0x3c, 0xa0, 0x50, 0x4e, 0xbd, 0x8e, 0xd3, 0xcc, 0x3d,
  0x03, 0x06, 0x0c, 0xbd, 0xe1, 0xd8, 0x5b, 0x3b, 0x21, 0x9b, 0x26, 0xbe,
  0x45, 0x8d, 0x00, 0x3e, 0x08, 0x17, 0xb7, 0x3e, 0xaa, 0xa3, 0x12, 0x3c,
  0xd5, 0x9d, 0x36, 0xbe, 0x91, 0x57, 0x94, 0xbe, 0xe3, 0x9e, 0x96, 0xbd,
  0xa0, 0x10, 0x12, 0xbe, 0xfc, 0xca, 0x30, 0xbe, 0xe0, 0x2e, 0x25, 0x3e,
  0x85, 0x23, 0x76, 0xbe, 0x85, 0x93, 0x7b, 0x3e, 0x80, 0x96, 0x90, 0x3d,
  0xdc, 0x70, 0x17, 0x3e, 0x72, 0x56, 0x2f, 0x3e, 0x0d, 0x42, 0x7b, 0xbd,
  0xe1, 0x25, 0x1d, 0xbe, 0x3c, 0xf7, 0x48, 0x3e, 0xc4, 0xb5, 0xdc, 0x3d,
  0x0d, 0xfd, 0x15, 0xbd, 0xd4, 0x14, 0x91, 0x3e, 0xd2, 0x86, 0xef, 0xbd,
  0x20, 0x04, 0x9b, 0xbd, 0xa0, 0xbb, 0xb7, 0x3d, 0x2a, 0x78, 0x11, 0x3d,
  0x0b, 0x78, 0xc5, 0x3d, 0x86, 0xe3, 0x5e, 0xbe, 0xf2, 0x9b, 0x38, 0x3d,
  0x7f, 0x3e, 0xc0, 0x3d, 0xf8, 0xfd, 0x11, 0x3e, 0x4f, 0xb0, 0x3f, 0x3c,
  0xdb, 0x77, 0x9a, 0xbd, 0x2c, 0x59, 0xe5, 0xbd, 0x1d, 0x56, 0x44, 0x3e,
  0x2e, 0xf0, 0xae, 0xbc, 0x5b, 0xf1, 0x64, 0xbd, 0xa0, 0x05, 0xa1, 0xbd,
  0x65, 0x43, 0xb6, 0xbc, 0x45, 0xe2, 0xc0, 0x3d, 0x30, 0x09, 0x6b, 0x3e,
  0x41, 0x87, 0xef, 0xbd, 0x07, 0x78, 0x2f, 0xbe, 0xc3, 0xe2, 0x23, 0xbe,
  0xf3, 0xea, 0xe9, 0x3d, 0xd1, 0x65, 0x36, 0x3e, 0x9a, 0x99, 0x12, 0xbe,
  0xfd, 0x8f, 0x06, 0x3e, 0xaa, 0x2e, 0x79, 0xbe, 0x8b, 0x0b, 0x23, 0x3e,
  0x19, 0xc7, 0x01, 0xbe, 0x95, 0x81, 0x90, 0x3a, 0x38, 0x0d, 0xa2, 0xbd,
  0xc1, 0x04, 0xc5, 0x3d, 0x95, 0xe5, 0x15, 0xbe, 0xb4, 0xdb, 0x4b, 0xbe,
  0x4e, 0x37, 0x7f, 0xbd, 0xdf, 0x85, 0x99, 0xbd, 0xd3, 0xac, 0x27, 0xbd,
  0xe1, 0xc5, 0x4b, 0xbe, 0xe1, 0x5d, 0x64, 0x3e, 0xf9, 0xe6, 0x2d, 0x3e,
  0x4b, 0x0b, 0x19, 0xbe, 0x24, 0xcd, 0x5c, 0x3e, 0x22, 0x7c, 0xe7, 0x3d,
  0xa5, 0xd2, 0x73, 0xbe, 0x70, 0x3f, 0x40, 0xbe, 0xd5, 0x1f, 0x83, 0xbe,
  0x7c, 0xf2, 0x26, 0xbd, 0x62, 0xcd, 0x10, 0xbe, 0xd4, 0x2b, 0x86, 0xbd,
  0x04, 0x0b, 0x55, 0xbd, 0x2e, 0x1c, 0x09, 0xbd, 0xf5, 0xdf, 0x49, 0xbe,
  0x6d, 0x46, 0x39, 0x3e, 0xe7, 0x32, 0x40, 0xbe, 0x8f, 0x45, 0x8c, 0x3e,
  0x9f, 0x98, 0x28, 0x3e, 0x6f, 0x9b, 0x07, 0x3e, 0xba, 0x82, 0x3e, 0x3d,
  0x1a, 0x21, 0xf9, 0x3d, 0x71, 0x49, 0x01, 0x3e, 0x4b, 0x9d, 0xc2, 0xbb,
  0xfd, 0x5d, 0x67, 0xbe, 0xd6, 0xd0, 0x74, 0x3e, 0xc9, 0xbb, 0x37, 0x3e,
  0x74, 0xe5, 0xdc, 0xbd, 0xdc, 0x1d, 0x83, 0xbe, 0x5a, 0xfd, 0x3d, 0x3e,
  0x61, 0xd8, 0x39, 0xbe, 0xc6, 0xd8, 0xfa, 0x3d, 0x3c, 0x12, 0x77, 0xbe,
  0x64, 0x27, 0x09, 0x3b, 0x0d, 0xd1, 0x36, 0xbe, 0xed, 0x40, 0x56, 0x3e,
  0x9c, 0x29, 0x0c, 0xbd, 0x5c, 0x79, 0x81, 0x3d, 0xdc, 0x82, 0xf4, 0xbd,
  0x61, 0xd4, 0x60, 0xbe, 0x00, 0x8d, 0x43, 0xbd, 0xd2, 0x8d, 0x20, 0x3c,
  0x5e, 0x32, 0x75, 0xbd, 0x78, 0xe7, 0xe8, 0x3d, 0x66, 0xdf, 0x1c, 0xbe,
  0x51, 0x65, 0x25, 0xbe, 0xec, 0x13, 0x9a, 0xbb, 0xfe, 0x8a, 0xdd, 0x3d,
  0xe3, 0xb1, 0x82, 0xbd, 0x69, 0x01, 0x15, 0xbe, 0x0e, 0x2b, 0xd7, 0x3d,
  0x52, 0x81, 0x66, 0xbe, 0x2d, 0xbd, 0xa7, 0x3d, 0x1b, 0x4a, 0xc0, 0xbd,
  0x0f, 0xb7, 0x04, 0x3e, 0x01, 0x0f, 0x15, 0x3e, 0xc0, 0x7a, 0x11, 0x3e,
  0x2f, 0x49, 0x3a, 0x3e, 0x09, 0xaf, 0x20, 0xbe, 0xfa, 0x30, 0xb3, 0x3d,
  0x65, 0xaf, 0xac, 0x3e, 0x7b, 0xa0, 0x2a, 0x3e, 0x30, 0xdd, 0x86, 0x3d,
  0x0d, 0xf0, 0x43, 0x3e, 0xd3, 0x04, 0x82, 0xbd, 0x7d, 0x41, 0x83, 0x3e,
  0x21, 0xe7, 0x7a, 0x3e, 0xa3, 0xee, 0xd9, 0x3b, 0x6a, 0x19, 0x1a, 0xbe,
  0x94, 0x9d, 0x65, 0x3e, 0x69, 0x60, 0x7f, 0x3e, 0xb2, 0x29, 0x9e, 0xbd,
  0x18, 0x7e, 0x8f, 0x3e, 0x72, 0x42, 0xa3, 0x3e, 0x7c, 0x2c, 0x5c, 0x3d,
  0x30, 0x66, 0x14, 0x3e, 0x00, 0xf9, 0x09, 0xbe, 0x92, 0x2e, 0x2b, 0x3c,
  0x8a, 0xf5, 0xf6, 0xbd, 0x07, 0x64, 0x65, 0xbe, 0x5e, 0x38, 0x00, 0x3e,
  0x98, 0x0f, 0xbc, 0x3d, 0xbd, 0xac, 0xf4, 0x3d, 0x57, 0x0a, 0x70, 0xbe,
  0x9a, 0x7f, 0x77, 0x3d, 0x3c, 0xfa, 0x07, 0xbd, 0x31, 0x7b, 0x8c, 0xbe,
  0x46, 0x52, 0x1b, 0x3e, 0xb3, 0x4d, 0xac, 0xbd, 0x02, 0x27, 0xe2, 0xbd,
  0x99, 0x5a, 0x81, 0xbe, 0x80, 0x73, 0x83, 0xbd, 0xa6, 0x1d, 0x3d, 0xbe,
  0x9d, 0x4d, 0x1f, 0xbe, 0xae, 0xce, 0x43, 0xbe, 0x32, 0xae, 0x24, 0x3e,
  0x2e, 0x1b, 0xa1, 0xbd, 0xee, 0x81, 0x44, 0xbd, 0x0e, 0xce, 0x5b, 0x3e,
  0xd4, 0x18, 0x80, 0x3d, 0xaa, 0xd2, 0xcb, 0x3d, 0x66, 0x8b, 0xa0, 0x3e,
  0xde, 0x1d, 0xc9, 0xbd, 0x08, 0x6b, 0x7d, 0x3e, 0xe7, 0xb1, 0x8e, 0xbe,
  0x58, 0x75, 0x61, 0x3e, 0x15, 0xad, 0xc8, 0xbd, 0x7c, 0x4e, 0x32, 0xbe,
  0xd9, 0x43, 0xed, 0xbc, 0x32, 0x46, 0xa4, 0xbc, 0xed, 0x1d, 0x97, 0xbb,
  0x98, 0x2e, 0x05, 0xbe, 0xa1, 0xa0, 0xea, 0xbd, 0x64, 0xe9, 0xac, 0xbe,
  0xfc, 0x0c, 0xa1, 0xbc, 0x16, 0xbb, 0x4b, 0xbe, 0xf1, 0x36, 0x26, 0x3d,
  0x78, 0x72, 0x4b, 0x3e, 0x45, 0xb0, 0xdf, 0x3d, 0x12, 0x9c, 0x2e, 0x3e,
  0x0b, 0x3d, 0x45, 0x3d, 0xad, 0x22, 0x63, 0xbe, 0xc0, 0xa4, 0x9b, 0xbd,
  0x66, 0x88, 0x87, 0x3e, 0x06, 0x61, 0x39, 0xbe, 0x39, 0xcb, 0xa1, 0xbe,
  0x39, 0xf3, 0x18, 0x3d, 0xf9, 0x5b, 0x56, 0xbe, 0x54, 0x6c, 0x7f, 0xbe,
  0x88, 0xcb, 0x76, 0xbe, 0x2a, 0x52, 0x2d, 0xbd, 0x2b, 0x49, 0x8b, 0xbe,
  0x3f, 0x4f, 0xa5, 0x3d, 0x37, 0xc6, 0x58, 0xbd, 0x4f, 0x8d, 0x23, 0xbd,
  0xa1, 0x4e, 0x67, 0xbe, 0xc7, 0x14, 0x26, 0xbe, 0xcf, 0x3a, 0x85, 0xbe,
  0x30, 0xbb, 0x2b, 0xbd, 0xf4, 0x85, 0xa0, 0x3c, 0x20, 0x4e, 0x83, 0xbe,
  0x43, 0xa2, 0x35, 0xbd, 0xfb, 0x4c, 0xf3, 0xbd, 0x35, 0x2f, 0xda, 0xbc,
  0x7f, 0x23, 0xf3, 0xbc, 0xcd, 0xa5, 0x9e, 0xbe, 0x5f, 0x6d, 0xe0, 0xbd,
  0x64, 0xa5, 0x2a, 0xbe, 0x4d, 0x42, 0x61, 0xbe, 0xf1, 0xd2, 0xc0, 0xbd,
  0xd1, 0x7a, 0xe7, 0xbd, 0xd5, 0xe8, 0xa4, 0x3e, 0xaa, 0x9f, 0x17, 0x3d,
  0xec, 0x60, 0x11, 0xbe, 0x52, 0xf2, 0x47, 0xbe, 0xd7, 0xd0, 0xa2, 0x3d,
  0x8a, 0x71, 0x9f, 0x3d, 0x52, 0xc7, 0xfe, 0x3d, 0xc6, 0xbf, 0xa6, 0xbe,
  0xf0, 0x44, 0x5f, 0xbd, 0x36, 0xdd, 0x97, 0x3e, 0x03, 0x11, 0x65, 0x3e,
  0x78, 0xc9, 0x8f, 0x3e, 0x87, 0x58, 0x78, 0x3e, 0xdd, 0xb9, 0x34, 0x3e,
  0x97, 0x61, 0x9a, 0x3e, 0xea, 0xf8, 0x4f, 0x3e, 0x81, 0x02, 0x2e, 0x3d,
  0x64, 0xad, 0xee, 0xbd, 0x4b, 0x85, 0x51, 0xbe, 0x10, 0xfd, 0x91, 0xbd,
  0x90, 0xec, 0xbb, 0xbe, 0x66, 0xf9, 0x09, 0xbe, 0x44, 0xfa, 0x72, 0xbe,
  0xf6, 0xb0, 0x10, 0xbc, 0x2e, 0xcc, 0x48, 0xbe, 0x20, 0x77, 0x77, 0xbe,
  0x34, 0x39, 0xe0, 0x3b, 0xcd, 0xd1, 0x8d, 0xbd, 0x1a, 0x79, 0x37, 0xbe,
  0x67, 0x78, 0x48, 0xbe, 0x77, 0x7d, 0x1e, 0xbe, 0x57, 0xcd, 0x8f, 0xbe,
  0xf3, 0xf5, 0xfc, 0x3d, 0x89, 0x26, 0x76, 0xbe, 0x14, 0x90, 0xa4, 0xbe,
  0x35, 0x32, 0x22, 0xbe, 0x76, 0x0c, 0xa5, 0xbd, 0x9e, 0x08, 0x2e, 0xbd,
  0x3d, 0xee, 0x8d, 0x3d, 0x13, 0x89, 0x92, 0xba, 0x50, 0xa4, 0xd2, 0xbd,
  0x58, 0xfc, 0x32, 0x3e, 0xa5, 0xb3, 0x75, 0x3e, 0x8b, 0x8d, 0xa5, 0xbe,
  0x48, 0x9f, 0x8b, 0xbe, 0x05, 0x97, 0xaa, 0xbd, 0x0b, 0xad, 0xdb, 0x3b,
  0x00, 0x2d, 0x1f, 0xbe, 0xe7, 0x61, 0x7c, 0xbe, 0xbb, 0xc9, 0xb6, 0xbd,
  0x74, 0x05, 0x3f, 0x3d, 0xd0, 0xe0, 0x5f, 0x3d, 0x22, 0xf9, 0x0b, 0x3d,
  0x52, 0xaa, 0x38, 0xbd, 0xc5, 0x06, 0x8f, 0x3e, 0xbd, 0xc3, 0x69, 0x3e,
  0xad, 0xcc, 0x8d, 0xbd, 0x8f, 0x1a, 0xe2, 0x3d, 0xbd, 0xbf, 0x93, 0x3d,
  0x53, 0xae, 0x7f, 0x3e, 0x4d, 0x9e, 0x36, 0x3e, 0x0c, 0x24, 0x38, 0xbe,
  0xd4, 0x60, 0x8d, 0xbe, 0xff, 0x6d, 0x61, 0x3e, 0xc8, 0x86, 0xd1, 0x3c,
  0x3f, 0x9a, 0xe8, 0xbc, 0x65, 0x32, 0x36, 0xbe, 0xf0, 0xb6, 0x9a, 0x3e,
  0x74, 0xff, 0x94, 0x3e, 0x02, 0x26, 0x69, 0x3d, 0x7d, 0x1f, 0x54, 0x3e,
  0xbf, 0xf5, 0xcb, 0xbd, 0x0c, 0x22, 0xde, 0x3d, 0xaf, 0x03, 0xb9, 0xbd,
  0x18, 0x6d, 0x47, 0xbd, 0x9b, 0xa4, 0x72, 0xbd, 0xff, 0xae, 0x21, 0xbc,
  0x64, 0xd0, 0x29, 0xbe, 0x63, 0xf9, 0x02, 0xbe, 0x22, 0x88, 0xf6, 0x3c,
  0x64, 0xa2, 0x9b, 0xbe, 0x13, 0x43, 0x1f, 0xbe, 0xac, 0xfd, 0x4b, 0xbe,
  0xfb, 0x43, 0x00, 0xbc, 0x45, 0x9a, 0x90, 0xbe, 0x4b, 0xbb, 0x11, 0x3e,
  0x5f, 0x16, 0x04, 0xbd, 0xb3, 0x79, 0x14, 0xbe, 0x0c, 0x14, 0xb4, 0x3c,
  0x26, 0xee, 0x28, 0xbd, 0x19, 0x8f, 0xdf, 0x3d, 0x7f, 0xe0, 0x1f, 0xbd,
  0x28, 0xcf, 0x78, 0xbc, 0xe3, 0x4b, 0x92, 0x3d, 0xff, 0xe8, 0x87, 0xbd,
  0xa6, 0x31, 0x55, 0xbe, 0x7f, 0x5e, 0x7f, 0xbe, 0x74, 0x7d, 0x88, 0xbe,
  0x43, 0x21, 0x9d, 0xbc, 0x8a, 0xec, 0xb7, 0xbc, 0x91, 0x8b, 0xca, 0xbc,
  0x5d, 0x1c, 0x5c, 0xbe, 0xf3, 0xea, 0xb3, 0xbd, 0x29, 0xbc, 0xc1, 0x3d,
  0x79, 0xfc, 0x03, 0xbe, 0x75, 0x9e, 0x6a, 0xbe, 0xd6, 0x61, 0xdd, 0x3d,
  0x98, 0xe7, 0x7b, 0xbc, 0x8a, 0x2c, 0x52, 0xbe, 0xdb, 0xdb, 0xdf, 0x3b,
  0x18, 0xb1, 0x91, 0xbe, 0x1a, 0x7b, 0x93, 0xbe, 0xb2, 0xfe, 0x01, 0xbe,
  0x43, 0xe8, 0x5a, 0xbe, 0x65, 0x10, 0x76, 0xbe, 0x39, 0xb9, 0xe8, 0xbd,
  0xcc, 0x15, 0x79, 0xbe, 0x53, 0xcd, 0x49, 0x3e, 0x24, 0x36, 0x29, 0xbd,
  0x21, 0x7e, 0x5a, 0xbe, 0xa9, 0xce, 0x15, 0x3e, 0x22, 0xe8, 0xfe, 0xbd,
  0xec, 0x49, 0xee, 0xbd, 0xcd, 0x9d, 0x66, 0x3e, 0x6f, 0x30, 0xcc, 0x3c,
  0x73, 0xbd, 0x2c, 0x3d, 0xe1, 0xf3, 0x64, 0xbe, 0xdd, 0x52, 0x95, 0xbc,
  0xcc, 0x73, 0xa6, 0xbc, 0x3e, 0x7c, 0x34, 0xbe, 0xac, 0x3d, 0x67, 0xbe,
  0xbd, 0x92, 0xb2, 0xbe, 0x25, 0xac, 0xe9, 0xbd, 0x6f, 0x5a, 0x3d, 0xbd,
  0x24, 0x13, 0xa0, 0xbe, 0xe3, 0x63, 0x07, 0xbc, 0x23, 0x43, 0x6f, 0x3d,
  0x56, 0x79, 0x5b, 0x3e, 0xe9, 0x3a, 0x9b, 0xbd, 0xbc, 0x61, 0x02, 0x3e,
  0x19, 0xa4, 0x85, 0xbd, 0x32, 0x85, 0xd2, 0xbd, 0x4f, 0x6d, 0x1e, 0x3d,
  0x88, 0xf2, 0x56, 0xbd, 0xb2, 0x54, 0x0e, 0xbe, 0x7d, 0x3e, 0xe8, 0xbd,
  0x11, 0x0b, 0x89, 0x3d, 0x00, 0xd1, 0x4e, 0xbe, 0x74, 0x1e, 0x59, 0xbe,
  0xa3, 0x53, 0x2d, 0x3e, 0x44, 0x79, 0x8d, 0xbe, 0x0c, 0xe5, 0x96, 0x3d,
  0x24, 0x34, 0x87, 0xbe, 0x67, 0x60, 0x4e, 0xbe, 0x55, 0x6e, 0xe7, 0x3d,
  0x9f, 0x3a, 0x1c, 0xbe, 0x4c, 0x11, 0x1b, 0xbc, 0x7a, 0x1b, 0x0b, 0x3d,
  0x13, 0x78, 0x88, 0xbb, 0x15, 0x1c, 0x90, 0xbb, 0xc1, 0x2a, 0x2c, 0xbe,
  0x3c, 0x82, 0x16, 0x3d, 0x04, 0x2e, 0x98, 0xbc, 0x26, 0x51, 0x25, 0x3d,
  0x61, 0x12, 0x1c, 0xbe, 0x62, 0xbf, 0x42, 0xbe, 0x85, 0xfc, 0x59, 0xbe,
  0x4a, 0x65, 0xbc, 0xbd, 0x66, 0x51, 0xa6, 0x3c, 0x77, 0x30, 0x03, 0x3d,
  0x89, 0x44, 0xf8, 0xbc, 0x61, 0xe5, 0xe8, 0xbd, 0xb2, 0xdc, 0x60, 0xbe,
  0xbc, 0x50, 0xb1, 0x3d, 0x31, 0x4a, 0xd7, 0xbb, 0x52, 0x23, 0x9b, 0x3d,
  0xc8, 0xd0, 0x8b, 0xbe, 0x6a, 0x47, 0xe3, 0xbd, 0x2c, 0x50, 0x9f, 0xbd,
  0xd6, 0x78, 0x9c, 0x3c, 0x3d, 0xd0, 0x90, 0x3e, 0x55, 0x24, 0xda, 0xbd,
  0xc0, 0x95, 0x86, 0xbd, 0x8b, 0x0b, 0x10, 0xbe, 0xbb, 0x75, 0xc5, 0xbd,
  0x4d, 0xf2, 0x5b, 0x3d, 0xab, 0x2b, 0x97, 0xbd, 0x84, 0xdb, 0x05, 0x3e,
  0x1d, 0xab, 0x52, 0xbe, 0xab, 0xbb, 0x76, 0x3e, 0xf2, 0x64, 0x85, 0x3d,
  0x50, 0xfc, 0x05, 0x3c, 0x80, 0xbc, 0x2b, 0xbd, 0x0e, 0x19, 0x7b, 0x3e,
  0x71, 0xec, 0xd3, 0xbc, 0xaa, 0x80, 0x98, 0xbd, 0x3e, 0xf9, 0x46, 0x3e,
  0x13, 0xc7, 0xcd, 0x3c, 0xfd, 0x68, 0xe4, 0x3d, 0x1c, 0xfe, 0xd1, 0x3b,
  0xe8, 0x25, 0xc9, 0x3d, 0x40, 0x96, 0x09, 0xbe, 0xa5, 0x41, 0x77, 0x3b,
  0x70, 0x7b, 0x90, 0xbe, 0xa3, 0x34, 0xa4, 0xbe, 0x94, 0x21, 0x3f, 0xbe,
  0xe2, 0xff, 0x98, 0xbe, 0x36, 0x1a, 0xae, 0x3e, 0xaf, 0x05, 0xb0, 0x3e,
  0x77, 0xa0, 0xa4, 0xbd, 0x27, 0x8e, 0xe7, 0xbd, 0x8e, 0x17, 0x9a, 0x3e,
  0x46, 0x56, 0x55, 0x3e, 0x5c, 0x20, 0x52, 0x3e, 0xa1, 0x43, 0x9b, 0x3d,
  0x49, 0x1d, 0xd4, 0x3c, 0xbf, 0x63, 0xc0, 0xbd, 0xad, 0x34, 0x11, 0xba,
  0x6f, 0x32, 0x66, 0xbe, 0x2e, 0x76, 0x4e, 0xbe, 0x58, 0x77, 0x98, 0xbe,
  0xbb, 0x15, 0xc4, 0xbd, 0x45, 0xd6, 0xac, 0x3d, 0x0b, 0x5e, 0x14, 0x3e,
  0x2d, 0x66, 0x20, 0x3e, 0x31, 0x14, 0x0e, 0x3e, 0xb3, 0xcc, 0x01, 0xbe,
  0x6c, 0x99, 0x0c, 0xbe, 0xbf, 0x99, 0x4f, 0x3d, 0x1d, 0x12, 0x93, 0x3c,
  0x1f, 0x60, 0x48, 0x3d, 0xc2, 0x60, 0xa1, 0xbd, 0x42, 0xe6, 0x04, 0xbe,
  0xfa, 0x3f, 0x27, 0xbe, 0x74, 0xc0, 0x0d, 0x3e, 0xba, 0x75, 0x69, 0x3d,
  0xa8, 0xfa, 0xe4, 0x3d, 0x89, 0x63, 0x86, 0x3d, 0xd1, 0x9c, 0x33, 0xbe,
  0x4b, 0x30, 0x47, 0xbc, 0xeb, 0x06, 0x91, 0xbe, 0x05, 0x2d, 0x66, 0xbe,
  0x3c, 0x12, 0x0f, 0x3e, 0x7a, 0x03, 0x14, 0x3e, 0x04, 0x11, 0x0a, 0x3d,
  0x27, 0x96, 0x8e, 0x3d, 0x23, 0xf7, 0x06, 0xbe, 0xa2, 0xe9, 0xd7, 0x3d,
  0x5a, 0xd8, 0xae, 0xbd, 0x31, 0x33, 0xf0, 0x3d, 0x3b, 0xcc, 0xd3, 0x3d,
  0x58, 0xd1, 0xf2, 0x37, 0x61, 0x1b, 0xca, 0xbc, 0xef, 0xdb, 0xe2, 0x3c,
  0x4b, 0x45, 0x09, 0xbe, 0x34, 0xfd, 0xb6, 0x3b, 0x68, 0xae, 0x06, 0xbe,
  0xfd, 0x1d, 0x54, 0x3e, 0xde, 0xc1, 0x1b, 0xbe, 0xe4, 0x46, 0x47, 0xbd,
  0x16, 0xbf, 0x45, 0xbd, 0x9d, 0xd3, 0xc4, 0xbd, 0xdf, 0x85, 0xca, 0xbe,
  0x22, 0xce, 0xdc, 0xbe, 0xce, 0xac, 0xfc, 0x3a, 0x06, 0xbf, 0xcf, 0xbe,
  0x24, 0xfe, 0x4a, 0xbe, 0x68, 0xfb, 0xe9, 0xbd, 0xcd, 0xdf, 0xa5, 0xbe,
  0xd3, 0xdb, 0x07, 0x3d, 0xf0, 0x0b, 0x51, 0xbe, 0x59, 0xa0, 0x89, 0xbe,
  0x54, 0x00, 0x3b, 0xbe, 0x03, 0x84, 0x8e, 0xbe, 0xa4, 0xb3, 0xd3, 0xbd,
  0xf4, 0x19, 0xb3, 0xbe, 0xcc, 0x3a, 0x70, 0xbe, 0x3a, 0xeb, 0x40, 0xbe,
  0x27, 0x37, 0xb8, 0x3d, 0x10, 0x3e, 0x99, 0x3e, 0x23, 0xac, 0x36, 0x3d,
  0x7c, 0x48, 0xdf, 0x3d, 0xc0, 0xda, 0x1e, 0xbe, 0xdd, 0xe3, 0xe7, 0xbd,
  0xbf, 0x3e, 0x28, 0x3e, 0xcc, 0xff, 0x75, 0x3e, 0x02, 0x3d, 0x62, 0xbd,
  0x2a, 0xd9, 0x32, 0x3e, 0xc4, 0x37, 0xae, 0xbd, 0x89, 0x4e, 0x37, 0x3e,
  0x32, 0xd4, 0x8d, 0x3d, 0xfe, 0xad, 0x43, 0xbd, 0xc5, 0xd2, 0xb4, 0xbd,
  0x5c, 0xf6, 0xec, 0x3b, 0x7d, 0x71, 0xbb, 0xbd, 0x78, 0x71, 0x4b, 0xbe,
  0x09, 0x4c, 0x16, 0xbe, 0x99, 0x79, 0xb4, 0x3d, 0x18, 0xe3, 0x18, 0x3e,
  0x60, 0xe6, 0x7c, 0x3e, 0xc9, 0xd4, 0x34, 0x3e, 0xc7, 0x49, 0x48, 0x3d,
  0x77, 0x39, 0x27, 0xbe, 0xb8, 0xe8, 0x3c, 0x3e, 0xf2, 0xaf, 0x3f, 0x3e,
  0x6a, 0x11, 0xda, 0x3d, 0x82, 0x65, 0x08, 0xbe, 0x81, 0xd7, 0xcd, 0xbd,
  0xbf, 0xe7, 0xb2, 0x3c, 0xa8, 0xc1, 0x44, 0x3e, 0x32, 0xb4, 0x5d, 0x3e,
  0xb0, 0xfc, 0x26, 0x3e, 0x0a, 0x12, 0x67, 0x3e, 0xd5, 0xeb, 0x2b, 0xbe,
  0x5b, 0xbd, 0x59, 0x3e, 0x04, 0x0f, 0x4f, 0xbe, 0x25, 0x62, 0x47, 0x3e,
  0x85, 0x38, 0x90, 0x3c, 0x60, 0x70, 0x3f, 0xbe, 0xdf, 0x19, 0x4b, 0x3a,
  0x74, 0x3c, 0x5b, 0x3b, 0xb0, 0xf6, 0x44, 0xbe, 0x8d, 0x7f, 0x5e, 0x3e,
  0xc3, 0x25, 0x4b, 0x3e, 0xfe, 0xf8, 0x4d, 0xbe, 0x7d, 0x37, 0xcb, 0xbd,
  0x61, 0xa0, 0x94, 0x3c, 0x50, 0x14, 0xa5, 0xbd, 0xa8, 0xaf, 0x4f, 0xbe,
  0x53, 0x4f, 0x56, 0xbe, 0xf1, 0x76, 0x81, 0x3d, 0x27, 0x50, 0x25, 0x3b,
  0x6e, 0x2c, 0x89, 0x3e, 0x7e, 0xf8, 0xb3, 0xbd, 0x63, 0x38, 0x1c, 0x3e,
  0x74, 0xdf, 0x97, 0x3c, 0x9b, 0xb0, 0x28, 0xbe, 0xf2, 0x28, 0x7a, 0xbe,
  0xa8, 0x38, 0x4a, 0xbd, 0x59, 0xe9, 0x1a, 0x3e, 0x0b, 0xe3, 0x49, 0x3e,
  0x41, 0xa3, 0x19, 0x3e, 0x92, 0xd3, 0x23, 0x3e, 0xa0, 0xbc, 0x1b, 0x3e,
  0xdd, 0x80, 0x1c, 0x3c, 0x37, 0x20, 0x29, 0xbe, 0xe8, 0x2a, 0xaf, 0xbd,
  0x26, 0xaf, 0xc3, 0x3c, 0xe4, 0x6f, 0xa4, 0x3d, 0x8d, 0xb7, 0x47, 0x3e,
  0xd8, 0xd7, 0x6f, 0x3d, 0xda, 0x6b, 0x80, 0x3d, 0xa2, 0xd6, 0x5e, 0x3e,
  0x21, 0xaf, 0xb1, 0xbd, 0xee, 0x45, 0x1b, 0x3e, 0x68, 0x66, 0xbf, 0xbc,
  0x86, 0x46, 0x22, 0x3e, 0xd2, 0x5b, 0x58, 0xbd, 0x3f, 0xb3, 0x22, 0x3e,
  0x56, 0x29, 0x8c, 0x3e, 0xaf, 0x85, 0x79, 0xbd, 0x0c, 0x2c, 0xf0, 0xbd,
  0x38, 0xfa, 0x89, 0xbe, 0xb7, 0x41, 0x64, 0xbe, 0x42, 0x8d, 0x9f, 0xbe,
  0x1f, 0x5c, 0x5b, 0xbe, 0x77, 0x7a, 0xd2, 0xbd, 0xd7, 0xec, 0xda, 0x3d,
  0x3e, 0xac, 0x64, 0xbd, 0x38, 0x7b, 0x12, 0xbe, 0x8f, 0xef, 0x62, 0xbd,
  0xd2, 0x2a, 0xa2, 0xbd, 0xa5, 0xac, 0x59, 0x3e, 0xc5, 0xcb, 0x93, 0x3e,
  0x03, 0xca, 0x5c, 0x3e, 0x01, 0xbd, 0x78, 0x3d, 0xa2, 0xef, 0xb5, 0xbc,
  0xcb, 0x5a, 0x00, 0xbc, 0xc8, 0x81, 0x56, 0x3b, 0xa5, 0x72, 0x8d, 0xbe,
  0xbf, 0x3f, 0x16, 0xbe, 0x09, 0x3f, 0x23, 0xbe, 0xf9, 0x0a, 0x71, 0xbe,
  0x3d, 0xcf, 0xda, 0xbd, 0xbb, 0x9a, 0x07, 0x3e, 0xfb, 0x31, 0x88, 0x3d,
  0xae, 0xc1, 0xfa, 0x3d, 0x25, 0x45, 0x9f, 0x3e, 0xf6, 0x8c, 0x7c, 0x3e,
  0x46, 0x32, 0x20, 0x3e, 0x13, 0xdb, 0x40, 0x3e, 0x35, 0x8f, 0x12, 0xbd,
  0x00, 0x3f, 0xe8, 0x3d, 0xcc, 0xee, 0x0d, 0xbe, 0x23, 0xd3, 0x85, 0xbd,
  0x33, 0xb3, 0xc7, 0x3b, 0xa4, 0xd1, 0xd8, 0x3d, 0x59, 0x46, 0x0b, 0x3e,
  0xa1, 0xdf, 0x38, 0x3e, 0xb3, 0x60, 0x9d, 0xbc, 0xd3, 0x98, 0x7c, 0xbe,
  0x84, 0x29, 0x97, 0xbd, 0x4f, 0x57, 0x49, 0x3e, 0x82, 0x4f, 0x9b, 0x3d,
  0x5c, 0xd0, 0x53, 0x3e, 0x7d, 0x42, 0x0b, 0xbe, 0xaf, 0xed, 0xe0, 0x3d,
  0x5c, 0x29, 0xdb, 0x3d, 0xb0, 0xbd, 0x87, 0xbe, 0x05, 0x8c, 0xd5, 0x3d,
  0x26, 0x51, 0x07, 0x3e, 0x7b, 0xfc, 0x82, 0xbe, 0x2e, 0x38, 0x1e, 0xbe,
  0x13, 0xc6, 0x3b, 0x3e, 0x2a, 0xb3, 0x56, 0xbd, 0x0a, 0x1a, 0x86, 0xbe,
  0x5f, 0xbc, 0x9b, 0xbe, 0x75, 0x07, 0xb9, 0xbd, 0x8b, 0x1c, 0x39, 0x3d,
  0xdd, 0x6b, 0x61, 0xbe, 0x2a, 0x47, 0x8c, 0xbe, 0x90, 0x7e, 0xc4, 0x3c,
  0x97, 0xe6, 0x84, 0x3e, 0x88, 0x78, 0x26, 0x3e, 0xd2, 0xf0, 0xf9, 0xbc,
  0x73, 0x99, 0xc9, 0x3d, 0x1f, 0x40, 0x40, 0xbc, 0x76, 0xd8, 0xd1, 0xbd,
  0xe8, 0xea, 0xc9, 0x3d, 0x6e, 0x36, 0x4f, 0xbd, 0xa8, 0x6d, 0x93, 0x3d,
  0xf0, 0x4d, 0x1c, 0xbe, 0xa7, 0x02, 0x1f, 0xbe, 0x47, 0xca, 0x7b, 0xbd,
  0xd6, 0x47, 0x2e, 0xbe, 0xea, 0x50, 0x3b, 0xbe, 0x30, 0x01, 0xa5, 0xbe,
  0x20, 0x8a, 0xac, 0xbe, 0xcb, 0xe9, 0xac, 0x3d, 0x93, 0x80, 0x0e, 0x3e,
  0x2c, 0x7a, 0xc1, 0x3d, 0x87, 0x63, 0x7a, 0xbd, 0xc7, 0x60, 0xdc, 0x3d,
  0x05, 0x26, 0x9b, 0x3c, 0xc1, 0x99, 0x9a, 0xbe, 0x2a, 0x10, 0x0e, 0xbe,
  0xfe, 0xd2, 0x3e, 0x3e, 0x65, 0xd4, 0x2f, 0xbe, 0xa9, 0x26, 0xa6, 0xbc,
  0xbb, 0x19, 0x6c, 0xbc, 0xec, 0xcb, 0xaa, 0xbe, 0x1b, 0x4c, 0x32, 0x3d,
  0xef, 0x85, 0x64, 0xbd, 0x31, 0x3c, 0xe0, 0xbd, 0xda, 0x6e, 0x61, 0xbe,
  0xbf, 0x18, 0xfd, 0xbd, 0x3c, 0x07, 0xe6, 0xbd, 0xb6, 0x3e, 0x85, 0xbc,
  0x0f, 0x27, 0x1f, 0x3e, 0x08, 0xa9, 0x3d, 0xbd, 0x1f, 0x2e, 0xca, 0xbd,
  0xc9, 0x85, 0xf4, 0xbd, 0xfc, 0xb6, 0x9e, 0x3d, 0xfc, 0xf1, 0xab, 0x3e,
  0x9d, 0x22, 0x1e, 0x3e, 0xa8, 0x40, 0x18, 0xbd, 0x71, 0x6e, 0x6b, 0x3e,
  0x8e, 0x2c, 0x59, 0x3e, 0x33, 0x04, 0x09, 0xbd, 0x92, 0x61, 0x9e, 0x3d,
  0xad, 0xb1, 0x78, 0xbe, 0xf3, 0xa3, 0x4b, 0x3e, 0xfb, 0x31, 0x45, 0xbe,
  0x5e, 0x1a, 0x78, 0xbe, 0xe4, 0x69, 0xac, 0x3d, 0x56, 0x1e, 0x4a, 0xbe,
  0x7c, 0xa9, 0x9a, 0x3e, 0xdc, 0x87, 0x70, 0x3d, 0x3c, 0x8d, 0xfa, 0x3d,
  0xd7, 0x86, 0xb5, 0xbc, 0x27, 0x34, 0x70, 0x3d, 0xf0, 0xd3, 0x89, 0xbd,
  0xff, 0x64, 0x04, 0x3e, 0x1f, 0x10, 0xe4, 0xbd, 0x97, 0x06, 0x6f, 0xbe,
  0x2e, 0x67, 0xb3, 0xbc, 0x10, 0x18, 0x63, 0x3c, 0x61, 0xd9, 0xb7, 0xbd,
  0x6f, 0x08, 0x7e, 0x3e, 0x3e, 0xa0, 0xed, 0xbd, 0x76, 0x96, 0xc0, 0xbd,
  0x9f, 0x25, 0xae, 0xbd, 0x92, 0x04, 0x3a, 0xbd, 0xb5, 0xbb, 0x79, 0xbe,
  0x7d, 0x40, 0x8b, 0x3c, 0xbc, 0xbb, 0x16, 0xbe, 0x88, 0x55, 0x61, 0xbe,
  0xcf, 0x21, 0xbb, 0xbd, 0xf3, 0x09, 0x68, 0xbe, 0x9b, 0x67, 0x20, 0xbe,
  0x94, 0xb1, 0xea, 0xbd, 0xba, 0xc6, 0x3d, 0x3d, 0x18, 0xb6, 0x97, 0xbd,
  0xb8, 0xe0, 0x38, 0x3e, 0xc2, 0x8b, 0xaa, 0xbd, 0x51, 0x65, 0x4b, 0xbd,
  0x44, 0x81, 0x53, 0xbe, 0xd3, 0x82, 0x2e, 0x3d, 0x91, 0xf0, 0x26, 0x3e,
  0xc5, 0xf8, 0x27, 0xbe, 0x0f, 0xa2, 0x9e, 0xbd, 0x8e, 0xc0, 0x0c, 0x3c,
  0xdb, 0xb3, 0xec, 0x3d, 0xe6, 0xa0, 0x89, 0x3e, 0x66, 0xdc, 0x86, 0x3e,
  0xea, 0xf4, 0x11, 0x3e, 0xfb, 0x42, 0xd3, 0xbc, 0x9a, 0x7c, 0x96, 0x3e,
  0x3e, 0x51, 0x09, 0xbc, 0xed, 0x35, 0x21, 0x3e, 0x35, 0x61, 0x5f, 0xbe,
  0x89, 0x62, 0xbd, 0x3e, 0x4a, 0x33, 0xba, 0xbd, 0xee, 0xa9, 0xcb, 0xbe,
  0x35, 0x6e, 0x57, 0xbe, 0x23, 0x26, 0x89, 0xbd, 0xaa, 0x61, 0x02, 0xbe,
  0x16, 0x30, 0x4d, 0x3c, 0x02, 0x06, 0x7e, 0xbe, 0x69, 0x5b, 0xc1, 0x3d,
  0x50, 0x52, 0x2d, 0x3e, 0x4e, 0x4e, 0x14, 0x3e, 0xc3, 0xd4, 0x26, 0xbc,
  0x91, 0xaa, 0x41, 0xbe, 0xf1, 0xff, 0x0d, 0x3d, 0xba, 0x72, 0x8a, 0xbd,
  0x84, 0x01, 0x7e, 0x3e, 0x6d, 0x22, 0x03, 0xbe, 0x93, 0x78, 0x1f, 0x3e,
  0xbc, 0x66, 0xbc, 0x3c, 0x55, 0xde, 0x52, 0xbe, 0xad, 0xdc, 0x82, 0xbd,
  0xd0, 0x7d, 0x31, 0xbd, 0xa3, 0x5a, 0xbd, 0x3d, 0x73, 0x15, 0x50, 0xbe,
  0xe9, 0x18, 0x79, 0xbe, 0x78, 0x03, 0x88, 0xbe, 0x24, 0xc0, 0xa7, 0xbe,
  0x73, 0xf8, 0x43, 0x3e, 0x66, 0xcd, 0x9d, 0xbe, 0x18, 0x38, 0xbc, 0xbe,
  0x18, 0xcb, 0x5f, 0xbe, 0xdc, 0xb0, 0x5c, 0xbe, 0xc6, 0x2a, 0x91, 0x3d,
  0xe5, 0xfb, 0x51, 0xbe, 0xdb, 0xa6, 0x70, 0xbe, 0xda, 0xcb, 0x17, 0xbe,
  0x4d, 0x22, 0xb6, 0xbe, 0x8e, 0x1b, 0x14, 0xbe, 0xbb, 0xd7, 0x5e, 0xbe,
  0x19, 0xea, 0x91, 0xbe, 0x81, 0x3c, 0x1a, 0xbd, 0x02, 0x49, 0x99, 0x3c,
  0xdd, 0xc2, 0x50, 0xbe, 0x5e, 0xc1, 0x00, 0xbe, 0xdc, 0xce, 0x48, 0xbe,
  0xcd, 0x1a, 0x9b, 0xbd, 0xfe, 0xa0, 0x43, 0xbd, 0xec, 0x80, 0xfa, 0x3d,
  0x5b, 0x24, 0xbd, 0x3d, 0x39, 0x71, 0x86, 0xbe, 0x23, 0xf8, 0xce, 0x3d,
  0xf3, 0x7a, 0x87, 0xbe, 0xa8, 0xb9, 0xd8, 0x3d, 0xa9, 0x93, 0x2b, 0xbe,
  0x98, 0x27, 0x5b, 0x3d, 0x8c, 0xb8, 0xa0, 0x3e, 0x58, 0x68, 0x4b, 0x3e,
  0x31, 0x58, 0x03, 0xbd, 0x51, 0x12, 0x86, 0x3e, 0x73, 0x5a, 0x78, 0xbd,
  0x34, 0x35, 0xae, 0x3d, 0x03, 0xa3, 0x8d, 0x3e, 0xfd, 0x77, 0x54, 0x3c,
  0x3d, 0x68, 0x53, 0xbe, 0x92, 0x66, 0x99, 0xbd, 0xca, 0x34, 0x83, 0xbe,
  0xbd, 0xb2, 0x6d, 0xbe, 0x81, 0xe7, 0xe6, 0x3d, 0x79, 0x1f, 0x1b, 0xbe,
  0x33, 0x7a, 0x66, 0xba, 0x62, 0x8c, 0x97, 0xbd, 0x17, 0x37, 0x6d, 0xbe,
  0xdd, 0x7f, 0x8c, 0xbe, 0xd6, 0xb0, 0x8f, 0xbc, 0x7e, 0x5b, 0x42, 0x3e,
  0xc6, 0x7e, 0x58, 0x3e, 0x43, 0x9a, 0x4c, 0xbd, 0x63, 0x66, 0xc4, 0x3d,
  0x1c, 0xaa, 0xdf, 0xba, 0xb7, 0xa2, 0x4a, 0x3e, 0x5c, 0x5f, 0x26, 0xbe,
  0x78, 0x1c, 0x1f, 0xbe, 0x1e, 0xe8, 0x9a, 0x3d, 0x5f, 0x35, 0x0d, 0x3e,
  0xe8, 0xbb, 0xa8, 0xbc, 0x0d, 0xd2, 0x6f, 0x3d, 0xfd, 0xf5, 0xbd, 0x3d,
  0xa0, 0x6b, 0xee, 0x3d, 0x39, 0x48, 0x75, 0xbe, 0x4f, 0x87, 0x9f, 0xbc,
  0xf6, 0x0b, 0x64, 0xbe, 0x0a, 0xbe, 0x0e, 0x3e, 0x14, 0x98, 0x50, 0xbe,
  0x1a, 0xba, 0x89, 0xbc, 0xbd, 0x6a, 0x8e, 0xbd, 0xe6, 0x22, 0x3b, 0x3e,
  0x60, 0x7a, 0xf1, 0xbd, 0xd7, 0x82, 0xa1, 0xbd, 0xe8, 0x5a, 0xb6, 0xbc,
  0x29, 0x47, 0x9d, 0xbe, 0x83, 0x4a, 0x7d, 0x3e, 0xee, 0x25, 0x75, 0x3e,
  0x18, 0x3a, 0x5e, 0x3e, 0x2c, 0xa8, 0xee, 0x3d, 0xc5, 0x19, 0x2c, 0xbe,
  0x64, 0x13, 0x11, 0xbe, 0x9d, 0xa7, 0xf0, 0x3d, 0x62, 0x79, 0x56, 0x3e,
  0x36, 0xba, 0x8f, 0xbe, 0xe8, 0x96, 0x52, 0xbd, 0xea, 0xe0, 0x03, 0xbd,
  0x48, 0x04, 0x59, 0x3e, 0x74, 0x5b, 0x2c, 0x3d, 0x71, 0x77, 0x31, 0x3e,
  0xac, 0x44, 0x8a, 0x3e, 0xa3, 0x50, 0x95, 0xbc, 0xc5, 0xdb, 0x1d, 0xbe,
  0x43, 0x56, 0x21, 0x3e, 0x97, 0x4c, 0xee, 0xbb, 0x2a, 0x62, 0x97, 0xbd,
  0x29, 0xf8, 0xbb, 0xbd, 0xf0, 0xc7, 0x62, 0x3d, 0x63, 0xf3, 0xd3, 0x3c,
  0x5a, 0xad, 0x18, 0x3e, 0x02, 0xcd, 0x3c, 0x3e, 0xe2, 0xa3, 0x98, 0x3e,
  0xf4, 0x23, 0x62, 0x3e, 0xfc, 0x52, 0x87, 0x3d, 0x6c, 0xaf, 0x48, 0x3e,
  0xca, 0x75, 0xd8, 0x3d, 0xd8, 0x59, 0x93, 0xbd, 0x8c, 0xac, 0x82, 0xbc,
  0x46, 0x55, 0x67, 0x3e, 0x87, 0x29, 0x8a, 0x3e, 0x41, 0x90, 0x40, 0x3e,
  0x7a, 0x9d, 0x99, 0xbd, 0x59, 0xb6, 0x85, 0x3e, 0x09, 0x4e, 0x0a, 0xbe,
  0x43, 0x93, 0x8d, 0x3e, 0xd7, 0xb8, 0x99, 0xbc, 0x04, 0x6e, 0xd2, 0xbd,
  0xc6, 0x3c, 0x35, 0x3e, 0x25, 0x83, 0x80, 0x3d, 0xc3, 0xf1, 0x42, 0xbe,
  0x7a, 0x45, 0x1f, 0xbe, 0x81, 0x17, 0x2d, 0x3e, 0x85, 0xb2, 0xb0, 0xbc,
  0x2a, 0xd0, 0x10, 0xbc, 0xc6, 0x75, 0x33, 0x3e, 0x05, 0xae, 0x02, 0x3e,
  0xcc, 0x80, 0x80, 0x3e, 0x79, 0x17, 0x14, 0x3e, 0x90, 0xdb, 0x7c, 0x3e,
  0x11, 0xf0, 0x78, 0x3e, 0xe9, 0x13, 0x70, 0x3e, 0xc7, 0xd8, 0x6c, 0xbd,
  0x29, 0xa8, 0xea, 0x3c, 0xb8, 0x07, 0x85, 0x3e, 0x46, 0xe6, 0x9c, 0x3d,
  0x0e, 0x5a, 0xb4, 0xbd, 0x01, 0xa5, 0x32, 0x3d, 0xfc, 0x43, 0xbe, 0x3d,
  0x95, 0xe9, 0x8a, 0x3d, 0x6e, 0x72, 0x1b, 0x3d, 0x1b, 0x2a, 0x3f, 0x3e,
  0xcc, 0x72, 0xfc, 0x3c, 0xf2, 0x47, 0x8c, 0x3e, 0xe9, 0x39, 0xa6, 0xbd,
  0xa9, 0xa9, 0xb2, 0x3e, 0x31, 0xbb, 0x73, 0x3d, 0x40, 0x02, 0x16, 0x3e,
  0xa5, 0x28, 0x9c, 0xbd, 0xba, 0xa4, 0xd4, 0x3a, 0x0a, 0xbd, 0x3f, 0x3e,
  0x91, 0xd0, 0x2f, 0xbd, 0x32, 0x32, 0x62, 0xbd, 0xec, 0x73, 0x5b, 0x3e,
  0x09, 0xfb, 0x00, 0xbe, 0x84, 0x0b, 0x7b, 0x3e, 0x81, 0x7f, 0x42, 0x3e,
  0xcb, 0x46, 0xd7, 0x3d, 0xeb, 0x1d, 0xee, 0x3d, 0x19, 0x19, 0xd6, 0x3d,
  0x8d, 0x52, 0xef, 0x3d, 0x63, 0x88, 0x35, 0x3d, 0xe4, 0x18, 0x3b, 0xbd,
  0x27, 0xa7, 0x81, 0x3b, 0x1c, 0x16, 0x0f, 0xbd, 0x2e, 0x53, 0x90, 0xbd,
  0x8d, 0x8a, 0x38, 0xbe, 0x23, 0x23, 0x3f, 0x3e, 0x5e, 0x5f, 0xdf, 0xbd,
  0xdf, 0xb0, 0x66, 0xbe, 0x5e, 0x3f, 0xc1, 0xbd, 0x0b, 0x5a, 0xb4, 0x3c,
  0x42, 0xcd, 0x34, 0x3e, 0xa3, 0x57, 0x84, 0xbe, 0x59, 0xa2, 0x0d, 0xbe,
  0x1b, 0xc3, 0x94, 0x3e, 0x78, 0x7d, 0x3b, 0xbe, 0x67, 0xc6, 0xcc, 0xbd,
  0xdf, 0x7f, 0x44, 0xbd, 0x4a, 0x88, 0x94, 0xbe, 0x86, 0x2e, 0x58, 0xbe,
  0x39, 0xae, 0x8a, 0xbe, 0x68, 0x79, 0x9b, 0x3d, 0xe6, 0xcb, 0x2a, 0xbd,
  0x20, 0x0a, 0x1b, 0x3e, 0x3e, 0xbe, 0xe2, 0xbd, 0x39, 0x59, 0x3e, 0xbe,
  0x01, 0x19, 0x21, 0x3c, 0x0e, 0x39, 0x0d, 0xbe, 0x5a, 0x39, 0xea, 0xbd,
  0xb0, 0x08, 0x5b, 0xbe, 0xbf, 0x53, 0x26, 0xbe, 0xe6, 0x50, 0x28, 0x3e,
  0xa4, 0x29, 0xae, 0x3e, 0x6f, 0xb8, 0x75, 0xbe, 0xa4, 0xaf, 0x76, 0x3d,
  0x5e, 0x0f, 0x25, 0xbe, 0xac, 0xd2, 0x76, 0xbe, 0x7a, 0xf2, 0x22, 0x3e,
  0x34, 0x37, 0x61, 0xbe, 0xef, 0xfd, 0x67, 0xbe, 0xf0, 0x98, 0x32, 0xbe,
  0xbe, 0x7c, 0x8c, 0x3e, 0x1c, 0x43, 0x61, 0xbe, 0x01, 0xf6, 0x74, 0xbe,
  0xee, 0x3a, 0x5b, 0xbe, 0xda, 0xf2, 0xac, 0xbc, 0x79, 0x2b, 0x64, 0xbe,
  0xb9, 0x96, 0x39, 0x3e, 0x65, 0xfd, 0x45, 0x3e, 0x99, 0x3f, 0x1f, 0x3e,
  0x16, 0xed, 0xa6, 0x3e, 0xbe, 0xfd, 0x81, 0xbd, 0x55, 0x55, 0x76, 0xbe,
  0x2e, 0x68, 0x9e, 0x3c, 0xfc, 0x9f, 0x63, 0xbe, 0xa5, 0xaa, 0x88, 0xbe,
  0xb2, 0x5d, 0x9a, 0xbd, 0x7f, 0x66, 0x8b, 0xbe, 0x88, 0xa5, 0xd6, 0xbd,
  0xb4, 0x74, 0x45, 0x3d, 0xcd, 0xe4, 0x0b, 0xbd, 0xad, 0x96, 0x31, 0x3d,
  0xea, 0xab, 0x20, 0xbe, 0x56, 0x1e, 0x05, 0x3e, 0x12, 0x96, 0x5f, 0x3d,
  0xa2, 0x7a, 0x41, 0x3e, 0x8f, 0x8e, 0x62, 0xbc, 0x12, 0x71, 0xc5, 0xbd,
  0x8a, 0x97, 0x52, 0x3e, 0xb9, 0x54, 0x9b, 0x3c, 0x94, 0x0d, 0x28, 0x3c,
  0xfb, 0x95, 0x54, 0x3e, 0x28, 0xde, 0x39, 0xbe, 0xd4, 0x54, 0xaf, 0xbd,
  0xb0, 0xd7, 0x92, 0xbd, 0x52, 0x61, 0x1c, 0xbe, 0xce, 0x23, 0x24, 0xbd,
  0xa2, 0x1f, 0xa1, 0x3e, 0xee, 0xcd, 0x0e, 0xbd, 0x51, 0x1d, 0x33, 0x3d,
  0xaa, 0xf7, 0x45, 0xbe, 0x26, 0xc9, 0xf4, 0xbc, 0xc7, 0x13, 0x80, 0x3e,
  0x1e, 0x7f, 0x29, 0x3e, 0x70, 0xb0, 0xf4, 0xbd, 0xa6, 0xf7, 0x16, 0xbc,
  0xf8, 0x88, 0xa4, 0xbb, 0xf5, 0x50, 0x7f, 0xbe, 0xbb, 0x80, 0x69, 0xbe,
  0x35, 0x93, 0xa0, 0xbe, 0x13, 0x8d, 0x4c, 0xbe, 0xae, 0xfb, 0x04, 0xbe,
  0x2e, 0xc4, 0x8b, 0xbe, 0x19, 0x98, 0xf4, 0xbd, 0x11, 0x9b, 0x1c, 0xbe,
  0xac, 0xb9, 0x8d, 0xbe, 0x00, 0x81, 0x0c, 0xbb, 0x34, 0xcb, 0xc8, 0xbd,
  0xe1, 0xc3, 0x6f, 0xbe, 0x45, 0xd7, 0x33, 0xbe, 0x45, 0xaf, 0x67, 0xbe,
  0xec, 0xd6, 0xa4, 0xbe, 0xbd, 0xcc, 0x9a, 0xbc, 0x61, 0x7f, 0xcd, 0xbe,
  0x3a, 0x52, 0xad, 0xbe, 0x2c, 0x64, 0x7c, 0xbd, 0x18, 0x8c, 0x84, 0xbe,
  0x44, 0x11, 0x45, 0xbd, 0xf9, 0x99, 0x80, 0xbe, 0xa7, 0xe5, 0xd0, 0x3c,
  0x7a, 0xea, 0xb4, 0xbd, 0x62, 0x42, 0xb5, 0x3d, 0x4d, 0x0e, 0xa3, 0x3c,
  0x92, 0xc6, 0x02, 0xbe, 0xf0, 0x7d, 0x12, 0xbd, 0x90, 0xed, 0x23, 0x3c,
  0x37, 0x12, 0x8b, 0xbe, 0xc6, 0xd6, 0x49, 0x3e, 0x48, 0xd2, 0xaa, 0xbc,
  0x66, 0xdc, 0x7c, 0x3d, 0x19, 0x46, 0x82, 0xbe, 0x23, 0x68, 0xac, 0xbe,
  0x2f, 0x2c, 0x7c, 0xbe, 0x89, 0x09, 0xa4, 0x3e, 0x63, 0x9e, 0x36, 0xbd,
  0x25, 0xd5, 0xbe, 0x3c, 0x1b, 0x03, 0x1c, 0x3e, 0x53, 0x97, 0x1c, 0xbe,
  0xd3, 0x17, 0xd3, 0x3b, 0x7a, 0x53, 0x1e, 0x3e, 0xa7, 0xa4, 0x11, 0xbe,
  0x94, 0x90, 0xaf, 0xbe, 0xca, 0x51, 0xb1, 0x3e, 0x6d, 0xc2, 0x33, 0x3e,
  0xbd, 0x52, 0x30, 0x3e, 0x3b, 0x35, 0x94, 0x3e, 0x89, 0x06, 0x1a, 0x3d,
  0x47, 0x92, 0x6f, 0xbd, 0x8a, 0x26, 0x5f, 0xbd, 0xa9, 0x5d, 0xc3, 0xbe,
  0xed, 0x94, 0xa6, 0xbe, 0x39, 0xf1, 0x7e, 0x3d, 0x21, 0x56, 0xbb, 0x3d,
  0x00, 0x74, 0x47, 0xbe, 0x53, 0x4c, 0x49, 0x3c, 0xc8, 0xba, 0x55, 0x3e,
  0x22, 0xd0, 0xac, 0xbd, 0x15, 0x92, 0x91, 0x3d, 0x8e, 0xa4, 0xbb, 0xbe,
  0xbd, 0x97, 0x79, 0xbe, 0xdd, 0x0e, 0xa0, 0x3e, 0xc5, 0xc5, 0x5c, 0x3e,
  0xb0, 0x1e, 0xa7, 0x3d, 0xca, 0x77, 0x5c, 0x3e, 0x07, 0x27, 0x38, 0x3e,
  0xff, 0xa7, 0x7f, 0x3d, 0x03, 0x32, 0xc5, 0xbd, 0xbd, 0xb5, 0x0b, 0xbe,
  0xe0, 0xe6, 0x83, 0xbe, 0xf0, 0xd8, 0xe0, 0x3d, 0x7b, 0xd6, 0xa7, 0xbd,
  0x47, 0x24, 0xd4, 0xbd, 0x64, 0xa8, 0x1a, 0x3e, 0x64, 0xb5, 0x59, 0x3e,
  0xb0, 0xf4, 0xac, 0xbd, 0x60, 0x87, 0xa7, 0xbd, 0x2b, 0x3b, 0xcb, 0xbd,
  0x6d, 0x13, 0x7c, 0xbe, 0xe4, 0xca, 0x33, 0x3e, 0x8f, 0xee, 0x2c, 0x3e,
  0x38, 0x42, 0x6d, 0xbe, 0xf9, 0xa6, 0x4d, 0xbc, 0xee, 0x14, 0x2b, 0xbe,
  0x6f, 0x96, 0x18, 0xbe, 0x40, 0x82, 0xea, 0xbd, 0xbf, 0x89, 0x84, 0xbe,
  0xa1, 0x2a, 0xe5, 0x3b, 0x2c, 0xfd, 0x42, 0x3d, 0xb0, 0xbb, 0x5c, 0x3e,
  0x34, 0x90, 0xd0, 0xbd, 0x33, 0x1b, 0xba, 0xbc, 0xd4, 0x99, 0x55, 0xbe,
  0x9a, 0xb2, 0x3e, 0xbe, 0x0e, 0x3b, 0xd2, 0x3c, 0xd2, 0x4b, 0x74, 0xbe,
  0x98, 0x19, 0x1a, 0xbd, 0x47, 0x0e, 0x68, 0xbe, 0x1d, 0x44, 0x3f, 0x3d,
  0x74, 0xbc, 0xa6, 0xbc, 0xf3, 0x99, 0x82, 0x3d, 0x15, 0xcd, 0x92, 0xbd,
  0xc3, 0xf9, 0x36, 0x3e, 0xfa, 0xcb, 0x75, 0xbe, 0x84, 0x77, 0x9e, 0xbe,
  0x2a, 0xbe, 0xdf, 0xbd, 0x4e, 0xbc, 0x18, 0xbe, 0xbd, 0x1a, 0x10, 0xbe,
  0x5e, 0xa2, 0xa0, 0xbd, 0xd0, 0xac, 0x56, 0x3e, 0x39, 0xb9, 0x24, 0x3e,
  0xf2, 0x63, 0x0a, 0x3e, 0xea, 0x3a, 0xf2, 0x3c, 0x6f, 0xd3, 0x98, 0xbe,
  0xf6, 0xae, 0x78, 0xbe, 0x1e, 0xf7, 0x00, 0xbe, 0xad, 0x27, 0xe8, 0xbd,
  0x14, 0x0b, 0x2f, 0x3d, 0x63, 0x43, 0xfc, 0xbc, 0x09, 0x52, 0x34, 0xbe,
  0x84, 0x44, 0xed, 0x3d, 0x12, 0xb6, 0xf6, 0xbd, 0x79, 0x76, 0xa0, 0xbe,
  0x57, 0x47, 0x63, 0xbe, 0xfb, 0x1e, 0x32, 0xbe, 0x46, 0xbc, 0x97, 0x3b,
  0x53, 0x44, 0x83, 0x3d, 0x9a, 0x81, 0xfb, 0x3d, 0xa1, 0x86, 0x26, 0x3e,
  0xd7, 0xf1, 0x20, 0xbe, 0xd3, 0xcb, 0x3e, 0x3c, 0x3d, 0x54, 0x6f, 0xbe,
  0xbd, 0xed, 0x7d, 0xbd, 0x51, 0xfe, 0xa4, 0xbd, 0x4e, 0xa1, 0x16, 0xbd,
  0xe0, 0x2d, 0x3b, 0xbe, 0x84, 0x80, 0x5c, 0xbe, 0x86, 0x8f, 0xbe, 0x3d,
  0x5c, 0x0c, 0xa3, 0x3d, 0x0f, 0xbc, 0x10, 0x3e, 0xf1, 0x4a, 0x9d, 0xbe,
  0x9d, 0x40, 0x81, 0xbe, 0xdf, 0x24, 0x60, 0xbe, 0x6b, 0xaf, 0x40, 0xbe,
  0xf5, 0xeb, 0x6a, 0xbe, 0x91, 0xe5, 0x91, 0x3d, 0xd9, 0x31, 0xad, 0xbd,
  0xef, 0x1b, 0x13, 0xbd, 0x5d, 0xd0, 0x35, 0xbe, 0x03, 0xcb, 0x94, 0xbd,
  0x8e, 0x5f, 0x60, 0xbe, 0xc8, 0x9d, 0x01, 0xbe, 0x38, 0xc2, 0x6f, 0xbe,
  0xe7, 0x3c, 0x3c, 0xbb, 0x7d, 0xef, 0xce, 0xbd, 0xa9, 0x59, 0x43, 0xbe,
  0x03, 0xbd, 0x88, 0xbe, 0x53, 0x6d, 0xb6, 0xbd, 0x6f, 0x36, 0x65, 0xbd,
  0x57, 0x38, 0xd3, 0xbe, 0x15, 0xb9, 0x1a, 0xbe, 0x92, 0x4e, 0x84, 0x3e,
  0x7e, 0x2f, 0x88, 0x3d, 0x75, 0x76, 0x05, 0xbe, 0x11, 0x5f, 0x42, 0x3d,
  0x7d, 0x4d, 0x93, 0xbd, 0x63, 0x46, 0x8c, 0x39, 0x3f, 0x47, 0x9a, 0x3d,
  0x87, 0x5b, 0x2e, 0x3e, 0x93, 0x7c, 0x1d, 0xbe, 0xad, 0x51, 0x7a, 0x3d,
  0xd0, 0x84, 0x7c, 0x3e, 0x92, 0xce, 0xfd, 0x3d, 0xac, 0xe5, 0xb6, 0xbd,
  0x35, 0x9a, 0x41, 0x3e, 0xac, 0x79, 0xc4, 0xbd, 0xb0, 0xdb, 0x92, 0x3e,
  0xb2, 0x4f, 0x7b, 0x3e, 0xc5, 0xb7, 0x2d, 0x3e, 0x89, 0x25, 0x71, 0x3e,
  0x86, 0x41, 0x1c, 0xbc, 0xb0, 0x12, 0x68, 0x3e, 0x42, 0xbc, 0x09, 0xbd,
  0xbb, 0x55, 0xe4, 0xbc, 0xf3, 0x46, 0xff, 0x3d, 0xf3, 0x36, 0x71, 0xbd,
  0xa5, 0x9f, 0x81, 0x3e, 0xeb, 0x6c, 0xce, 0x3d, 0x99, 0x56, 0x7c, 0xbe,
  0x49, 0x33, 0xa7, 0xbc, 0x1c, 0x34, 0x12, 0x3e, 0x3c, 0x40, 0x09, 0x3e,
  0x3f, 0x65, 0x5f, 0x3e, 0xc2, 0xbb, 0xd9, 0x3b, 0x35, 0x0d, 0xb1, 0xbc,
  0x5d, 0x09, 0xa1, 0x3e, 0x47, 0x68, 0x2c, 0xbd, 0xde, 0x54, 0x91, 0xbc,
  0x74, 0x7c, 0x16, 0x3d, 0x49, 0xc2, 0xfd, 0xbd, 0x72, 0x64, 0x07, 0x3e,
  0xd2, 0xe5, 0x98, 0xbd, 0x82, 0xb2, 0x04, 0x3e, 0x6a, 0xc3, 0x61, 0x3e,
  0x14, 0x5b, 0x88, 0xbd, 0xdc, 0x9c, 0x4f, 0xbe, 0x4e, 0x68, 0xfe, 0xbd,
  0xe3, 0x13, 0x3f, 0xbe, 0x85, 0x9f, 0xa9, 0xbe, 0x9b, 0x6a, 0xa7, 0x3c,
  0xf2, 0x73, 0xeb, 0x3c, 0xcf, 0xb1, 0x07, 0xbe, 0x85, 0x61, 0x67, 0xbe,
  0xda, 0x01, 0xab, 0x3d, 0x4d, 0xa3, 0x8b, 0xbe, 0x05, 0xf7, 0x87, 0xbe,
  0x36, 0x6d, 0x2f, 0x3b, 0x72, 0x22, 0xb4, 0x3d, 0xe4, 0x1b, 0x41, 0xbe,
  0x6f, 0x60, 0xb3, 0xbe, 0xf8, 0x27, 0xa3, 0xbc, 0x0a, 0xeb, 0x2f, 0xbe,
  0x7e, 0xac, 0x8e, 0x3d, 0xa2, 0xd8, 0x05, 0x3d, 0xe4, 0x4f, 0x9f, 0xbe,
  0x6b, 0x70, 0x7f, 0xbe, 0xe7, 0x92, 0x1b, 0xbe, 0x29, 0xbd, 0x76, 0xbe,
  0xac, 0xe9, 0x9d, 0xbe, 0x2a, 0x66, 0x90, 0xbe, 0x2c, 0x82, 0xc6, 0xbd,
  0xa7, 0x12, 0x3b, 0x3e, 0x6d, 0x70, 0x8b, 0xbe, 0xd0, 0x8d, 0x45, 0xbe,
  0xc8, 0x7f, 0xf2, 0xbc, 0x6a, 0xb9, 0x40, 0xbd, 0x60, 0x8c, 0x05, 0x3d,
  0x7e, 0x7e, 0x84, 0xbe, 0x8b, 0x6b, 0x98, 0xbd, 0x15, 0x54, 0x1a, 0xbe,
  0x7e, 0x9a, 0x05, 0x3d, 0x6a, 0xfe, 0xff, 0xff, 0x04, 0x00, 0x00, 0x00,
  0x80, 0x00, 0x00, 0x00, 0x68, 0x6c, 0x58, 0x3e, 0xc2, 0x68, 0xd2, 0x3d,
  0xa6, 0x0a, 0xe2, 0x3d, 0xde, 0x74, 0x28, 0x3e, 0xad, 0xc7, 0x29, 0x3d,
  0xfa, 0xdb, 0x92, 0x3d, 0x18, 0xdc, 0xbc, 0x3c, 0xc3, 0x63, 0xea, 0x3d,
  0x69, 0x2d, 0x0c, 0x3d, 0x31, 0x49, 0xf7, 0x3c, 0xbb, 0xa3, 0xf0, 0x3d,
  0xd9, 0x0c, 0xcf, 0x3d, 0x36, 0xce, 0x39, 0x3e, 0x36, 0x57, 0xd8, 0x3d,
  0x64, 0xba, 0x27, 0x3d, 0x9d, 0xfe, 0x3b, 0x3b, 0xee, 0xcd, 0x2c, 0x3c,
  0x5e, 0xcf, 0x15, 0x3c, 0xe7, 0x4f, 0xfa, 0x3d, 0xfd, 0x41, 0x04, 0x3e,
  0x07, 0x56, 0x9c, 0x3d, 0x0e, 0x93, 0xbd, 0x3d, 0x26, 0x9e, 0xd2, 0x3d,
  0x5b, 0xef, 0x98, 0x3d, 0x5e, 0xa3, 0x78, 0x3d, 0x98, 0x2b, 0xf8, 0x3d,
  0x9d, 0x7c, 0x03, 0x3e, 0x53, 0x2f, 0xb1, 0x3d, 0x46, 0x92, 0x7a, 0x3d,
  0xc7, 0xea, 0x3c, 0x3e, 0xb4, 0x1e, 0xf5, 0x3d, 0x9d, 0x42, 0xe7, 0x3c,
  0xf6, 0xfe, 0xff, 0xff, 0x04, 0x00, 0x00, 0x00, 0x1c, 0x00, 0x00, 0x00,
  0x68, 0x46, 0xd5, 0xb7, 0x68, 0x51, 0x0f, 0xbe, 0x90, 0x3c, 0x26, 0xbd,
  0x08, 0x93, 0x0e, 0xbd, 0xd9, 0xfd, 0x2e, 0x3e, 0x35, 0x25, 0x83, 0x3c,
  0xe0, 0xce, 0xa5, 0xbd, 0x1e, 0xff, 0xff, 0xff, 0x04, 0x00, 0x00, 0x00,
  0x40, 0x00, 0x00, 0x00, 0x54, 0x2a, 0x9c, 0x3d, 0xd7, 0x6b, 0x88, 0x3d,
  0x12, 0x93, 0xb2, 0x3c, 0x86, 0xb7, 0x10, 0x3d, 0xa7, 0xa3, 0x32, 0x3e,
  0xae, 0xf9, 0xd9, 0x3d, 0x7c, 0x71, 0x42, 0xbc, 0x97, 0x23, 0xa6, 0x3d,
  0x78, 0x1d, 0xcf, 0xbc, 0xce, 0xcf, 0x80, 0x3d, 0xdc, 0x59, 0x42, 0x3e,
  0x38, 0x15, 0x29, 0x3e, 0x78, 0x34, 0x56, 0x3d, 0x1e, 0xdf, 0x5f, 0xbd,
  0x24, 0xde, 0x2e, 0x3e, 0xc1, 0xad, 0x7e, 0x3d, 0x5c, 0xfa, 0xff, 0xff,
  0x60, 0xfa, 0xff, 0xff, 0x0f, 0x00, 0x00, 0x00, 0x4d, 0x4c, 0x49, 0x52,
  0x20, 0x43, 0x6f, 0x6e, 0x76, 0x65, 0x72, 0x74, 0x65, 0x64, 0x2e, 0x00,
  0x01, 0x00, 0x00, 0x00, 0x14, 0x00, 0x00, 0x00, 0x00, 0x00, 0x0e, 0x00,
  0x18, 0x00, 0x14, 0x00, 0x10, 0x00, 0x0c, 0x00, 0x08, 0x00, 0x04, 0x00,
  0x0e, 0x00, 0x00, 0x00, 0x14, 0x00, 0x00, 0x00, 0x1c, 0x00, 0x00, 0x00,
  0x24, 0x01, 0x00, 0x00, 0x28, 0x01, 0x00, 0x00, 0x2c, 0x01, 0x00, 0x00,
  0x04, 0x00, 0x00, 0x00, 0x6d, 0x61, 0x69, 0x6e, 0x00, 0x00, 0x00, 0x00,
  0x04, 0x00, 0x00, 0x00, 0xcc, 0x00, 0x00, 0x00, 0x84, 0x00, 0x00, 0x00,
  0x50, 0x00, 0x00, 0x00, 0x14, 0x00, 0x00, 0x00, 0x00, 0x00, 0x0e, 0x00,
  0x1a, 0x00, 0x14, 0x00, 0x10, 0x00, 0x0c, 0x00, 0x0b, 0x00, 0x04, 0x00,
  0x0e, 0x00, 0x00, 0x00, 0x1c, 0x00, 0x00, 0x00, 0x00, 0x00, 0x00, 0x09,
  0x1c, 0x00, 0x00, 0x00, 0x20, 0x00, 0x00, 0x00, 0x01, 0x00, 0x00, 0x00,
  0x00, 0x00, 0x06, 0x00, 0x08, 0x00, 0x04, 0x00, 0x06, 0x00, 0x00, 0x00,
  0x00, 0x00, 0x80, 0x3f, 0x01, 0x00, 0x00, 0x00, 0x0a, 0x00, 0x00, 0x00,
  0x01, 0x00, 0x00, 0x00, 0x09, 0x00, 0x00, 0x00, 0x9a, 0xff, 0xff, 0xff,
  0x10, 0x00, 0x00, 0x00, 0x00, 0x00, 0x00, 0x08, 0x0c, 0x00, 0x00, 0x00,
  0x10, 0x00, 0x00, 0x00, 0x24, 0xfb, 0xff, 0xff, 0x01, 0x00, 0x00, 0x00,
  0x09, 0x00, 0x00, 0x00, 0x03, 0x00, 0x00, 0x00, 0x08, 0x00, 0x00, 0x00,
  0x06, 0x00, 0x00, 0x00, 0x02, 0x00, 0x00, 0x00, 0xca, 0xff, 0xff, 0xff,
  0x10, 0x00, 0x00, 0x00, 0x00, 0x00, 0x00, 0x08, 0x10, 0x00, 0x00, 0x00,
  0x14, 0x00, 0x00, 0x00, 0xba, 0xff, 0xff, 0xff, 0x00, 0x00, 0x00, 0x01,
  0x01, 0x00, 0x00, 0x00, 0x08, 0x00, 0x00, 0x00, 0x03, 0x00, 0x00, 0x00,
  0x07, 0x00, 0x00, 0x00, 0x05, 0x00, 0x00, 0x00, 0x01, 0x00, 0x00, 0x00,
  0x00, 0x00, 0x0e, 0x00, 0x16, 0x00, 0x00, 0x00, 0x10, 0x00, 0x0c, 0x00,
  0x0b, 0x00, 0x04, 0x00, 0x0e, 0x00, 0x00, 0x00, 0x18, 0x00, 0x00, 0x00,
  0x00, 0x00, 0x00, 0x08, 0x18, 0x00, 0x00, 0x00, 0x1c, 0x00, 0x00, 0x00,
  0x00, 0x00, 0x06, 0x00, 0x08, 0x00, 0x07, 0x00, 0x06, 0x00, 0x00, 0x00,
  0x00, 0x00, 0x00, 0x01, 0x01, 0x00, 0x00, 0x00, 0x07, 0x00, 0x00, 0x00,
  0x03, 0x00, 0x00, 0x00, 0x00, 0x00, 0x00, 0x00, 0x04, 0x00, 0x00, 0x00,
  0x03, 0x00, 0x00, 0x00, 0x01, 0x00, 0x00, 0x00, 0x0a, 0x00, 0x00, 0x00,
  0x01, 0x00, 0x00, 0x00, 0x00, 0x00, 0x00, 0x00, 0x0b, 0x00, 0x00, 0x00,
  0x04, 0x04, 0x00, 0x00, 0x94, 0x03, 0x00, 0x00, 0x24, 0x03, 0x00, 0x00,
  0xd0, 0x02, 0x00, 0x00, 0x88, 0x02, 0x00, 0x00, 0x3c, 0x02, 0x00, 0x00,
  0xf0, 0x01, 0x00, 0x00, 0x68, 0x01, 0x00, 0x00, 0xd8, 0x00, 0x00, 0x00,
  0x60, 0x00, 0x00, 0x00, 0x04, 0x00, 0x00, 0x00, 0x3e, 0xfc, 0xff, 0xff,
  0x00, 0x00, 0x00, 0x01, 0x14, 0x00, 0x00, 0x00, 0x1c, 0x00, 0x00, 0x00,
  0x1c, 0x00, 0x00, 0x00, 0x0b, 0x00, 0x00, 0x00, 0x34, 0x00, 0x00, 0x00,
  0x02, 0x00, 0x00, 0x00, 0xff, 0xff, 0xff, 0xff, 0x07, 0x00, 0x00, 0x00,
  0x28, 0xfc, 0xff, 0xff, 0x19, 0x00, 0x00, 0x00, 0x53, 0x74, 0x61, 0x74,
  0x65, 0x66, 0x75, 0x6c, 0x50, 0x61, 0x72, 0x74, 0x69, 0x74, 0x69, 0x6f,
  0x6e, 0x65, 0x64, 0x43, 0x61, 0x6c, 0x6c, 0x3a, 0x30, 0x00, 0x00, 0x00,
  0x02, 0x00, 0x00, 0x00, 0x01, 0x00, 0x00, 0x00, 0x07, 0x00, 0x00, 0x00,
  0x96, 0xfc, 0xff, 0xff, 0x00, 0x00, 0x00, 0x01, 0x14, 0x00, 0x00, 0x00,
  0x1c, 0x00, 0x00, 0x00, 0x1c, 0x00, 0x00, 0x00, 0x0a, 0x00, 0x00, 0x00,
  0x50, 0x00, 0x00, 0x00, 0x02, 0x00, 0x00, 0x00, 0xff, 0xff, 0xff, 0xff,
  0x07, 0x00, 0x00, 0x00, 0x80, 0xfc, 0xff, 0xff, 0x34, 0x00, 0x00, 0x00,
  0x73, 0x65, 0x71, 0x75, 0x65, 0x6e, 0x74, 0x69, 0x61, 0x6c, 0x2f, 0x64,
  0x65, 0x6e, 0x73, 0x65, 0x5f, 0x32, 0x2f, 0x4d, 0x61, 0x74, 0x4d, 0x75,
  0x6c, 0x3b, 0x73, 0x65, 0x71, 0x75, 0x65, 0x6e, 0x74, 0x69, 0x61, 0x6c,
  0x2f, 0x64, 0x65, 0x6e, 0x73, 0x65, 0x5f, 0x32, 0x2f, 0x42, 0x69, 0x61,
  0x73, 0x41, 0x64, 0x64, 0x00, 0x00, 0x00, 0x00, 0x02, 0x00, 0x00, 0x00,
  0x01, 0x00, 0x00, 0x00, 0x07, 0x00, 0x00, 0x00, 0x0a, 0xfd, 0xff, 0xff,
  0x00, 0x00, 0x00, 0x01, 0x14, 0x00, 0x00, 0x00, 0x1c, 0x00, 0x00, 0x00,
  0x1c, 0x00, 0x00, 0x00, 0x09, 0x00, 0x00, 0x00, 0x68, 0x00, 0x00, 0x00,
  0x02, 0x00, 0x00, 0x00, 0xff, 0xff, 0xff, 0xff, 0x10, 0x00, 0x00, 0x00,
  0xf4, 0xfc, 0xff, 0xff, 0x4c, 0x00, 0x00, 0x00, 0x73, 0x65, 0x71, 0x75,
  0x65, 0x6e, 0x74, 0x69, 0x61, 0x6c, 0x2f, 0x64, 0x65, 0x6e, 0x73, 0x65,
  0x5f, 0x31, 0x2f, 0x4d, 0x61, 0x74, 0x4d, 0x75, 0x6c, 0x3b, 0x73, 0x65,
  0x71, 0x75, 0x65, 0x6e, 0x74, 0x69, 0x61, 0x6c, 0x2f, 0x64, 0x65, 0x6e,
  0x73, 0x65, 0x5f, 0x31, 0x2f, 0x52, 0x65, 0x6c, 0x75, 0x3b, 0x73, 0x65,
  0x71, 0x75, 0x65, 0x6e, 0x74, 0x69, 0x61, 0x6c, 0x2f, 0x64, 0x65, 0x6e,
  0x73, 0x65, 0x5f, 0x31, 0x2f, 0x42, 0x69, 0x61, 0x73, 0x41, 0x64, 0x64,
  0x00, 0x00, 0x00, 0x00, 0x02, 0x00, 0x00, 0x00, 0x01, 0x00, 0x00, 0x00,
  0x10, 0x00, 0x00, 0x00, 0x96, 0xfd, 0xff, 0xff, 0x00, 0x00, 0x00, 0x01,
  0x14, 0x00, 0x00, 0x00, 0x1c, 0x00, 0x00, 0x00, 0x1c, 0x00, 0x00, 0x00,
  0x08, 0x00, 0x00, 0x00, 0x60, 0x00, 0x00, 0x00, 0x02, 0x00, 0x00, 0x00,
  0xff, 0xff, 0xff, 0xff, 0x20, 0x00, 0x00, 0x00, 0x80, 0xfd, 0xff, 0xff,
  0x46, 0x00, 0x00, 0x00, 0x73, 0x65, 0x71, 0x75, 0x65, 0x6e, 0x74, 0x69,
  0x61, 0x6c, 0x2f, 0x64, 0x65, 0x6e, 0x73, 0x65, 0x2f, 0x4d, 0x61, 0x74,
  0x4d, 0x75, 0x6c, 0x3b, 0x73, 0x65, 0x71, 0x75, 0x65, 0x6e, 0x74, 0x69,
  0x61, 0x6c, 0x2f, 0x64, 0x65, 0x6e, 0x73, 0x65, 0x2f, 0x52, 0x65, 0x6c,
  0x75, 0x3b, 0x73, 0x65, 0x71, 0x75, 0x65, 0x6e, 0x74, 0x69, 0x61, 0x6c,
  0x2f, 0x64, 0x65, 0x6e, 0x73, 0x65, 0x2f, 0x42, 0x69, 0x61, 0x73, 0x41,
  0x64, 0x64, 0x00, 0x00, 0x02, 0x00, 0x00, 0x00, 0x01, 0x00, 0x00, 0x00,
  0x20, 0x00, 0x00, 0x00, 0x86, 0xfe, 0xff, 0xff, 0x00, 0x00, 0x00, 0x01,
  0x10, 0x00, 0x00, 0x00, 0x10, 0x00, 0x00, 0x00, 0x07, 0x00, 0x00, 0x00,
  0x28, 0x00, 0x00, 0x00, 0xf4, 0xfd, 0xff, 0xff, 0x19, 0x00, 0x00, 0x00,
  0x73, 0x65, 0x71, 0x75, 0x65, 0x6e, 0x74, 0x69, 0x61, 0x6c, 0x2f, 0x64,
  0x65, 0x6e, 0x73, 0x65, 0x5f, 0x32, 0x2f, 0x4d, 0x61, 0x74, 0x4d, 0x75,
  0x6c, 0x00, 0x00, 0x00, 0x02, 0x00, 0x00, 0x00, 0x07, 0x00, 0x00, 0x00,
  0x10, 0x00, 0x00, 0x00, 0xce, 0xfe, 0xff, 0xff, 0x00, 0x00, 0x00, 0x01,
  0x10, 0x00, 0x00, 0x00, 0x10, 0x00, 0x00, 0x00, 0x06, 0x00, 0x00, 0x00,
  0x28, 0x00, 0x00, 0x00, 0x3c, 0xfe, 0xff, 0xff, 0x19, 0x00, 0x00, 0x00,
  0x73, 0x65, 0x71, 0x75, 0x65, 0x6e, 0x74, 0x69, 0x61, 0x6c, 0x2f, 0x64,
  0x65, 0x6e, 0x73, 0x65, 0x5f, 0x31, 0x2f, 0x4d, 0x61, 0x74, 0x4d, 0x75,
  0x6c, 0x00, 0x00, 0x00, 0x02, 0x00, 0x00, 0x00, 0x10, 0x00, 0x00, 0x00,
  0x20, 0x00, 0x00, 0x00, 0x16, 0xff, 0xff, 0xff, 0x00, 0x00, 0x00, 0x01,
  0x10, 0x00, 0x00, 0x00, 0x10, 0x00, 0x00, 0x00, 0x05, 0x00, 0x00, 0x00,
  0x24, 0x00, 0x00, 0x00, 0x84, 0xfe, 0xff, 0xff, 0x17, 0x00, 0x00, 0x00,
  0x73, 0x65, 0x71, 0x75, 0x65, 0x6e, 0x74, 0x69, 0x61, 0x6c, 0x2f, 0x64,
  0x65, 0x6e, 0x73, 0x65, 0x2f, 0x4d, 0x61, 0x74, 0x4d, 0x75, 0x6c, 0x00,
  0x02, 0x00, 0x00, 0x00, 0x20, 0x00, 0x00, 0x00, 0x51, 0x00, 0x00, 0x00,
  0x5a, 0xff, 0xff, 0xff, 0x00, 0x00, 0x00, 0x01, 0x10, 0x00, 0x00, 0x00,
  0x10, 0x00, 0x00, 0x00, 0x04, 0x00, 0x00, 0x00, 0x34, 0x00, 0x00, 0x00,
  0xc8, 0xfe, 0xff, 0xff, 0x27, 0x00, 0x00, 0x00, 0x73, 0x65, 0x71, 0x75,
  0x65, 0x6e, 0x74, 0x69, 0x61, 0x6c, 0x2f, 0x64, 0x65, 0x6e, 0x73, 0x65,
  0x2f, 0x42, 0x69, 0x61, 0x73, 0x41, 0x64, 0x64, 0x2f, 0x52, 0x65, 0x61,
  0x64, 0x56, 0x61, 0x72, 0x69, 0x61, 0x62, 0x6c, 0x65, 0x4f, 0x70, 0x00,
  0x01, 0x00, 0x00, 0x00, 0x20, 0x00, 0x00, 0x00, 0xaa, 0xff, 0xff, 0xff,
  0x00, 0x00, 0x00, 0x01, 0x10, 0x00, 0x00, 0x00, 0x10, 0x00, 0x00, 0x00,
  0x03, 0x00, 0x00, 0x00, 0x38, 0x00, 0x00, 0x00, 0x18, 0xff, 0xff, 0xff,
  0x29, 0x00, 0x00, 0x00, 0x73, 0x65, 0x71, 0x75, 0x65, 0x6e, 0x74, 0x69,
  0x61, 0x6c, 0x2f, 0x64, 0x65, 0x6e, 0x73, 0x65, 0x5f, 0x32, 0x2f, 0x42,
  0x69, 0x61, 0x73, 0x41, 0x64, 0x64, 0x2f, 0x52, 0x65, 0x61, 0x64, 0x56,
  0x61, 0x72, 0x69, 0x61, 0x62, 0x6c, 0x65, 0x4f, 0x70, 0x00, 0x00, 0x00,
  0x01, 0x00, 0x00, 0x00, 0x07, 0x00, 0x00, 0x00, 0x00, 0x00, 0x16, 0x00,
  0x18, 0x00, 0x14, 0x00, 0x00, 0x00, 0x10, 0x00, 0x0c, 0x00, 0x08, 0x00,
  0x00, 0x00, 0x00, 0x00, 0x00, 0x00, 0x07, 0x00, 0x16, 0x00, 0x00, 0x00,
  0x00, 0x00, 0x00, 0x01, 0x10, 0x00, 0x00, 0x00, 0x10, 0x00, 0x00, 0x00,
  0x02, 0x00, 0x00, 0x00, 0x38, 0x00, 0x00, 0x00, 0x84, 0xff, 0xff, 0xff,
  0x29, 0x00, 0x00, 0x00, 0x73, 0x65, 0x71, 0x75, 0x65, 0x6e, 0x74, 0x69,
  0x61, 0x6c, 0x2f, 0x64, 0x65, 0x6e, 0x73, 0x65, 0x5f, 0x31, 0x2f, 0x42,
  0x69, 0x61, 0x73, 0x41, 0x64, 0x64, 0x2f, 0x52, 0x65, 0x61, 0x64, 0x56,
  0x61, 0x72, 0x69, 0x61, 0x62, 0x6c, 0x65, 0x4f, 0x70, 0x00, 0x00, 0x00,
  0x01, 0x00, 0x00, 0x00, 0x10, 0x00, 0x00, 0x00, 0x00, 0x00, 0x16, 0x00,
  0x1c, 0x00, 0x18, 0x00, 0x00, 0x00, 0x14, 0x00, 0x10, 0x00, 0x0c, 0x00,
  0x00, 0x00, 0x00, 0x00, 0x08, 0x00, 0x07, 0x00, 0x16, 0x00, 0x00, 0x00,
  0x00, 0x00, 0x00, 0x01, 0x14, 0x00, 0x00, 0x00, 0x20, 0x00, 0x00, 0x00,
  0x20, 0x00, 0x00, 0x00, 0x01, 0x00, 0x00, 0x00, 0x3c, 0x00, 0x00, 0x00,
  0x02, 0x00, 0x00, 0x00, 0xff, 0xff, 0xff, 0xff, 0x51, 0x00, 0x00, 0x00,
  0x04, 0x00, 0x04, 0x00, 0x04, 0x00, 0x00, 0x00, 0x1d, 0x00, 0x00, 0x00,
  0x73, 0x65, 0x72, 0x76, 0x69, 0x6e, 0x67, 0x5f, 0x64, 0x65, 0x66, 0x61,
  0x75, 0x6c, 0x74, 0x5f, 0x64, 0x65, 0x6e, 0x73, 0x65, 0x5f, 0x69, 0x6e,
  0x70, 0x75, 0x74, 0x3a, 0x30, 0x00, 0x00, 0x00, 0x02, 0x00, 0x00, 0x00,
  0x01, 0x00, 0x00, 0x00, 0x51, 0x00, 0x00, 0x00, 0x02, 0x00, 0x00, 0x00,
  0x20, 0x00, 0x00, 0x00, 0x04, 0x00, 0x00, 0x00, 0xf4, 0xff, 0xff, 0xff,
  0x19, 0x00, 0x00, 0x00, 0x00, 0x00, 0x00, 0x19, 0x0c, 0x00, 0x0c, 0x00,
  0x0b, 0x00, 0x00, 0x00, 0x00, 0x00, 0x04, 0x00, 0x0c, 0x00, 0x00, 0x00,
  0x09, 0x00, 0x00, 0x00, 0x00, 0x00, 0x00, 0x09
};
unsigned int _home_carlin________posture_model_tflite_len = 15176;
