unsigned char _home_carlin________posture_model_tflite[] = {
  0x1c, 0x00, 0x00, 0x00, 0x54, 0x46, 0x4c, 0x33, 0x14, 0x00, 0x20, 0x00,
  0x1c, 0x00, 0x18, 0x00, 0x14, 0x00, 0x10, 0x00, 0x0c, 0x00, 0x00, 0x00,
  0x08, 0x00, 0x04, 0x00, 0x14, 0x00, 0x00, 0x00, 0x1c, 0x00, 0x00, 0x00,
  0x90, 0x00, 0x00, 0x00, 0xe8, 0x00, 0x00, 0x00, 0x18, 0x78, 0x00, 0x00,
  0x28, 0x78, 0x00, 0x00, 0xe4, 0x7d, 0x00, 0x00, 0x03, 0x00, 0x00, 0x00,
  0x01, 0x00, 0x00, 0x00, 0x10, 0x00, 0x00, 0x00, 0x00, 0x00, 0x0a, 0x00,
  0x10, 0x00, 0x0c, 0x00, 0x08, 0x00, 0x04, 0x00, 0x0a, 0x00, 0x00, 0x00,
  0x0c, 0x00, 0x00, 0x00, 0x1c, 0x00, 0x00, 0x00, 0x38, 0x00, 0x00, 0x00,
  0x0f, 0x00, 0x00, 0x00, 0x73, 0x65, 0x72, 0x76, 0x69, 0x6e, 0x67, 0x5f,
  0x64, 0x65, 0x66, 0x61, 0x75, 0x6c, 0x74, 0x00, 0x01, 0x00, 0x00, 0x00,
  0x04, 0x00, 0x00, 0x00, 0x98, 0xff, 0xff, 0xff, 0x0a, 0x00, 0x00, 0x00,
  0x04, 0x00, 0x00, 0x00, 0x07, 0x00, 0x00, 0x00, 0x64, 0x65, 0x6e, 0x73,
  0x65, 0x5f, 0x32, 0x00, 0x01, 0x00, 0x00, 0x00, 0x04, 0x00, 0x00, 0x00,
  0xca, 0x87, 0xff, 0xff, 0x04, 0x00, 0x00, 0x00, 0x0b, 0x00, 0x00, 0x00,
  0x64, 0x65, 0x6e, 0x73, 0x65, 0x5f, 0x69, 0x6e, 0x70, 0x75, 0x74, 0x00,
  0x02, 0x00, 0x00, 0x00, 0x34, 0x00, 0x00, 0x00, 0x04, 0x00, 0x00, 0x00,
  0xdc, 0xff, 0xff, 0xff, 0x0d, 0x00, 0x00, 0x00, 0x04, 0x00, 0x00, 0x00,
  0x13, 0x00, 0x00, 0x00, 0x43, 0x4f, 0x4e, 0x56, 0x45, 0x52, 0x53, 0x49,
  0x4f, 0x4e, 0x5f, 0x4d, 0x45, 0x54, 0x41, 0x44, 0x41, 0x54, 0x41, 0x00,
  0x08, 0x00, 0x0c, 0x00, 0x08, 0x00, 0x04, 0x00, 0x08, 0x00, 0x00, 0x00,
  0x0c, 0x00, 0x00, 0x00, 0x04, 0x00, 0x00, 0x00, 0x13, 0x00, 0x00, 0x00,
  0x6d, 0x69, 0x6e, 0x5f, 0x72, 0x75, 0x6e, 0x74, 0x69, 0x6d, 0x65, 0x5f,
  0x76, 0x65, 0x72, 0x73, 0x69, 0x6f, 0x6e, 0x00, 0x0e, 0x00, 0x00, 0x00,
  0x2c, 0x77, 0x00, 0x00, 0x24, 0x77, 0x00, 0x00, 0x94, 0x76, 0x00, 0x00,
  0x68, 0x76, 0x00, 0x00, 0x58, 0x75, 0x00, 0x00, 0x48, 0x24, 0x00, 0x00,
  0x38, 0x04, 0x00, 0x00, 0xa8, 0x00, 0x00, 0x00, 0xa0, 0x00, 0x00, 0x00,
  0x98, 0x00, 0x00, 0x00, 0x90, 0x00, 0x00, 0x00, 0x88, 0x00, 0x00, 0x00,
  0x68, 0x00, 0x00, 0x00, 0x04, 0x00, 0x00, 0x00, 0x7a, 0x88, 0xff, 0xff,
  0x04, 0x00, 0x00, 0x00, 0x54, 0x00, 0x00, 0x00, 0x0c, 0x00, 0x00, 0x00,
  0x08, 0x00, 0x0e, 0x00, 0x08, 0x00, 0x04, 0x00, 0x08, 0x00, 0x00, 0x00,
  0x10, 0x00, 0x00, 0x00, 0x24, 0x00, 0x00, 0x00, 0x00, 0x00, 0x06, 0x00,
  0x08, 0x00, 0x04, 0x00, 0x06, 0x00, 0x00, 0x00, 0x04, 0x00, 0x00, 0x00,
  0x00, 0x00, 0x00, 0x00, 0x00, 0x00, 0x0a, 0x00, 0x10, 0x00, 0x0c, 0x00,
  0x08, 0x00, 0x04, 0x00, 0x0a, 0x00, 0x00, 0x00, 0x02, 0x00, 0x00, 0x00,
  0x02, 0x00, 0x00, 0x00, 0x04, 0x00, 0x00, 0x00, 0x06, 0x00, 0x00, 0x00,
  0x32, 0x2e, 0x31, 0x32, 0x2e, 0x30, 0x00, 0x00, 0xda, 0x88, 0xff, 0xff,
  0x04, 0x00, 0x00, 0x00, 0x10, 0x00, 0x00, 0x00, 0x31, 0x2e, 0x35, 0x2e,
  0x30, 0x00, 0x00, 0x00, 0x00, 0x00, 0x00, 0x00, 0x00, 0x00, 0x00, 0x00,
  0xe8, 0x83, 0xff, 0xff, 0xec, 0x83, 0xff, 0xff, 0xf0, 0x83, 0xff, 0xff,
  0xf4, 0x83, 0xff, 0xff, 0x06, 0x89, 0xff, 0xff, 0x04, 0x00, 0x00, 0x00,
  0x80, 0x03, 0x00, 0x00, 0x0b, 0x20, 0x8c, 0x3e, 0x43, 0xbe, 0x5e, 0x3e,
  0xe4, 0xb2, 0x9b, 0x3e, 0x54, 0x5c, 0x58, 0x3e, 0x0e, 0x17, 0xb8, 0x3e,
  0x7f, 0x6f, 0x70, 0xbe, 0x61, 0x4c, 0x25, 0x3e, 0x45, 0x22, 0x17, 0x3e,
  0x04, 0x83, 0xa8, 0xbe, 0x46, 0xe4, 0xc7, 0xbe, 0x58, 0x74, 0x3b, 0x3e,
  0x15, 0xad, 0xde, 0xbd, 0x07, 0x63, 0x51, 0xbb, 0x98, 0x43, 0x97, 0xbd,
  0x05, 0x9f, 0xc5, 0xbe, 0xc7, 0x28, 0xc5, 0x3e, 0x2a, 0xdd, 0xcd, 0x3e,
  0x99, 0x29, 0x28, 0x3e, 0x17, 0xb5, 0xa6, 0x3d, 0x08, 0xdf, 0x4c, 0x3e,
  0x91, 0x0d, 0xaf, 0xbe, 0xd6, 0xc4, 0x9d, 0x3e, 0x5c, 0x07, 0x75, 0xbb,
  0xf8, 0xfe, 0xb8, 0xbe, 0xec, 0x78, 0x7d, 0x3d, 0x36, 0x6e, 0xb6, 0x3e,
  0xf3, 0xfb, 0xa0, 0xbe, 0xfd, 0xab, 0x2c, 0x3e, 0x6f, 0x37, 0xd0, 0xbe,
  0xbd, 0xc1, 0x4e, 0x3d, 0x9c, 0x2a, 0x31, 0x3e, 0xf8, 0x5c, 0xf6, 0xbe,
  0xbc, 0x0b, 0xa7, 0xbd, 0x12, 0x37, 0x4a, 0x3d, 0x22, 0x28, 0xcb, 0x3d,
  0x0c, 0x60, 0x80, 0x3e, 0x7a, 0xf2, 0x98, 0x3e, 0xaa, 0xd1, 0xbf, 0x3e,
  0x82, 0x06, 0x58, 0x3e, 0x36, 0x5a, 0x81, 0x3e, 0xdb, 0xa6, 0x16, 0x3d,
  0xfa, 0x9c, 0x98, 0x3d, 0xdf, 0xcc, 0x82, 0xbe, 0x54, 0xf3, 0xfc, 0xbe,
  0x7b, 0x65, 0xc9, 0x3e, 0x80, 0xd7, 0x93, 0xbe, 0x29, 0x2b, 0x7b, 0xbe,
  0x71, 0xde, 0xc9, 0x3c, 0x84, 0xdf, 0x67, 0xbe, 0x01, 0x29, 0x9f, 0x3e,
  0x6e, 0xa9, 0xab, 0xbe, 0x05, 0xf9, 0x0a, 0xbf, 0x81, 0x8a, 0x54, 0x3e,
  0xc4, 0x9c, 0x5b, 0xbe, 0x39, 0x50, 0x2c, 0xbd, 0x19, 0xda, 0x52, 0xbe,
  0xd4, 0x4e, 0xbe, 0x3e, 0x5f, 0x43, 0x00, 0x3e, 0x5d, 0x38, 0x41, 0x3e,
  0x9b, 0x23, 0xce, 0xbe, 0xfc, 0xa0, 0x37, 0x3e, 0x16, 0x9f, 0xfa, 0x3e,
  0x5a, 0x2b, 0xbf, 0xbe, 0x7f, 0xd0, 0x89, 0xbe, 0xf2, 0xce, 0xe3, 0x3e,
  0x32, 0x9b, 0x82, 0xbe, 0x5a, 0xe0, 0xa2, 0xbd, 0x56, 0xad, 0xa8, 0xbe,
  0xe4, 0x5f, 0xca, 0xbe, 0xd3, 0x57, 0x83, 0x3b, 0x31, 0xea, 0x7a, 0xbd,
  0x58, 0x54, 0x79, 0x3e, 0x71, 0x41, 0xc6, 0x3e, 0x5e, 0x5b, 0x5a, 0x3e,
  0xf9, 0x42, 0xb6, 0x3e, 0x9c, 0xcc, 0xd0, 0x3e, 0xa7, 0x2b, 0x1b, 0x3e,
  0x2d, 0x09, 0x06, 0xbe, 0xa7, 0xd6, 0x72, 0x3e, 0x59, 0xeb, 0x36, 0x3b,
  0x2c, 0xcc, 0x06, 0xbf, 0xf6, 0x6b, 0xd6, 0xbd, 0x66, 0x72, 0xf8, 0x3d,
  0x49, 0x28, 0xef, 0xbd, 0x58, 0xc1, 0x03, 0x3e, 0xfc, 0x0e, 0x68, 0xbe,
  0x4b, 0x26, 0xe1, 0x3e, 0xf2, 0xbc, 0xa7, 0x3e, 0x44, 0xd2, 0x94, 0x3e,
  0xa4, 0x81, 0x6e, 0x3e, 0x54, 0x37, 0x5f, 0x3e, 0x5d, 0x3f, 0xd4, 0xbe,
  0x7f, 0x83, 0x2d, 0xbe, 0x6b, 0xa9, 0xab, 0x3e, 0xfa, 0xd7, 0xad, 0xbe,
  0x73, 0x61, 0x76, 0x3e, 0xa5, 0x1e, 0x97, 0xbe, 0xf3, 0x42, 0x94, 0x3e,
  0x95, 0xf3, 0x83, 0x3e, 0x10, 0x33, 0xeb, 0x3e, 0xfe, 0x77, 0xd0, 0xbe,
  0x37, 0x00, 0x8c, 0xbe, 0x0c, 0x1c, 0x3e, 0xbe, 0xfe, 0xac, 0x1e, 0xbe,
  0x9e, 0x4b, 0x85, 0xbd, 0x65, 0x26, 0x27, 0xbe, 0x16, 0x55, 0x9c, 0xbe,
  0xe7, 0xba, 0x91, 0x3d, 0x31, 0xbe, 0xd0, 0xbe, 0x83, 0x84, 0x78, 0xbe,
  0x9b, 0xbe, 0xba, 0xbe, 0x3d, 0x2a, 0x3a, 0xbe, 0xa9, 0x41, 0x02, 0xbf,
  0xf2, 0xdd, 0x1a, 0x3e, 0x14, 0x25, 0x5d, 0x3e, 0x69, 0x54, 0xc3, 0xbe,
  0x7e, 0xa6, 0x1c, 0xbe, 0x90, 0x40, 0x2d, 0x3e, 0x6a, 0x50, 0x94, 0x3e,
  0x58, 0xec, 0x9a, 0xbd, 0x89, 0xef, 0xc4, 0x3e, 0x3f, 0x9e, 0xe9, 0xbe,
  0xa1, 0x41, 0x4e, 0x3e, 0x93, 0xb6, 0xd6, 0x3e, 0x51, 0xb1, 0x80, 0xbe,
  0xc6, 0x1a, 0x06, 0xbf, 0x92, 0xeb, 0x24, 0xbd, 0x1c, 0xd1, 0x8b, 0x3d,
  0x7e, 0x6a, 0xe1, 0xbe, 0x18, 0x28, 0x2b, 0xbe, 0x10, 0xde, 0xd6, 0xbe,
  0xaa, 0xb4, 0xca, 0x3e, 0x34, 0xb0, 0xb5, 0x3d, 0x52, 0x5b, 0xf7, 0xbe,
  0x57, 0x01, 0x23, 0x3d, 0xb9, 0x9d, 0xc1, 0xbe, 0x28, 0xc7, 0x96, 0x3e,
  0x79, 0x16, 0xa1, 0x3e, 0x0b, 0x74, 0x2a, 0x3e, 0xec, 0x23, 0x84, 0x3e,
  0x43, 0x70, 0x18, 0xbf, 0x1d, 0xbf, 0xc2, 0x3e, 0xd0, 0x8f, 0xe9, 0xbe,
  0x0b, 0x91, 0xb9, 0x3d, 0xd7, 0x84, 0x02, 0x3f, 0x3b, 0x13, 0x0a, 0x3e,
  0x65, 0x9c, 0xb5, 0xbe, 0xd2, 0x23, 0x5a, 0x3e, 0xbc, 0xf5, 0x27, 0x3e,
  0x75, 0x09, 0xf8, 0xbe, 0x79, 0x0a, 0xea, 0xbe, 0xf0, 0x79, 0x65, 0x3e,
  0xbb, 0xea, 0xb4, 0xbd, 0xf4, 0xe4, 0x2c, 0xbd, 0xa3, 0x84, 0xc8, 0x3e,
  0x71, 0xcf, 0xa2, 0xbd, 0x30, 0xd7, 0x9c, 0x3e, 0x33, 0xe4, 0xc8, 0xbe,
  0xad, 0xd8, 0xb9, 0xbe, 0xa5, 0x79, 0x51, 0x3e, 0xa1, 0xb1, 0x02, 0xbf,
  0xba, 0xa5, 0xe8, 0xbe, 0x6c, 0xf2, 0xfa, 0xbe, 0x7d, 0x0c, 0x32, 0x3e,
  0x99, 0x61, 0x03, 0x3e, 0x25, 0xb3, 0xac, 0x3e, 0xc0, 0xe2, 0xeb, 0x3e,
  0xad, 0xeb, 0x39, 0xbe, 0x36, 0x22, 0x96, 0x3e, 0x6d, 0xfe, 0x64, 0xbe,
  0x2f, 0x12, 0x51, 0xbe, 0xcd, 0x0a, 0x11, 0x3e, 0x92, 0x9f, 0x29, 0x3e,
  0x36, 0x34, 0xc4, 0x3e, 0xa7, 0x45, 0xba, 0xbe, 0x53, 0x01, 0x8b, 0xbd,
  0x68, 0xfd, 0xf0, 0xbd, 0x70, 0x96, 0xd0, 0xbe, 0xe4, 0xb8, 0xbd, 0xbd,
  0xa9, 0x06, 0x98, 0x3e, 0x1e, 0x13, 0x99, 0xbe, 0x2f, 0x8b, 0xce, 0x3e,
  0x06, 0x66, 0x7b, 0xbe, 0x21, 0x35, 0xed, 0x3d, 0xeb, 0x45, 0x99, 0xbe,
  0xf5, 0x8e, 0x1a, 0xbf, 0x1a, 0x20, 0xc6, 0x3e, 0xbf, 0x19, 0x9e, 0x3d,
  0x72, 0x19, 0x2a, 0xbe, 0x3c, 0x9d, 0xa0, 0xbe, 0xfa, 0x55, 0x6c, 0xbe,
  0xc0, 0x76, 0xe1, 0xbe, 0x76, 0xc1, 0x08, 0x3e, 0xad, 0xdc, 0x4a, 0xbd,
  0x44, 0x23, 0x3e, 0xbc, 0x88, 0x82, 0xeb, 0xbd, 0x03, 0xb9, 0xa2, 0x3b,
  0xd3, 0x45, 0xbf, 0x3e, 0x1f, 0xd6, 0xd7, 0xbd, 0xbb, 0x23, 0xba, 0x3e,
  0x46, 0xaf, 0x84, 0xbe, 0x4d, 0x63, 0xa5, 0xbd, 0xee, 0x0d, 0xd2, 0x3d,
  0x96, 0x21, 0x07, 0xbe, 0x58, 0x19, 0x4c, 0xbe, 0x8a, 0x44, 0xe2, 0x39,
  0x8b, 0xa4, 0x2b, 0xbe, 0xc3, 0x13, 0x4b, 0xbe, 0x2b, 0x46, 0x53, 0x3e,
  0xc3, 0xa0, 0xae, 0x3e, 0x61, 0x23, 0x3f, 0x3e, 0x93, 0xed, 0xdf, 0xbd,
  0x5d, 0x05, 0xce, 0x3e, 0x38, 0x51, 0x59, 0x3d, 0x2a, 0x79, 0xc3, 0xbe,
  0x40, 0x3d, 0xc8, 0xbd, 0xe5, 0x3c, 0x03, 0xbf, 0xb6, 0xb9, 0xa2, 0xbe,
  0x9f, 0xa6, 0xbd, 0xbd, 0xc9, 0xc5, 0xd0, 0xbe, 0xec, 0x4f, 0xd7, 0xbe,
  0xe8, 0xa6, 0x32, 0xbe, 0x59, 0x22, 0x5a, 0x3e, 0x74, 0x65, 0x08, 0x3e,
  0x92, 0x8c, 0xff, 0xff, 0x04, 0x00, 0x00, 0x00, 0x00, 0x20, 0x00, 0x00,
  0x26, 0x8a, 0x08, 0x3e, 0xa7, 0x7c, 0x22, 0xbd, 0xa3, 0xd5, 0x25, 0x3e,
  0x1a, 0xd8, 0x1a, 0x3e, 0xaf, 0x79, 0x47, 0xbe, 0x69, 0x0a, 0x6a, 0x3e,
  0x80, 0xc2, 0x6d, 0xbe, 0x64, 0x48, 0x52, 0xbe, 0x99, 0x31, 0x30, 0xbe,
  0xcf, 0x30, 0xd3, 0x3e, 0x2c, 0x6b, 0x91, 0xbe, 0x47, 0xdf, 0x99, 0x3e,
  0xe3, 0xb0, 0x47, 0xbe, 0x5a, 0x4b, 0xf1, 0xbc, 0xce, 0xee, 0x67, 0x3e,
  0x0b, 0x8c, 0xa8, 0x3d, 0x29, 0x86, 0x8a, 0xbe, 0xe1, 0x20, 0x9b, 0xbe,
  0xbd, 0x81, 0x93, 0xbc, 0xe1, 0x8c, 0x74, 0xbd, 0x20, 0x0b, 0x13, 0x3e,
  0x7d, 0x2c, 0x89, 0x3e, 0x28, 0xaf, 0x1f, 0xbd, 0x15, 0xe8, 0xe9, 0xbd,
  0x46, 0x44, 0x5c, 0x3e, 0x26, 0x50, 0xce, 0x3d, 0x1d, 0xf0, 0x33, 0x3e,
  0x98, 0x60, 0xc9, 0x3d, 0x94, 0xdf, 0x03, 0x3e, 0x41, 0xad, 0x89, 0xbd,
  0xd7, 0xac, 0x0c, 0x3d, 0x00, 0xd7, 0xff, 0xbd, 0xd6, 0x21, 0x49, 0x3d,
  0x98, 0x9a, 0xab, 0x3d, 0x11, 0x6a, 0x20, 0x3e, 0x02, 0x31, 0x52, 0xbd,
  0xf6, 0x5a, 0x08, 0x3e, 0x8f, 0x93, 0xd1, 0xbd, 0x5e, 0x01, 0x6d, 0x3e,
  0xa8, 0xbd, 0xdc, 0xbd, 0xba, 0xb7, 0xcf, 0xbd, 0xcf, 0xd3, 0x22, 0xbe,
  0xac, 0xdf, 0xb0, 0xbd, 0x8f, 0x9d, 0x6a, 0x3d, 0x2f, 0x4a, 0x87, 0xbe,
  0x68, 0xec, 0x48, 0x3b, 0xb6, 0x1b, 0xfb, 0x3c, 0xa0, 0x96, 0x8d, 0xbe,
  0x63, 0x65, 0xf5, 0x3d, 0xa1, 0x8c, 0x36, 0xbe, 0x9e, 0x25, 0xaf, 0xbd,
  0xb8, 0x8d, 0x77, 0x3e, 0xa9, 0x43, 0x9f, 0xbd, 0xc1, 0xe7, 0x81, 0x3d,
  0xad, 0x52, 0x61, 0x3d, 0xd2, 0x9a, 0x42, 0xbe, 0x54, 0x95, 0x16, 0x3c,
  0x8b, 0x26, 0xed, 0xbd, 0x3d, 0x94, 0xfc, 0xbb, 0xbd, 0x9b, 0x34, 0xbe,
  0x8b, 0xb4, 0x00, 0xbe, 0xf8, 0x0a, 0x74, 0xbe, 0x0a, 0x2e, 0x26, 0x3e,
  0x37, 0x7d, 0xda, 0xba, 0x42, 0x27, 0x20, 0xbe, 0x99, 0x7a, 0x22, 0xbe,
  0xc6, 0x93, 0x45, 0x3e, 0x28, 0x45, 0xa6, 0x3e, 0x65, 0x90, 0xac, 0x3d,
  0xfa, 0x58, 0xf7, 0xbd, 0xf2, 0x74, 0x58, 0x3e, 0x10, 0x9f, 0x61, 0x3b,
  0x8c, 0xd7, 0xf2, 0xbd, 0xd3, 0xb5, 0xe5, 0x3d, 0x85, 0x35, 0x16, 0xbe,
  0xe6, 0x87, 0x6a, 0xbd, 0xc5, 0x23, 0x93, 0x3e, 0xac, 0x39, 0xf4, 0xbc,
  0x0f, 0x82, 0x02, 0xbe, 0xaf, 0x86, 0xcf, 0xbc, 0xa9, 0x30, 0x8a, 0x3e,
  0xdb, 0x44, 0x1a, 0x3e, 0xcd, 0xff, 0x39, 0xbe, 0x23, 0x72, 0x3b, 0xbe,
  0x1a, 0x8a, 0x85, 0xbd, 0xe5, 0x10, 0x12, 0x3e, 0xcd, 0x81, 0x92, 0x3e,
  0x86, 0x3f, 0x89, 0x3d, 0xda, 0x79, 0x7f, 0x3e, 0x36, 0xe4, 0x64, 0xbd,
  0xa1, 0x49, 0x09, 0xbe, 0xd8, 0x8e, 0x4f, 0xbc, 0x02, 0x14, 0x27, 0x3e,
  0x2e, 0x60, 0x82, 0x3e, 0xa7, 0x2c, 0x72, 0xbe, 0x2b, 0x7d, 0x2e, 0xbe,
  0x57, 0xfb, 0x5d, 0xbd, 0x02, 0xd9, 0x76, 0xbe, 0xb2, 0x43, 0x32, 0x3e,
  0x4f, 0x64, 0x8a, 0xbc, 0xaa, 0x0b, 0x1a, 0xbd, 0x2a, 0x74, 0xfd, 0xbd,
  0xd2, 0xb8, 0xa5, 0x3e, 0xc2, 0x84, 0xab, 0xbd, 0xab, 0x70, 0x0e, 0x3e,
  0xbd, 0x1b, 0xa0, 0x3e, 0x64, 0x06, 0x40, 0x3e, 0xa8, 0x6e, 0x53, 0x3e,
  0xee, 0x02, 0x33, 0xbe, 0x1d, 0x49, 0x02, 0x3e, 0xe6, 0xd9, 0x43, 0x3e,
  0x11, 0x4e, 0x74, 0x3d, 0xe2, 0x57, 0x1c, 0xbe, 0xae, 0x48, 0x94, 0x3c,
  0x3f, 0x1a, 0x2c, 0xbe, 0x2e, 0x9d, 0xa0, 0xbc, 0xa7, 0x4c, 0x3c, 0xbc,
  0x9b, 0x67, 0x9d, 0x3d, 0x4b, 0xee, 0x6e, 0xbe, 0x8b, 0x55, 0xf1, 0xbd,
  0xf4, 0xab, 0x8c, 0x3e, 0xfd, 0xc3, 0x43, 0x3e, 0x7e, 0x2a, 0x5f, 0xbd,
  0xc3, 0x71, 0x9e, 0x3e, 0xf4, 0x6f, 0x7c, 0xbe, 0x33, 0x0d, 0x0c, 0x3e,
  0x7d, 0xec, 0x40, 0xbe, 0xbb, 0xe7, 0x20, 0xbe, 0x69, 0xb7, 0x8d, 0xbe,
  0x31, 0xf3, 0xc6, 0xbd, 0xf9, 0xda, 0xc7, 0x3e, 0x93, 0x42, 0x17, 0xbe,
  0xd2, 0x02, 0x7f, 0xbe, 0xae, 0x69, 0x47, 0xbe, 0x69, 0xe2, 0x5e, 0x3e,
  0xc3, 0x47, 0xdc, 0xbd, 0x68, 0xac, 0xa8, 0x3d, 0xb2, 0xd8, 0xac, 0x3d,
  0xcc, 0x9e, 0x4c, 0x3e, 0x02, 0x1c, 0x96, 0x3e, 0x96, 0x57, 0x04, 0x3e,
  0xaf, 0x11, 0x45, 0xbd, 0x17, 0xb6, 0x55, 0x3e, 0xfb, 0x53, 0x7e, 0x3e,
  0xd7, 0x5c, 0x70, 0xbd, 0x27, 0x83, 0xe6, 0xbd, 0x1f, 0x60, 0x26, 0xbe,
  0x91, 0x2f, 0xaa, 0xbd, 0x56, 0x36, 0x3d, 0x3e, 0x1d, 0xc0, 0x90, 0xbe,
  0x81, 0xf7, 0xce, 0xbc, 0x9d, 0xb5, 0x23, 0xbe, 0x2e, 0x5e, 0x2b, 0xbe,
  0x0d, 0x60, 0x89, 0x3e, 0x07, 0x0b, 0x98, 0x3c, 0xd1, 0x19, 0x89, 0xbe,
  0x05, 0x0a, 0xfb, 0xbd, 0x47, 0xfd, 0xa0, 0x3e, 0x12, 0x54, 0xfe, 0xbd,
  0xb5, 0x8b, 0x7d, 0xbd, 0x21, 0x8e, 0x77, 0xbe, 0x72, 0x2e, 0x52, 0xbe,
  0x4b, 0x7e, 0x8e, 0x3e, 0x4a, 0xc6, 0x5b, 0xbe, 0x55, 0xfd, 0x81, 0x3e,
  0xba, 0x38, 0x80, 0xbe, 0x5b, 0xc8, 0x80, 0x3e, 0xbc, 0x87, 0x0d, 0xbe,
  0x9e, 0x56, 0xde, 0xbb, 0x85, 0xde, 0xce, 0xbd, 0xf4, 0xe1, 0xe2, 0x3d,
  0x3c, 0x57, 0x32, 0x3d, 0x42, 0xae, 0x0e, 0xbe, 0x34, 0x4b, 0x4c, 0x3e,
  0x92, 0xd2, 0xe7, 0x3c, 0x97, 0xa7, 0x13, 0x3e, 0xed, 0x18, 0x97, 0xbe,
  0x08, 0xb7, 0xec, 0x3d, 0xf9, 0x43, 0x60, 0xbd, 0x61, 0x03, 0x36, 0x3e,
  0x3e, 0x67, 0x5f, 0x3e, 0xb0, 0xa9, 0x84, 0x3c, 0x18, 0x3e, 0x08, 0x3e,
  0xb2, 0xb4, 0xe8, 0xbd, 0xd8, 0x07, 0x1a, 0xbe, 0x4f, 0x9a, 0x73, 0xbe,
  0x7c, 0x3b, 0x70, 0x3e, 0xcd, 0xdd, 0x41, 0x3d, 0x24, 0x41, 0xc5, 0x3d,
  0xd4, 0x00, 0xc8, 0xbc, 0x7d, 0x2b, 0xe4, 0xbc, 0x50, 0x4a, 0xa6, 0x3d,
  0xda, 0x35, 0x87, 0xbc, 0xb3, 0xb1, 0x8a, 0x3e, 0x06, 0x8c, 0x6a, 0x3e,
  0xe2, 0xc6, 0xb4, 0xbd, 0xcd, 0xdc, 0x97, 0xbd, 0xcd, 0x0a, 0xc4, 0xbd,
  0x17, 0xf1, 0x1a, 0x3e, 0x7e, 0xce, 0x2d, 0xbe, 0x3a, 0xbb, 0x6a, 0xbe,
  0x69, 0xd1, 0x14, 0xbe, 0x91, 0xa0, 0x9b, 0x3d, 0xc3, 0x1b, 0x7d, 0x3e,
  0xf8, 0x73, 0x86, 0x3d, 0x6d, 0xd7, 0x67, 0xbd, 0xd3, 0x9d, 0xd1, 0xbd,
  0xc4, 0x62, 0x7f, 0xbd, 0x2f, 0x7d, 0xf9, 0xbd, 0x4e, 0x05, 0xcf, 0x3c,
  0x42, 0x2d, 0x28, 0xbe, 0xaf, 0x3f, 0xf1, 0xbd, 0x3e, 0x86, 0x1c, 0xbe,
  0x7e, 0x7c, 0x0d, 0xbe, 0x10, 0x13, 0x56, 0x3e, 0x76, 0xed, 0x01, 0xbd,
  0x3f, 0x77, 0x36, 0xbd, 0x8d, 0x78, 0x19, 0x3c, 0xb7, 0x97, 0x0d, 0xbd,
  0xc8, 0x0b, 0x38, 0x3e, 0x80, 0xe8, 0x98, 0x3e, 0x2b, 0x66, 0xb8, 0x3d,
  0x07, 0x41, 0xb1, 0xbc, 0x87, 0xdc, 0x15, 0x3e, 0xcd, 0x4d, 0xbf, 0x3d,
  0x99, 0x5b, 0x62, 0xbe, 0xd6, 0x1d, 0x29, 0x3b, 0xf2, 0x64, 0x76, 0x3e,
  0x66, 0x02, 0x81, 0x3d, 0x97, 0x17, 0x81, 0xbe, 0x3b, 0x61, 0x77, 0x3e,
  0x7e, 0xa9, 0xa0, 0x3d, 0x88, 0x86, 0x6d, 0xbc, 0x9d, 0xcc, 0x92, 0x3d,
  0x1d, 0x3a, 0x81, 0x3c, 0xf7, 0xa4, 0x2a, 0x3e, 0xb6, 0xd9, 0x25, 0xbe,
  0xcc, 0xbb, 0xa3, 0x3d, 0x63, 0x63, 0xf9, 0x3d, 0x23, 0x08, 0x97, 0x3e,
  0x27, 0x32, 0x96, 0x3e, 0x68, 0xeb, 0xcd, 0xba, 0x24, 0xc2, 0x37, 0x3e,
  0xb6, 0xdd, 0x7a, 0x3e, 0x52, 0xd6, 0x07, 0xbd, 0x7c, 0xff, 0xb7, 0xbe,
  0xee, 0x03, 0x6f, 0x3e, 0x42, 0x82, 0x99, 0x3d, 0x23, 0x69, 0x89, 0x3d,
  0xdd, 0x9e, 0xa1, 0x3e, 0xb3, 0x13, 0x1b, 0x3d, 0x0f, 0x64, 0x4e, 0x3e,
  0x42, 0xa0, 0x91, 0x3d, 0x2f, 0x7f, 0x9e, 0x3e, 0x8c, 0x70, 0xd3, 0x3d,
  0x8c, 0x69, 0x7e, 0xbd, 0x5f, 0xf4, 0x2c, 0x3e, 0x70, 0xee, 0x5f, 0xbd,
  0xca, 0x11, 0x80, 0xbe, 0x89, 0x81, 0xfe, 0x3d, 0x7a, 0x14, 0xa6, 0x3d,
  0xa2, 0x15, 0xd3, 0x3c, 0xf5, 0x4f, 0x30, 0x3e, 0xc6, 0xdf, 0x66, 0xbe,
  0xf6, 0x3f, 0x37, 0xbe, 0xa8, 0xdf, 0x04, 0xbd, 0xf2, 0x09, 0x6d, 0xbe,
  0xb5, 0x66, 0x85, 0xbe, 0x44, 0x22, 0x1e, 0x3e, 0x3d, 0x78, 0x49, 0x3d,
  0xbd, 0xa5, 0x0c, 0x3e, 0x68, 0xef, 0x39, 0xbb, 0xc1, 0x51, 0x5e, 0x3c,
  0x49, 0x71, 0x3e, 0x3e, 0xe1, 0xc7, 0x33, 0x3e, 0xe1, 0x24, 0x2f, 0x3d,
  0x6b, 0xc0, 0x67, 0x3e, 0xbf, 0xa5, 0xcd, 0x3d, 0x28, 0x5d, 0x3e, 0xbd,
  0x07, 0x77, 0xae, 0xbd, 0x9e, 0x16, 0x9f, 0x3e, 0xeb, 0x7a, 0xe6, 0x3d,
  0x55, 0xc3, 0x48, 0x3e, 0x06, 0x0e, 0x2f, 0xbe, 0x18, 0xb3, 0x1f, 0xbe,
  0x80, 0x5f, 0xa1, 0xbd, 0x65, 0xfb, 0x29, 0x3d, 0x13, 0x9b, 0x31, 0x3e,
  0x32, 0xca, 0x49, 0x3e, 0xaf, 0x68, 0x51, 0xbe, 0xe3, 0xb8, 0x84, 0x3e,
  0x6c, 0xe1, 0x48, 0x3e, 0x9f, 0x9a, 0x73, 0xbe, 0x75, 0x81, 0x45, 0x3e,
  0x1b, 0x3b, 0xcd, 0xbd, 0x87, 0x9a, 0xf8, 0xbd, 0xc7, 0x34, 0x0b, 0x3d,
  0xff, 0xb9, 0x49, 0x3e, 0xc7, 0x26, 0x84, 0xbe, 0xf5, 0x87, 0x27, 0xbe,
  0x14, 0xf2, 0x1a, 0xbb, 0x41, 0xe0, 0x07, 0x3e, 0x71, 0x1e, 0x69, 0x3e,
  0xea, 0x59, 0x9e, 0xbd, 0xac, 0xe6, 0xa0, 0x3e, 0xb0, 0x88, 0x81, 0x3c,
  0x2e, 0xf5, 0x56, 0x3e, 0xf0, 0x93, 0x08, 0x3e, 0x68, 0x8d, 0x55, 0xbc,
  0x88, 0x61, 0x19, 0xbe, 0xbe, 0x54, 0xf2, 0x3d, 0x0e, 0x3e, 0x9b, 0x3c,
  0xde, 0x93, 0x1d, 0xbd, 0xf8, 0xb9, 0x42, 0x3e, 0xec, 0x93, 0x93, 0xbe,
  0x7b, 0xdd, 0xd9, 0x3b, 0xed, 0xfd, 0x89, 0x3d, 0x2d, 0x54, 0x4e, 0xbe,
  0x5d, 0x2f, 0x37, 0x3e, 0x91, 0x37, 0xf1, 0xbc, 0x37, 0x8d, 0x72, 0x3e,
  0x60, 0x7c, 0x44, 0x3e, 0xd8, 0x1b, 0x27, 0xbd, 0x0d, 0x05, 0x45, 0xbd,
  0x57, 0x99, 0x46, 0x3e, 0xc9, 0x1e, 0x8f, 0xbd, 0x00, 0x90, 0x02, 0xbe,
  0xf9, 0x93, 0xa7, 0xbb, 0x04, 0x1f, 0x86, 0x3d, 0xee, 0xf2, 0xce, 0xbc,
  0x17, 0x78, 0x29, 0xbe, 0xe7, 0xbf, 0x26, 0xbe, 0x97, 0xe2, 0x4b, 0x3e,
  0xb0, 0xbf, 0xec, 0x3d, 0x0a, 0x2c, 0xcf, 0x3d, 0xa8, 0x74, 0x4b, 0x3e,
  0xf1, 0x8e, 0x32, 0xbc, 0x19, 0x98, 0x8b, 0x3d, 0x6d, 0x4f, 0x05, 0xbe,
  0x0f, 0xb0, 0xa1, 0x3e, 0xcf, 0x50, 0x2d, 0xbe, 0xe7, 0x57, 0x04, 0xbe,
  0xff, 0x75, 0xee, 0x3d, 0xce, 0x19, 0x29, 0x3e, 0xed, 0x72, 0x5b, 0x3e,
  0x85, 0x03, 0x4b, 0xbd, 0x21, 0xaa, 0x9b, 0x3e, 0x6d, 0xa8, 0xeb, 0x3d,
  0x44, 0x9e, 0x9a, 0x3d, 0x90, 0xc6, 0xea, 0x3d, 0x7b, 0xf7, 0x55, 0xbd,
  0xe3, 0x3c, 0xad, 0xbc, 0x5a, 0x5d, 0x56, 0x3e, 0x15, 0xe5, 0x86, 0x3e,
  0x37, 0xbb, 0xcb, 0x3d, 0xb5, 0xd8, 0x7f, 0xbe, 0x55, 0x7f, 0xa8, 0xbd,
  0x28, 0xa0, 0x28, 0xbd, 0x4c, 0xae, 0x87, 0xbb, 0xe0, 0xa1, 0xc7, 0xbd,
  0x53, 0xbb, 0x88, 0xbe, 0xb4, 0x24, 0x6f, 0xbd, 0x0e, 0xda, 0x1f, 0xbe,
  0x17, 0x5d, 0x97, 0x3e, 0x83, 0xbf, 0x7a, 0x3e, 0xcc, 0x65, 0xdd, 0xbc,
  0xe8, 0x85, 0xaf, 0x3d, 0xc9, 0x45, 0x99, 0xbe, 0x60, 0x25, 0x81, 0xbe,
  0xc7, 0x8d, 0x12, 0x3e, 0xc9, 0x89, 0x1a, 0xbd, 0x15, 0xed, 0x09, 0xbe,
  0x33, 0xde, 0xcc, 0x3d, 0xf8, 0x05, 0x77, 0x3d, 0xc9, 0x75, 0x1f, 0xbe,
  0xa3, 0x46, 0xe4, 0xbc, 0x1a, 0x89, 0x34, 0x3e, 0xfa, 0x50, 0x00, 0xbe,
  0x8a, 0x2d, 0x12, 0xbe, 0xe6, 0xc9, 0x35, 0x3e, 0xb9, 0x01, 0xea, 0x3d,
  0xc3, 0x04, 0x62, 0x3e, 0x2c, 0x96, 0x36, 0x3e, 0x4c, 0x2c, 0xfd, 0x3d,
  0xe5, 0x13, 0x8e, 0xbb, 0x5c, 0x48, 0x81, 0x3e, 0xa9, 0xac, 0x2d, 0xbc,
  0x58, 0xf9, 0xc3, 0xbd, 0x2b, 0x1e, 0x29, 0x3d, 0xf4, 0x81, 0x98, 0xbe,
  0xb6, 0x46, 0x35, 0x3e, 0x9f, 0x30, 0x1e, 0xbe, 0x36, 0x3c, 0x41, 0x3e,
  0x72, 0x89, 0x39, 0x3e, 0x42, 0xf3, 0x8a, 0xbe, 0x97, 0xca, 0xe0, 0xbd,
  0x42, 0x22, 0x67, 0x3e, 0x30, 0x1e, 0x3c, 0x3e, 0xf0, 0x30, 0xa4, 0x3e,
  0xc1, 0xdd, 0xe0, 0x3c, 0xe2, 0x5b, 0x8a, 0xbe, 0xde, 0x16, 0x29, 0xbd,
  0x14, 0xca, 0x5d, 0x3e, 0xf8, 0x6e, 0x52, 0x3c, 0x9c, 0xea, 0x74, 0x3b,
  0x79, 0xa5, 0xac, 0xbc, 0xb2, 0xf2, 0x8d, 0x3c, 0xcf, 0x11, 0xba, 0x3d,
  0xe7, 0xd8, 0x16, 0xbe, 0x78, 0x9b, 0x52, 0x3e, 0x27, 0xdd, 0x88, 0x3e,
  0xdd, 0x56, 0x8b, 0xbe, 0xf9, 0x46, 0xd1, 0x3b, 0x58, 0x1f, 0xeb, 0x3d,
  0x05, 0x12, 0x86, 0x3e, 0xd4, 0x66, 0x38, 0xbd, 0x71, 0x3a, 0x6d, 0x3e,
  0x3e, 0xc7, 0x07, 0x3e, 0x77, 0x0c, 0x8a, 0x3e, 0x38, 0x8c, 0xd9, 0xbd,
  0x8a, 0xf5, 0x5c, 0xbe, 0x87, 0x58, 0x9e, 0x3d, 0x69, 0x58, 0x59, 0xbe,
  0x88, 0xf1, 0x32, 0xbe, 0xb5, 0x4d, 0x50, 0x3e, 0x87, 0x90, 0xf9, 0x3d,
  0xa0, 0xbb, 0x98, 0xbe, 0xf0, 0x7b, 0x4a, 0x3c, 0x07, 0x52, 0x56, 0x3e,
  0xf2, 0xcd, 0x2a, 0x3e, 0xd3, 0xf2, 0x48, 0xbe, 0x97, 0x34, 0xd3, 0xbd,
  0x7d, 0x2e, 0x64, 0x3e, 0xd4, 0x45, 0x81, 0x3d, 0x27, 0xa3, 0x74, 0x3e,
  0xcb, 0xc2, 0x60, 0x3d, 0x4d, 0x45, 0x39, 0x3e, 0x4f, 0x6e, 0xd0, 0x3d,
  0x55, 0x53, 0x59, 0x3e, 0x59, 0xf9, 0x09, 0xbe, 0xad, 0xac, 0x7a, 0xbe,
  0x1c, 0xbe, 0xa7, 0xbe, 0x29, 0x74, 0x33, 0xbe, 0x98, 0x6b, 0x72, 0x3e,
  0xbe, 0x83, 0xb5, 0x3e, 0x2b, 0x21, 0x6f, 0x3e, 0xda, 0x46, 0x02, 0xbe,
  0x49, 0x63, 0xb1, 0xbd, 0x82, 0x74, 0x16, 0x3d, 0x8f, 0xdd, 0xf3, 0xbd,
  0x89, 0x7f, 0x33, 0x3d, 0xcb, 0xd1, 0x87, 0xbe, 0xb6, 0xf3, 0xc8, 0xbd,
  0x08, 0x0d, 0x84, 0x3d, 0x23, 0x09, 0x24, 0xbe, 0x19, 0x95, 0x84, 0x3d,
  0xe7, 0xc7, 0x25, 0x3d, 0x38, 0xf2, 0xf9, 0x3d, 0x0b, 0x04, 0x8e, 0x3e,
  0x0e, 0xbe, 0x6b, 0x3e, 0x3d, 0x5a, 0x8a, 0x3e, 0xd2, 0x92, 0xa8, 0xbd,
  0x78, 0xb1, 0xa4, 0x3e, 0xec, 0xbc, 0x85, 0x3e, 0x75, 0x23, 0x4b, 0xbe,
  0xfe, 0x54, 0x27, 0x3e, 0x6a, 0xfc, 0xd1, 0xbd, 0x5a, 0xe9, 0x0e, 0xbd,
  0x15, 0x84, 0x00, 0x3e, 0x14, 0x0d, 0x68, 0x3e, 0x0b, 0xe9, 0xfb, 0xbd,
  0x10, 0x06, 0x69, 0x3e, 0x86, 0x18, 0xdd, 0x3d, 0xba, 0x4c, 0x31, 0x3e,
  0x76, 0x20, 0x97, 0x3d, 0xb5, 0x35, 0x98, 0x3e, 0xf5, 0x80, 0xe1, 0xbd,
  0xed, 0x34, 0xaf, 0xbd, 0x42, 0xb3, 0x8b, 0xbd, 0x55, 0x1b, 0x0a, 0x3e,
  0x16, 0xd3, 0xec, 0xbd, 0x72, 0x61, 0xd3, 0xbd, 0x7e, 0x6a, 0x08, 0x3e,
  0xd7, 0x3a, 0x27, 0x3e, 0xf0, 0x8d, 0x82, 0xbe, 0x00, 0x91, 0xad, 0xbd,
  0x46, 0x2e, 0x39, 0xbe, 0x10, 0x97, 0x47, 0x3e, 0x09, 0x86, 0x95, 0xbd,
  0x18, 0xd6, 0x5f, 0x3e, 0x0d, 0x6c, 0xe8, 0x3d, 0x75, 0x97, 0x54, 0x3e,
  0xdc, 0x8d, 0x03, 0x3e, 0xb3, 0xec, 0xe3, 0xbd, 0xa9, 0xb1, 0x9c, 0xbe,
  0x65, 0x6d, 0x75, 0xbe, 0x12, 0xd7, 0x64, 0xbe, 0xcb, 0x88, 0x11, 0xbe,
  0x9c, 0x28, 0x07, 0x3d, 0x33, 0xe6, 0x2b, 0x3d, 0x58, 0xac, 0x97, 0x3e,
  0x70, 0xdf, 0x86, 0x3e, 0x77, 0x4c, 0x1b, 0xbe, 0xcf, 0x5c, 0xe9, 0xbd,
  0x31, 0x4b, 0x47, 0xbe, 0xe0, 0xa4, 0x6b, 0x3e, 0xb3, 0x00, 0x0d, 0xbe,
  0x94, 0xe9, 0xd5, 0x3d, 0xe2, 0x79, 0x81, 0x3e, 0x8d, 0x2e, 0x9b, 0xbd,
  0x56, 0xf8, 0x13, 0xbe, 0xbd, 0x9b, 0x7a, 0xbe, 0xd8, 0x82, 0x8b, 0xbc,
  0x53, 0xa3, 0x1c, 0xbe, 0x74, 0xde, 0x88, 0x3e, 0x3c, 0xe5, 0x27, 0x3e,
  0xd0, 0x3a, 0x81, 0xbe, 0xf5, 0xc7, 0xda, 0xbd, 0x74, 0x80, 0x1e, 0xbe,
  0xef, 0x22, 0x90, 0xbd, 0xd5, 0x57, 0x48, 0x3d, 0xab, 0x06, 0xbd, 0xbd,
  0xab, 0x9d, 0xbe, 0xbc, 0xe6, 0x37, 0xe2, 0x3d, 0x76, 0x6f, 0xc4, 0x3d,
  0x99, 0x2d, 0x8c, 0x3e, 0x2b, 0x33, 0x45, 0x3e, 0x31, 0x95, 0x05, 0xbe,
  0x1e, 0x03, 0xf0, 0xbd, 0xc4, 0xc4, 0x40, 0x3e, 0xec, 0x07, 0x5a, 0x3e,
  0x4e, 0x78, 0x77, 0x3e, 0x31, 0x33, 0x3d, 0xbe, 0x6f, 0xce, 0x1d, 0x3e,
  0x89, 0x49, 0x8e, 0x3d, 0xf7, 0xd5, 0x72, 0x3e, 0x58, 0x56, 0x1e, 0xbe,
  0x7a, 0xc0, 0x37, 0xbe, 0x24, 0x9a, 0x96, 0xbd, 0x8e, 0x64, 0x05, 0x3e,
  0xf7, 0x2f, 0x82, 0x3e, 0xdc, 0xc4, 0x19, 0xbe, 0xc6, 0x99, 0xe2, 0xbd,
  0x5e, 0x1c, 0xc3, 0x3c, 0xbd, 0x70, 0x51, 0x3b, 0x7a, 0x88, 0x35, 0x3e,
  0x81, 0x97, 0x5d, 0xbe, 0x0b, 0x7f, 0x48, 0x3e, 0xfa, 0x91, 0xea, 0x3d,
  0x56, 0xb2, 0xab, 0x3c, 0xcd, 0x2d, 0x8b, 0xbd, 0xae, 0x7d, 0x28, 0x3e,
  0x5a, 0xdf, 0x4a, 0xbe, 0x98, 0xea, 0x6a, 0x3e, 0x29, 0x6a, 0x54, 0x3d,
  0x76, 0x04, 0xc8, 0xbd, 0xa8, 0x45, 0xc7, 0x3c, 0x72, 0x3d, 0x11, 0x3e,
  0x08, 0xe9, 0xcf, 0x3a, 0x03, 0x84, 0x3a, 0xbe, 0xa9, 0x8e, 0x13, 0x3e,
  0x9d, 0xc0, 0x70, 0xbd, 0xd8, 0xfb, 0x9b, 0xbc, 0x33, 0xcb, 0x8c, 0x39,
  0x40, 0x7a, 0x62, 0xbd, 0x93, 0x40, 0x05, 0x3d, 0x5a, 0x28, 0x97, 0xbc,
  0x0e, 0x05, 0x44, 0xbd, 0x23, 0x1e, 0xe4, 0xbd, 0xcb, 0xbd, 0xe5, 0xbc,
  0x4c, 0x6c, 0x3c, 0xbe, 0xe0, 0x15, 0x03, 0x3d, 0x8c, 0xe9, 0x31, 0x3e,
  0xce, 0xa4, 0x22, 0xbe, 0xed, 0xcd, 0x2c, 0x3e, 0xc4, 0xd8, 0x15, 0xbe,
  0x35, 0xc0, 0x1e, 0xbe, 0x1c, 0x24, 0x82, 0x3d, 0x20, 0xff, 0xb1, 0xbc,
  0x66, 0x6a, 0xab, 0x3d, 0x3f, 0x5a, 0x9a, 0xbe, 0x3b, 0xec, 0x47, 0x3e,
  0x3f, 0x49, 0x7d, 0xbd, 0xd4, 0x2c, 0x4a, 0x3e, 0xad, 0xb9, 0x8d, 0x3c,
  0x0e, 0x00, 0x30, 0x3e, 0x4b, 0xe2, 0x1b, 0xbe, 0xf9, 0x2e, 0x8d, 0x3d,
  0x5b, 0xea, 0x51, 0xbe, 0x4e, 0xa4, 0x28, 0xbe, 0x58, 0x54, 0x0a, 0x3d,
  0x12, 0xa6, 0x80, 0xbe, 0xec, 0x40, 0xe6, 0xbd, 0x89, 0x3f, 0x16, 0xbe,
  0x8f, 0xfe, 0x43, 0x3e, 0x83, 0x56, 0x01, 0xbd, 0xa9, 0x33, 0x9f, 0x3d,
  0x6c, 0x44, 0x59, 0xbe, 0x24, 0xd3, 0x84, 0xbe, 0xef, 0x1d, 0xdb, 0x3d,
  0x1d, 0x40, 0x1e, 0x3d, 0x65, 0x3b, 0x26, 0x3e, 0x2f, 0xf8, 0xb1, 0xbd,
  0x63, 0xc3, 0x74, 0x3d, 0xb7, 0xaf, 0x1f, 0x3e, 0x65, 0xe9, 0x89, 0xbd,
  0x7c, 0x14, 0x5e, 0xbe, 0xb6, 0xcd, 0x96, 0xbc, 0x20, 0xc3, 0x18, 0xbe,
  0xf8, 0x1a, 0xca, 0xbc, 0x34, 0x99, 0x64, 0xbe, 0x11, 0x39, 0x7d, 0xbe,
  0x22, 0x5d, 0xd1, 0x3d, 0x2b, 0x43, 0x45, 0xbe, 0xda, 0x82, 0x1a, 0x3e,
  0x93, 0xfb, 0x8f, 0x3d, 0x06, 0x96, 0x09, 0x3e, 0xe8, 0x4c, 0x65, 0x3d,
  0xf9, 0x6e, 0x0d, 0xbe, 0x57, 0xed, 0xa7, 0x3b, 0x26, 0xcc, 0xaf, 0xbc,
  0x85, 0x43, 0x16, 0x3e, 0x34, 0x12, 0xac, 0xbc, 0xf5, 0xc2, 0xd2, 0xbd,
  0x4c, 0x7d, 0x2e, 0xbe, 0x33, 0x0d, 0xaa, 0x3b, 0xa8, 0xc8, 0x6a, 0xbe,
  0x16, 0xc9, 0x4e, 0x3e, 0x48, 0x96, 0x72, 0x3e, 0xf9, 0xc3, 0x3a, 0xbe,
  0xce, 0xff, 0x70, 0xbe, 0x02, 0x4b, 0xb9, 0xbc, 0x15, 0x4c, 0x1b, 0x3e,
  0x08, 0xd2, 0x3b, 0xbe, 0x93, 0xbd, 0xf9, 0xbb, 0xf9, 0x15, 0x2a, 0xbe,
  0xd9, 0x6b, 0x31, 0x3e, 0x17, 0xd7, 0x20, 0xbb, 0xa2, 0xe6, 0x23, 0xbd,
  0xe2, 0x28, 0x71, 0xbd, 0xa0, 0xf2, 0x34, 0x3e, 0xa1, 0x8f, 0x73, 0xbd,
  0x56, 0xbe, 0x9a, 0xbd, 0x3f, 0x09, 0x17, 0x3e, 0xe1, 0x28, 0x35, 0xbe,
  0x03, 0x1c, 0x45, 0xbe, 0xf2, 0x79, 0xfa, 0xbd, 0xc0, 0x1c, 0x48, 0x3e,
  0x97, 0xf9, 0x11, 0x3e, 0x2d, 0x18, 0x7c, 0x3e, 0x10, 0x6c, 0x4b, 0x3e,
  0x6a, 0x54, 0x32, 0xbc, 0xcc, 0xe0, 0x11, 0x3d, 0x31, 0xf2, 0x25, 0x3d,
  0xc2, 0x30, 0xdc, 0x3b, 0x3e, 0xee, 0x0e, 0xbe, 0xb0, 0xcd, 0x02, 0xbe,
  0xcb, 0xf4, 0x60, 0x3d, 0xb6, 0xbe, 0x08, 0xbd, 0x0a, 0xc1, 0x54, 0x3e,
  0x23, 0x4e, 0x12, 0x3e, 0xcf, 0xfe, 0x29, 0x3e, 0x8f, 0xef, 0x76, 0xbe,
  0x3f, 0xd6, 0xf5, 0x3c, 0x63, 0x48, 0xdc, 0x3d, 0xc9, 0xed, 0x15, 0x3d,
  0x5f, 0x30, 0x1c, 0xbe, 0x79, 0xa7, 0x94, 0xbd, 0x61, 0xf0, 0x22, 0x3e,
  0xe9, 0x00, 0x72, 0xbd, 0x9b, 0x02, 0x23, 0x3d, 0x82, 0x91, 0xe9, 0xbd,
  0x02, 0x5a, 0x70, 0xbb, 0x87, 0x5f, 0xb9, 0x3d, 0xdb, 0xd0, 0xc7, 0x3d,
  0x44, 0x6f, 0x91, 0x3c, 0x2d, 0x53, 0x70, 0xbd, 0x51, 0x6e, 0x09, 0x3e,
  0x09, 0xa2, 0x8b, 0xbd, 0x0e, 0x5d, 0x9f, 0x3d, 0xa8, 0x13, 0x93, 0x3d,
  0xd3, 0x30, 0xd4, 0xbd, 0x63, 0x18, 0xe8, 0x3c, 0x91, 0xa2, 0x32, 0x3e,
  0x9a, 0xff, 0x95, 0x3d, 0x44, 0x83, 0x19, 0x3e, 0x95, 0x6b, 0xae, 0x3e,
  0x25, 0xc5, 0xc1, 0xbd, 0x65, 0xb4, 0x1b, 0x3e, 0xa9, 0x9c, 0x2e, 0x3e,
  0x07, 0x40, 0x89, 0xbc, 0xa5, 0x24, 0xaa, 0x3e, 0x3a, 0xfa, 0x19, 0xbe,
  0xce, 0x60, 0xa8, 0x3d, 0x4e, 0xf4, 0x3f, 0x3b, 0xbc, 0x2c, 0x22, 0xbe,
  0x1b, 0x70, 0xd9, 0xbd, 0x48, 0xb4, 0xa3, 0x3c, 0x64, 0x32, 0x85, 0xbd,
  0x2a, 0x25, 0x3a, 0xbe, 0x1b, 0x09, 0x3c, 0xbe, 0x49, 0xdd, 0x61, 0xbe,
  0x0d, 0x35, 0x8c, 0x3d, 0x68, 0x93, 0x0e, 0x3e, 0xa0, 0x86, 0x47, 0x3e,
  0x65, 0x75, 0xad, 0x3e, 0x5f, 0x21, 0x9c, 0x3e, 0x7c, 0x2d, 0x4a, 0x3e,
  0xda, 0x6d, 0x1b, 0xbe, 0xd5, 0x1b, 0x5f, 0x3e, 0x97, 0x1f, 0x00, 0x3d,
  0x3d, 0x67, 0xc9, 0xbd, 0x30, 0x7e, 0x41, 0x3d, 0xe3, 0x07, 0x24, 0xbd,
  0x8b, 0x1a, 0x2d, 0xbe, 0x8d, 0x9c, 0x34, 0x3e, 0xa3, 0xb0, 0xce, 0xbb,
  0x7f, 0x21, 0x8e, 0x3e, 0x53, 0x1c, 0x90, 0x3d, 0xb6, 0xf5, 0xa1, 0x3e,
  0xcc, 0x55, 0xa4, 0x3e, 0xca, 0x47, 0x58, 0x3e, 0x19, 0x31, 0xcd, 0x3d,
  0x0a, 0x6f, 0x3e, 0xbe, 0x26, 0x5e, 0x85, 0xbe, 0xcf, 0x36, 0xa4, 0x3e,
  0xc4, 0x7b, 0x14, 0xbe, 0xaf, 0x23, 0x6d, 0x3e, 0xa6, 0xd3, 0xae, 0xbe,
  0x26, 0x11, 0x84, 0x3e, 0x97, 0x78, 0x1e, 0xbe, 0xef, 0x14, 0xc2, 0x3c,
  0xdf, 0xc3, 0x05, 0xbe, 0x09, 0xe4, 0x86, 0xbe, 0xfe, 0x43, 0x3d, 0x3e,
  0x80, 0xc4, 0x9c, 0x3e, 0x61, 0x43, 0x1f, 0x3e, 0x56, 0xb1, 0x4a, 0xbd,
  0x5c, 0x06, 0x10, 0xbe, 0xf3, 0x27, 0x07, 0xbd, 0x7c, 0xc3, 0xaf, 0x3e,
  0x11, 0xb2, 0x99, 0xbd, 0x64, 0x49, 0x27, 0xbd, 0x40, 0x91, 0x32, 0xbe,
  0xbe, 0xa5, 0x99, 0x3c, 0x97, 0xaf, 0x36, 0x3e, 0xb8, 0xd9, 0xe0, 0xbd,
  0xf4, 0xb5, 0xe0, 0xbc, 0x50, 0xab, 0x9a, 0xbe, 0x42, 0x3b, 0x5e, 0xbd,
  0xe7, 0x55, 0x85, 0xbd, 0xd4, 0x19, 0x58, 0x3e, 0x35, 0xed, 0x57, 0xbd,
  0xaa, 0x6d, 0x17, 0x3e, 0x1e, 0x32, 0x1d, 0x3d, 0x29, 0x15, 0x23, 0x3d,
  0xdd, 0x7e, 0x60, 0xbe, 0x81, 0x5d, 0x4f, 0x3e, 0x0a, 0x8b, 0x56, 0x3d,
  0x02, 0xb1, 0xe1, 0xbd, 0x92, 0x58, 0x8f, 0xbd, 0xdb, 0x9e, 0x9d, 0x3e,
  0x17, 0x43, 0x47, 0xbd, 0xe9, 0x7a, 0x74, 0x3e, 0xe0, 0x49, 0x5b, 0x3e,
  0xd1, 0x17, 0x50, 0xbe, 0xc3, 0x83, 0x79, 0xbe, 0xdf, 0x06, 0x3b, 0xbc,
  0xb9, 0x82, 0x6d, 0xbe, 0xbb, 0x60, 0x3a, 0x3e, 0x7d, 0xa8, 0x91, 0x3c,
  0xca, 0x4d, 0xa2, 0x3d, 0x78, 0xb8, 0x97, 0xbb, 0xed, 0x1c, 0xa5, 0xbe,
  0xb2, 0x7a, 0x41, 0xbc, 0xa3, 0x10, 0xf2, 0x3d, 0x72, 0x0a, 0xd5, 0xbd,
  0xca, 0xd0, 0x4a, 0x3e, 0x96, 0x42, 0x10, 0x3d, 0x50, 0x01, 0x2d, 0xbe,
  0x0b, 0x80, 0x07, 0x3d, 0xf9, 0x48, 0x19, 0xbd, 0x8d, 0x3e, 0xac, 0x3e,
  0xbb, 0x18, 0x6b, 0xbe, 0x7b, 0xa0, 0x25, 0x3e, 0xe6, 0xcc, 0x06, 0x3c,
  0x38, 0xd4, 0xa4, 0xbc, 0x39, 0x8d, 0x1d, 0xbe, 0x4a, 0xa1, 0x81, 0xbe,
  0x4a, 0x77, 0xb0, 0xbd, 0xe6, 0x03, 0xcc, 0x3d, 0x97, 0xf4, 0x14, 0x3e,
  0xd5, 0x09, 0xa8, 0xbc, 0x07, 0x01, 0x70, 0x3e, 0xc0, 0x01, 0x44, 0xbd,
  0x87, 0x08, 0x72, 0xbe, 0x7a, 0xeb, 0x72, 0xbe, 0x09, 0x1c, 0x33, 0xbe,
  0x00, 0xbd, 0x52, 0xbe, 0xc1, 0x22, 0x36, 0x3e, 0x18, 0x01, 0x2f, 0x3d,
  0xd4, 0xf1, 0xe3, 0xbc, 0xc3, 0x5a, 0x6f, 0x3e, 0xf6, 0x28, 0xad, 0xba,
  0x2e, 0x0e, 0x18, 0x3e, 0x73, 0xbc, 0x84, 0x3e, 0x99, 0xf6, 0x40, 0xbe,
  0xe5, 0x58, 0xfe, 0xbd, 0x45, 0x80, 0xac, 0x3d, 0x32, 0x48, 0x2b, 0x3e,
  0x06, 0x83, 0xd7, 0x3b, 0x84, 0x93, 0xb3, 0xbd, 0xc7, 0xd0, 0xd7, 0xbd,
  0xa1, 0x3f, 0x12, 0x3c, 0x2e, 0xc9, 0x92, 0x3e, 0x7a, 0x73, 0x36, 0xbe,
  0x6b, 0xd4, 0x7b, 0x3a, 0x1d, 0x14, 0x8a, 0x3e, 0x42, 0x9b, 0x41, 0xbe,
  0xbc, 0xd1, 0x14, 0x3d, 0x22, 0x09, 0x7b, 0xbe, 0x7d, 0x08, 0x0c, 0xbd,
  0xfb, 0x86, 0x9c, 0x3e, 0x74, 0x7a, 0x58, 0x3e, 0x12, 0x28, 0x48, 0x3e,
  0x79, 0xb3, 0x74, 0xbe, 0x09, 0x8b, 0x8c, 0xbe, 0x79, 0x90, 0xf0, 0xbc,
  0x32, 0xda, 0x8f, 0x3e, 0xd0, 0xb4, 0x8e, 0x3e, 0x17, 0x3e, 0xe1, 0x3d,
  0xee, 0x01, 0x3d, 0x3d, 0x1c, 0x5c, 0x12, 0xbd, 0x91, 0x9e, 0x86, 0x3e,
  0x5e, 0x1b, 0x2f, 0x3e, 0xe2, 0x75, 0x04, 0x3c, 0x24, 0x0a, 0x53, 0xbe,
  0x82, 0x11, 0x00, 0x3e, 0xd0, 0x40, 0x26, 0x3e, 0xbb, 0x25, 0xfa, 0x3d,
  0xe7, 0x38, 0x87, 0xbe, 0x70, 0x54, 0x63, 0xbe, 0xc1, 0xe9, 0x99, 0x3e,
  0x3c, 0xbd, 0x81, 0xbe, 0x5a, 0x34, 0x25, 0xbc, 0x4d, 0x26, 0x8b, 0xbc,
  0xe1, 0xf3, 0x8e, 0x3d, 0x23, 0xbe, 0xf5, 0x3d, 0x65, 0xa7, 0x14, 0x3e,
  0x3e, 0x04, 0x86, 0x3d, 0x96, 0x60, 0x00, 0x3e, 0x84, 0x91, 0x2f, 0xbe,
  0xce, 0xe4, 0xfc, 0x3d, 0xd2, 0x65, 0x78, 0x3e, 0xe8, 0xde, 0xd4, 0x3d,
  0xd9, 0xe7, 0xed, 0x3d, 0xbb, 0x74, 0x91, 0xbd, 0x3d, 0xbc, 0xa6, 0x3c,
  0x97, 0x5a, 0x28, 0x3e, 0x5b, 0x15, 0xc8, 0x3d, 0xb7, 0xc3, 0x34, 0x3d,
  0xdd, 0x4c, 0x86, 0xbd, 0xc2, 0x08, 0x00, 0x3e, 0xef, 0xb3, 0x50, 0x3e,
  0x35, 0xcf, 0x6e, 0x3e, 0x92, 0x4c, 0xc7, 0xbd, 0xf3, 0xe2, 0x27, 0x3d,
  0xbe, 0x15, 0x18, 0xbc, 0x38, 0x7e, 0x87, 0xbd, 0xe8, 0xeb, 0x26, 0x3d,
  0xed, 0x1d, 0xa1, 0xbe, 0x26, 0x89, 0x40, 0x3e, 0x1f, 0xee, 0x9c, 0xbe,
  0xa6, 0x54, 0x51, 0xbe, 0x46, 0x24, 0xd2, 0x3d, 0xcf, 0x3b, 0x80, 0xbe,
  0x83, 0xe6, 0x94, 0xbd, 0x6a, 0x01, 0xee, 0xbc, 0x9f, 0xc2, 0x33, 0xbe,
  0xcf, 0xa1, 0x38, 0x3e, 0xab, 0x35, 0x98, 0x3e, 0x4a, 0x45, 0x30, 0xbe,
  0x9e, 0x8b, 0x83, 0x3d, 0x3b, 0xed, 0x58, 0x3e, 0x1b, 0x2e, 0x6f, 0x3e,
  0x2a, 0x9f, 0x20, 0xbe, 0xf9, 0x1e, 0x41, 0x3e, 0x78, 0x84, 0x0b, 0xbe,
  0xc4, 0xc3, 0x26, 0xbe, 0x14, 0x90, 0x70, 0x3e, 0x37, 0x5b, 0x3c, 0x3d,
  0xed, 0x45, 0x4a, 0xbd, 0xb4, 0x6f, 0x68, 0x3e, 0x5a, 0xeb, 0xbe, 0xbd,
  0xe9, 0xbb, 0xf6, 0xbd, 0x22, 0xf3, 0x39, 0xbd, 0x3e, 0xd3, 0x24, 0x3e,
  0x30, 0xb4, 0xd2, 0x3d, 0x3b, 0x98, 0x33, 0x3e, 0x38, 0xd0, 0x4f, 0x3e,
  0x03, 0xdf, 0x56, 0x3e, 0x2f, 0x9c, 0x0f, 0x3d, 0xbb, 0x6f, 0x22, 0xbe,
  0x17, 0x64, 0x05, 0xbe, 0xd8, 0x17, 0x71, 0xbd, 0x3f, 0xae, 0x1c, 0x3e,
  0x54, 0xd8, 0x22, 0x3d, 0x8e, 0xd5, 0x0b, 0x3e, 0x97, 0x0b, 0xc3, 0xbd,
  0x26, 0x47, 0xc8, 0x3d, 0x65, 0xbe, 0x5a, 0x3e, 0x55, 0x8b, 0x2d, 0xbe,
  0xf8, 0xb2, 0x07, 0x3e, 0xdf, 0xd2, 0x92, 0xbd, 0x0f, 0xc2, 0x70, 0xbe,
  0x11, 0xd7, 0x81, 0x3e, 0x9e, 0x40, 0xbc, 0x3d, 0x72, 0x57, 0x6d, 0x3e,
  0xc4, 0xf7, 0x4d, 0x3e, 0x61, 0x05, 0xd4, 0xbd, 0x78, 0xa3, 0x8e, 0xbe,
  0x15, 0x81, 0x23, 0x3e, 0xff, 0x10, 0xc5, 0xbd, 0x5e, 0xcd, 0x46, 0x3e,
  0x63, 0x60, 0x38, 0xbe, 0x72, 0x29, 0x23, 0x3e, 0x20, 0x65, 0x8b, 0x3d,
  0x9c, 0x3b, 0x96, 0x3d, 0x78, 0xaa, 0x40, 0xbe, 0x45, 0x89, 0xd7, 0xbd,
  0x56, 0xf4, 0x25, 0x3e, 0xa6, 0xde, 0x70, 0x3e, 0xf0, 0xa0, 0xa0, 0x3e,
  0x1a, 0x2f, 0x37, 0x3d, 0x55, 0xf3, 0x78, 0xbd, 0x92, 0x37, 0x19, 0xbe,
  0xa9, 0x99, 0x33, 0x3e, 0x96, 0x4d, 0x8e, 0xbe, 0xf6, 0x06, 0x45, 0xbe,
  0xe8, 0xda, 0x7f, 0x3e, 0xd6, 0x03, 0xee, 0x3c, 0x6d, 0xbc, 0x9e, 0xbc,
  0x49, 0xbb, 0x1e, 0x3e, 0xec, 0xef, 0x6c, 0xbe, 0xff, 0xc9, 0x9f, 0xbe,
  0x6b, 0x32, 0xfd, 0xbd, 0x23, 0xcc, 0x85, 0xbd, 0x14, 0xb0, 0x51, 0x3d,
  0xef, 0x2b, 0x64, 0xbe, 0xea, 0xa6, 0xbb, 0x3e, 0x3e, 0x46, 0x1d, 0xbe,
  0xc3, 0xe2, 0x7d, 0x3e, 0x1e, 0xf0, 0x16, 0xbe, 0xfb, 0xad, 0x00, 0xbe,
  0x22, 0xc3, 0xf0, 0x3d, 0xd1, 0x25, 0x5f, 0xbe, 0x2d, 0xcd, 0x69, 0xbe,
  0x9b, 0x3b, 0x8b, 0xbe, 0x2b, 0x38, 0x3c, 0x3c, 0x11, 0xf8, 0x05, 0x3e,
  0x51, 0x14, 0x2a, 0xbd, 0x70, 0x70, 0x4e, 0xbd, 0xd7, 0xa8, 0xca, 0xbd,
  0x70, 0x9e, 0xc3, 0x3d, 0x9f, 0xeb, 0xc7, 0x3c, 0xb1, 0x43, 0xcd, 0xbe,
  0xa9, 0x7d, 0x5a, 0x3d, 0x75, 0x3d, 0xe6, 0xbd, 0xc4, 0xae, 0xbf, 0xbd,
  0x06, 0x9e, 0x41, 0x3e, 0xd3, 0x90, 0xfd, 0x3d, 0x74, 0x38, 0x37, 0x3d,
  0xa9, 0x1e, 0xa4, 0xbd, 0x1b, 0x57, 0xbd, 0xbc, 0x8e, 0xdb, 0x9c, 0x3c,
  0x91, 0x36, 0x8a, 0x3b, 0x25, 0x7b, 0x00, 0x3e, 0xc4, 0xe5, 0xb2, 0xbd,
  0x2a, 0xba, 0xb1, 0xbd, 0x69, 0x10, 0x05, 0x3d, 0x96, 0xb5, 0x22, 0x3e,
  0x48, 0x3c, 0x4f, 0x3e, 0xe4, 0x02, 0xee, 0x3d, 0xaf, 0x00, 0xb3, 0xbe,
  0xf0, 0x8e, 0x31, 0x3e, 0xe0, 0xe2, 0x5d, 0x3e, 0x9d, 0xf1, 0xb2, 0xbd,
  0x5b, 0x9c, 0xe3, 0x3c, 0x09, 0xfb, 0x72, 0x3e, 0x06, 0x4c, 0xd5, 0xbc,
  0x2d, 0x4d, 0x27, 0xbe, 0x6b, 0x4d, 0x58, 0xbe, 0xb6, 0xb2, 0x49, 0x3e,
  0x4d, 0xe4, 0x22, 0x3d, 0x22, 0xda, 0x36, 0xbe, 0xd6, 0xc1, 0x55, 0xbd,
  0x5a, 0xf9, 0x0c, 0x3e, 0x47, 0x2a, 0xad, 0x3d, 0xac, 0xcc, 0x34, 0x3e,
  0x41, 0x33, 0xb1, 0xbd, 0x48, 0x35, 0xb7, 0x3d, 0xe0, 0xcb, 0x37, 0x3e,
  0x42, 0xd4, 0x36, 0xbe, 0x88, 0xd4, 0x65, 0xbe, 0x99, 0x7b, 0x16, 0xbe,
  0xe2, 0xd9, 0xfa, 0xbd, 0x84, 0x38, 0x3b, 0x3e, 0x13, 0x53, 0xa8, 0x3b,
  0xf6, 0xf8, 0xca, 0xbd, 0xab, 0xe0, 0x59, 0x3e, 0xb1, 0x10, 0x12, 0x3e,
  0xbe, 0xcb, 0x19, 0x3d, 0x3f, 0xf9, 0xc7, 0x3d, 0x48, 0x66, 0xf1, 0x3d,
  0x26, 0x4d, 0x25, 0xbe, 0xec, 0xc6, 0x06, 0xbe, 0x78, 0x5b, 0x0a, 0xbe,
  0x1e, 0xbd, 0xb5, 0x3a, 0x5c, 0xd1, 0x81, 0xbe, 0xf6, 0xe9, 0x23, 0xbe,
  0x0b, 0xde, 0x88, 0xbd, 0xd0, 0xda, 0x2a, 0xbe, 0x60, 0xef, 0x77, 0xbc,
  0x49, 0x9a, 0xcd, 0x3d, 0x60, 0x1c, 0xab, 0x3e, 0x91, 0xf5, 0xaf, 0x3c,
  0x6f, 0xcf, 0x7e, 0xbd, 0xb8, 0xfd, 0x38, 0x3e, 0xf1, 0x7e, 0x29, 0x3e,
  0xea, 0x78, 0xbe, 0x3d, 0xfd, 0xa8, 0x15, 0x3e, 0xe8, 0xfb, 0x7e, 0x3e,
  0x8d, 0x94, 0x28, 0x3e, 0x49, 0x88, 0xbe, 0x3e, 0xcb, 0x46, 0x93, 0x3e,
  0x1d, 0x83, 0x88, 0xbe, 0x19, 0x7d, 0xcb, 0xbc, 0x2a, 0xed, 0x06, 0xbe,
  0x4f, 0xb7, 0x2c, 0xbe, 0x95, 0xf0, 0xa6, 0xbe, 0xa8, 0xd4, 0x5d, 0xbe,
  0xcc, 0xf6, 0x3a, 0x3e, 0x70, 0x8b, 0x42, 0xbe, 0x4d, 0x89, 0xf9, 0xbd,
  0x18, 0x60, 0x82, 0xbd, 0x2f, 0x68, 0x95, 0x3d, 0x46, 0x2d, 0x0b, 0x3e,
  0x70, 0x6f, 0x56, 0xbe, 0x5a, 0xa2, 0x68, 0x3e, 0xe0, 0x86, 0xc1, 0xbd,
  0x98, 0x29, 0xa6, 0x3d, 0xbb, 0xb7, 0xcb, 0x3d, 0x85, 0x40, 0xad, 0xbd,
  0x42, 0xc6, 0x80, 0x3e, 0xda, 0x67, 0x10, 0x3d, 0xdc, 0x8e, 0x0b, 0x3d,
  0x08, 0x99, 0x8f, 0x3e, 0xfd, 0x3b, 0x8a, 0xbe, 0x7d, 0xac, 0x03, 0xbe,
  0x7b, 0xa5, 0x9c, 0xbc, 0x48, 0x82, 0x36, 0x3c, 0x63, 0xba, 0x12, 0xbe,
  0x32, 0xe9, 0xd5, 0xbd, 0x60, 0xa5, 0x57, 0xbe, 0x43, 0x65, 0x8a, 0xbe,
  0x4b, 0x01, 0x31, 0xbe, 0x03, 0xd9, 0x1a, 0xbe, 0x11, 0x2a, 0x87, 0xbd,
  0xa4, 0x97, 0xf4, 0xbd, 0xfd, 0x23, 0x5b, 0xbd, 0x43, 0x29, 0x28, 0x3e,
  0x53, 0xa6, 0x7c, 0x3d, 0xbf, 0xb2, 0x84, 0x3d, 0x29, 0x58, 0x1d, 0x3e,
  0x6a, 0x7e, 0x8d, 0x3d, 0x2d, 0xa3, 0xa2, 0x3e, 0x7a, 0xb1, 0x2a, 0xbe,
  0xa3, 0x6c, 0x30, 0xbe, 0x45, 0xa2, 0x29, 0xbe, 0x9c, 0xcd, 0x70, 0xbe,
  0x9d, 0x23, 0x36, 0xbc, 0xe3, 0x21, 0x65, 0x3e, 0x3c, 0xe3, 0x41, 0x3e,
  0x19, 0xcf, 0x48, 0x3e, 0xaf, 0x62, 0xcc, 0xbd, 0x40, 0x4f, 0x9a, 0xbd,
  0x58, 0xfc, 0xb9, 0xbd, 0xeb, 0xb0, 0x81, 0x3e, 0x7f, 0x82, 0xa4, 0xbd,
  0x1f, 0x3e, 0x64, 0xbe, 0xb4, 0x89, 0x3c, 0xbe, 0x17, 0xa8, 0x11, 0xbe,
  0x65, 0x38, 0x7b, 0x3e, 0x9e, 0xb5, 0x31, 0xbe, 0x80, 0x2e, 0x99, 0x3c,
  0x4d, 0x66, 0x80, 0xbd, 0x73, 0xe9, 0xde, 0x3c, 0xb8, 0x89, 0x1a, 0x3d,
  0xed, 0x18, 0x2d, 0x3e, 0x4e, 0x85, 0x12, 0xbe, 0x74, 0x14, 0x27, 0x3e,
  0xbf, 0x9f, 0xf5, 0xbd, 0xd3, 0x71, 0xb7, 0xbd, 0xd5, 0x13, 0xc3, 0x3c,
  0x9b, 0x42, 0x45, 0xbe, 0xdc, 0xd3, 0x96, 0x3e, 0x75, 0xd2, 0x4b, 0x3e,
  0x4e, 0x60, 0xea, 0x3d, 0x9f, 0x21, 0x82, 0x3e, 0x85, 0x18, 0x44, 0xbe,
  0x60, 0x1d, 0x35, 0x3e, 0xc7, 0x9d, 0x9d, 0xbc, 0x1b, 0x75, 0x81, 0x3e,
  0xe5, 0x20, 0x41, 0xbe, 0xc3, 0x69, 0x90, 0x3e, 0xe6, 0xd0, 0x36, 0x3e,
  0x51, 0x7b, 0x29, 0xbe, 0x8b, 0x15, 0x63, 0x3e, 0xcd, 0x0c, 0x21, 0xbe,
  0xf2, 0xf8, 0xbc, 0xbd, 0x18, 0xf7, 0x3a, 0x3e, 0xf8, 0x47, 0x0d, 0xbe,
  0x10, 0x4b, 0x39, 0xbd, 0xa0, 0xdf, 0x4d, 0x3e, 0x17, 0xe5, 0x96, 0x3d,
  0xdf, 0x4a, 0x1c, 0x3e, 0x26, 0x61, 0x10, 0x3e, 0xa4, 0xed, 0xfc, 0x3d,
  0x3a, 0x09, 0x51, 0x3c, 0x86, 0x14, 0xa0, 0x3d, 0xbc, 0xbf, 0x96, 0x3d,
  0xa7, 0x70, 0x6a, 0x3e, 0x82, 0x9d, 0x5e, 0x3e, 0xb8, 0xf4, 0x02, 0xbe,
  0xe0, 0x32, 0x0a, 0xbe, 0xb2, 0x81, 0xf5, 0xbc, 0xf3, 0xb0, 0x1a, 0x3e,
  0xad, 0xdd, 0x07, 0xbe, 0xc6, 0x44, 0x37, 0x3e, 0x5f, 0x23, 0xab, 0x3d,
  0xc4, 0x87, 0x19, 0x3e, 0x46, 0xea, 0x4b, 0x3d, 0x54, 0x51, 0x26, 0x3e,
  0x91, 0x74, 0x3c, 0x3e, 0x8c, 0x67, 0xaa, 0xbd, 0x6f, 0xad, 0xa4, 0x3e,
  0xa2, 0x34, 0xe9, 0x3d, 0x5c, 0x05, 0x08, 0x3e, 0x18, 0xb3, 0x00, 0xbe,
  0x9d, 0xd8, 0x24, 0xbd, 0x85, 0x43, 0x2a, 0xbd, 0xef, 0x4a, 0xab, 0x3e,
  0x5f, 0xf8, 0x5a, 0x3e, 0x0a, 0x71, 0x03, 0x3d, 0x71, 0xd3, 0x95, 0x3e,
  0x01, 0x06, 0x36, 0x3e, 0x2e, 0x47, 0x98, 0x3d, 0xba, 0x0e, 0x0d, 0x3e,
  0xd6, 0xb0, 0x1e, 0xbe, 0xf3, 0x74, 0x82, 0xbe, 0xcf, 0xc5, 0xab, 0x3e,
  0xfb, 0x62, 0x80, 0x3d, 0x06, 0x1c, 0x16, 0xbd, 0x1d, 0x01, 0x84, 0x3e,
  0x98, 0x37, 0x0c, 0xbe, 0x58, 0x01, 0x50, 0x3d, 0xbd, 0x84, 0xf8, 0x3d,
  0x93, 0x35, 0x0f, 0xbd, 0x1d, 0xb8, 0x9a, 0xbc, 0x07, 0x71, 0x79, 0x3e,
  0x68, 0x9a, 0x78, 0xbd, 0xc4, 0xf2, 0x08, 0x3e, 0x85, 0xd1, 0x82, 0x3e,
  0x17, 0xcc, 0x47, 0xbe, 0xdd, 0xab, 0x05, 0xbe, 0x71, 0xeb, 0xd4, 0x3c,
  0x20, 0x16, 0x7e, 0xbe, 0x77, 0xc7, 0x06, 0x3e, 0xd6, 0xc2, 0x9b, 0xbd,
  0x53, 0xc6, 0x91, 0x3c, 0x87, 0xa5, 0xba, 0xbd, 0xe8, 0x11, 0x01, 0x3e,
  0x3c, 0xd2, 0x84, 0xbe, 0xa8, 0xcc, 0x5b, 0x3e, 0x4d, 0x3d, 0x62, 0x3e,
  0x5d, 0xef, 0x82, 0x3e, 0x77, 0x5f, 0xa8, 0x3d, 0x77, 0xa5, 0x5f, 0xbe,
  0xca, 0x86, 0xda, 0xbc, 0x44, 0x84, 0x6a, 0xbe, 0xd3, 0x9e, 0xad, 0xbd,
  0xc2, 0x90, 0x86, 0x3e, 0x90, 0x30, 0x88, 0x3e, 0x38, 0x38, 0x08, 0xbe,
  0x98, 0x10, 0xbf, 0xbd, 0x79, 0xf2, 0x60, 0x3e, 0x7b, 0x8a, 0x5b, 0x3d,
  0x3b, 0x0d, 0x06, 0xbe, 0x36, 0xc9, 0x7a, 0x3e, 0x4d, 0xd1, 0xaa, 0x3d,
  0x10, 0x42, 0xe2, 0x3b, 0x4c, 0x8d, 0x84, 0xbc, 0xa9, 0xa2, 0xe3, 0xbd,
  0x45, 0x96, 0x64, 0x3e, 0xa5, 0x0c, 0x8d, 0x3e, 0xa5, 0x57, 0x60, 0x3e,
  0x2f, 0x4a, 0xde, 0xbd, 0x7a, 0x7a, 0x74, 0x3e, 0x1e, 0x24, 0xf9, 0x3d,
  0xd5, 0xeb, 0x7e, 0xbe, 0xb9, 0x7d, 0x29, 0x3d, 0xba, 0x26, 0x30, 0xbd,
  0x42, 0xbe, 0x76, 0xbe, 0xb9, 0x87, 0x82, 0x3e, 0xd6, 0xa2, 0x6b, 0xbd,
  0x9f, 0x37, 0x71, 0x3e, 0x5d, 0x5f, 0x4e, 0xbe, 0xab, 0x96, 0x73, 0x3e,
  0x7c, 0x91, 0x96, 0xbb, 0xa0, 0xbb, 0x56, 0x3c, 0x22, 0xab, 0x43, 0xbe,
  0xb3, 0xd9, 0xca, 0xbe, 0x1c, 0xc8, 0x29, 0x3e, 0xb9, 0xec, 0x66, 0x3d,
  0x55, 0x43, 0xf0, 0xbd, 0xce, 0x81, 0x88, 0x3d, 0xf8, 0xc3, 0x56, 0xbe,
  0x3a, 0xf8, 0x04, 0xbe, 0x5b, 0x9d, 0xc7, 0xbd, 0x40, 0x4f, 0xd3, 0x3d,
  0xb6, 0x35, 0x56, 0xbe, 0xaf, 0x48, 0x87, 0xbe, 0x28, 0x5f, 0x2b, 0xbd,
  0xd7, 0xa4, 0x92, 0xbb, 0x91, 0xb0, 0x3e, 0xbd, 0x66, 0x67, 0x63, 0xbe,
  0xbb, 0xe7, 0xcd, 0xbd, 0xb7, 0x61, 0xe3, 0xbc, 0x24, 0x88, 0x47, 0xbd,
  0x48, 0x22, 0x9e, 0xbe, 0xfe, 0x21, 0x03, 0xbe, 0xa5, 0x73, 0x2d, 0x3e,
  0x3b, 0xf8, 0xa7, 0x3d, 0xe4, 0x6e, 0x1a, 0x3e, 0x8d, 0x83, 0x98, 0xbd,
  0x9b, 0x8a, 0x86, 0x3e, 0xf5, 0x31, 0xbd, 0x3d, 0xb9, 0xcd, 0x35, 0xbe,
  0xac, 0x4a, 0x5d, 0x3e, 0x86, 0xa1, 0xe7, 0xbd, 0x2e, 0x39, 0x63, 0x3e,
  0xb0, 0xef, 0x62, 0x3d, 0x45, 0x48, 0xe3, 0x3c, 0x5a, 0x0b, 0x5b, 0x3e,
  0x00, 0xfa, 0xa8, 0xbd, 0x2c, 0xbe, 0x82, 0xbe, 0xf8, 0xa8, 0x04, 0x3e,
  0x1d, 0xa0, 0x47, 0xbd, 0xaf, 0x56, 0xd7, 0xbc, 0xe1, 0x16, 0xed, 0x3c,
  0xd6, 0xed, 0x17, 0x3e, 0xca, 0xc7, 0x9d, 0x3e, 0xc0, 0xe9, 0x94, 0x3e,
  0x9e, 0xff, 0x33, 0x3e, 0x20, 0xf1, 0x8f, 0x3e, 0xcc, 0x40, 0x52, 0xbe,
  0xfc, 0x33, 0xfc, 0xbd, 0x68, 0x4d, 0x88, 0x3e, 0xc4, 0xc9, 0xe7, 0xbd,
  0xae, 0x6b, 0x23, 0x3e, 0xe1, 0xd2, 0xec, 0x3d, 0x96, 0xe6, 0x4e, 0x3d,
  0xeb, 0xf4, 0x6a, 0xbd, 0xaf, 0x09, 0x16, 0x3e, 0x01, 0x1c, 0x24, 0xbb,
  0x8f, 0x1d, 0x12, 0xbe, 0x1a, 0xa3, 0x12, 0x3e, 0xf3, 0x10, 0x1e, 0x3e,
  0x14, 0xd1, 0x0f, 0x3e, 0xfe, 0x00, 0x58, 0x3e, 0xb3, 0x6d, 0x63, 0x3e,
  0x48, 0x1e, 0x45, 0x3d, 0xde, 0x82, 0xd6, 0x3c, 0x85, 0x3c, 0x34, 0xbe,
  0x1e, 0x19, 0x13, 0xbe, 0xdf, 0xac, 0xb8, 0xbc, 0x53, 0xfe, 0x30, 0x3e,
  0x11, 0xcb, 0x14, 0x3e, 0xa4, 0x1a, 0x0e, 0x3d, 0xe8, 0x4d, 0x18, 0xbe,
  0x3f, 0x45, 0x2e, 0x3e, 0xe1, 0xa1, 0x95, 0x3e, 0x18, 0xe1, 0x56, 0x3d,
  0x1e, 0x48, 0x15, 0x3e, 0x59, 0x5a, 0x8a, 0x3d, 0xf8, 0x1a, 0xb6, 0x3d,
  0xb1, 0x53, 0x01, 0xbe, 0x50, 0x67, 0x1c, 0x3e, 0xf6, 0xe6, 0x83, 0xbe,
  0x2b, 0x48, 0xd3, 0x3c, 0x46, 0x36, 0xc4, 0x3d, 0xa4, 0x6e, 0x16, 0x3e,
  0xb2, 0xd2, 0x98, 0xbd, 0x7d, 0xb9, 0x1b, 0xbc, 0x3a, 0x60, 0x58, 0xbb,
  0xcc, 0x5b, 0x4e, 0x3d, 0x53, 0x52, 0x99, 0x3e, 0x73, 0x5f, 0xcb, 0x3d,
  0xc8, 0xc5, 0x2f, 0xbe, 0x98, 0x8e, 0x42, 0xbe, 0x5b, 0x10, 0x6c, 0x3d,
  0x2e, 0xed, 0x25, 0x3e, 0x10, 0xb5, 0x87, 0x3e, 0x10, 0xd7, 0x68, 0x3d,
  0xfd, 0xb5, 0x11, 0xbe, 0x9f, 0xf1, 0x01, 0x3d, 0xb9, 0x4f, 0x9a, 0xbd,
  0xc4, 0x49, 0x30, 0xbd, 0x46, 0x5f, 0x0a, 0xbe, 0xeb, 0x91, 0xb1, 0xbd,
  0x21, 0xea, 0x4f, 0x3e, 0xa7, 0xde, 0x9e, 0x3d, 0x1e, 0x34, 0x82, 0x3e,
  0x4e, 0x26, 0x2a, 0xbd, 0x25, 0x6e, 0x21, 0x3e, 0x58, 0x68, 0x28, 0xbe,
  0x80, 0xfa, 0x0d, 0xbe, 0xaf, 0xb1, 0x11, 0xbe, 0x82, 0x10, 0xd4, 0xba,
  0xc3, 0x21, 0xb6, 0x3c, 0xb1, 0xf2, 0x17, 0x3e, 0xd7, 0x5e, 0xc7, 0x3c,
  0x1d, 0x4f, 0x17, 0x3e, 0xd5, 0xe3, 0xc2, 0x3c, 0x0a, 0x7c, 0xa0, 0xbc,
  0x9f, 0xb2, 0x59, 0xbd, 0x69, 0xf3, 0x4d, 0x3e, 0x3e, 0x0e, 0xa2, 0x3e,
  0xeb, 0xf8, 0xba, 0x3d, 0x40, 0x75, 0x5c, 0xbd, 0x0d, 0xf9, 0x4f, 0xbe,
  0xd4, 0xfa, 0x92, 0x3c, 0xe5, 0xaa, 0x4e, 0xbe, 0x97, 0xdc, 0x60, 0x3e,
  0x30, 0xa7, 0x68, 0x3c, 0xaa, 0x76, 0xab, 0x3e, 0xc3, 0x97, 0x16, 0x3d,
  0x26, 0xc2, 0xcc, 0xbd, 0x5e, 0x92, 0x30, 0x3e, 0x3f, 0xb2, 0x9c, 0xbd,
  0xe8, 0x87, 0xef, 0x3d, 0x29, 0xfd, 0x6a, 0xbe, 0x87, 0x60, 0x33, 0xbe,
  0x71, 0x00, 0x78, 0xbe, 0xd9, 0x19, 0x08, 0x3d, 0xfa, 0xa7, 0xe9, 0xbc,
  0x3b, 0xa9, 0x36, 0xbe, 0x59, 0xf3, 0x6f, 0xbd, 0x68, 0x0b, 0x3f, 0x3e,
  0xbe, 0x22, 0x8a, 0x3d, 0x7a, 0x2e, 0xf9, 0xbd, 0x74, 0x27, 0x82, 0x3e,
  0x9d, 0x9c, 0x15, 0x3d, 0xaa, 0x5a, 0x53, 0xbe, 0xe0, 0xe3, 0xad, 0x3d,
  0xc9, 0x4f, 0xa3, 0x3d, 0x31, 0xb7, 0x1e, 0x3e, 0xd2, 0x53, 0x44, 0x3e,
  0x29, 0x6e, 0x3b, 0xbe, 0x48, 0xd9, 0xaa, 0x3d, 0x5f, 0x48, 0x1f, 0xbe,
  0xd2, 0x31, 0xd4, 0xbd, 0x2c, 0xd6, 0x00, 0xbe, 0xc0, 0x75, 0x97, 0x3e,
  0x18, 0xc8, 0x2f, 0xbe, 0x04, 0xf3, 0x0b, 0x3e, 0x6c, 0xdd, 0x16, 0xbd,
  0x2d, 0x8c, 0xb6, 0x3e, 0x34, 0x85, 0x24, 0xbe, 0xf8, 0x03, 0x5b, 0xbe,
  0x17, 0x09, 0x23, 0x3e, 0x43, 0x8a, 0xb9, 0x3e, 0x6a, 0x92, 0x11, 0x3b,
  0x07, 0x45, 0xc8, 0xbd, 0xf9, 0xb1, 0x06, 0x3d, 0x18, 0x4d, 0x42, 0x3e,
  0xa5, 0x42, 0x5d, 0xbe, 0xb4, 0xbb, 0x58, 0x3e, 0xa8, 0xf0, 0x3e, 0x3e,
  0xef, 0x4c, 0xa1, 0x3e, 0x20, 0xc1, 0x6a, 0xbc, 0xc7, 0x11, 0xfd, 0xbc,
  0xab, 0x79, 0x82, 0xbd, 0xb1, 0xfa, 0x6f, 0x3e, 0x33, 0xe6, 0x69, 0x3e,
  0x67, 0x62, 0x78, 0x3d, 0x44, 0x73, 0x21, 0x3e, 0x53, 0x82, 0x97, 0xbe,
  0xd9, 0x52, 0xa1, 0x3d, 0xe6, 0xd7, 0x44, 0xbe, 0x4c, 0x97, 0x16, 0xbe,
  0x68, 0x5d, 0x70, 0xbe, 0x06, 0xdb, 0x09, 0xbe, 0xf9, 0x70, 0x84, 0xbd,
  0x99, 0x32, 0x1f, 0x3e, 0xd9, 0x27, 0xc3, 0x3e, 0x2a, 0xda, 0xec, 0xbd,
  0x9a, 0x89, 0xe1, 0xbd, 0x4e, 0x41, 0x81, 0x3d, 0x74, 0x4b, 0xd3, 0x3d,
  0x3a, 0x3f, 0xfd, 0xbd, 0x7b, 0xf4, 0x51, 0xbe, 0x98, 0xfa, 0x5c, 0x3e,
  0x05, 0x87, 0x23, 0x3d, 0x15, 0x57, 0x17, 0xbc, 0x34, 0xba, 0x40, 0xbe,
  0x4a, 0xfe, 0x17, 0x3d, 0x11, 0x68, 0x06, 0xbe, 0x85, 0xed, 0x64, 0xbe,
  0xb2, 0x56, 0x81, 0x3e, 0xcc, 0x67, 0x53, 0xbe, 0x37, 0x9b, 0x23, 0x3e,
  0x6d, 0xa7, 0x62, 0x3e, 0x8b, 0x55, 0xdc, 0xbd, 0x3a, 0x93, 0x8c, 0x3e,
  0xe3, 0x5b, 0x4f, 0xbe, 0x40, 0x41, 0x91, 0x3d, 0x39, 0xc2, 0x79, 0x3e,
  0x1f, 0xc6, 0xc1, 0x3d, 0xaf, 0x0a, 0xa2, 0x3e, 0xec, 0x69, 0xad, 0x3b,
  0x5e, 0x22, 0xf5, 0x3d, 0xc0, 0xa5, 0x90, 0x3d, 0xe6, 0x69, 0x3f, 0x3e,
  0x77, 0x9f, 0x71, 0xbe, 0xfc, 0xbb, 0x84, 0x3d, 0x1f, 0x3f, 0x18, 0x3e,
  0x34, 0x07, 0xfe, 0xbd, 0x86, 0xc7, 0xfd, 0x3d, 0xc5, 0x81, 0x67, 0x3e,
  0xfd, 0x33, 0x3b, 0xbe, 0xca, 0x96, 0x25, 0x3d, 0x41, 0xc0, 0xb9, 0xbd,
  0xce, 0x86, 0x85, 0xbe, 0x90, 0x92, 0xbb, 0x3a, 0xcf, 0x45, 0x25, 0xbe,
  0x7b, 0x75, 0x5e, 0xbe, 0x0f, 0x2d, 0x53, 0xbe, 0x14, 0xef, 0xe4, 0xbd,
  0x7d, 0x76, 0x41, 0xbe, 0x90, 0x90, 0x4d, 0x3e, 0x7f, 0x6c, 0x44, 0xbd,
  0x1a, 0x49, 0xf6, 0x3c, 0xca, 0xfe, 0x80, 0xbe, 0xdc, 0xe7, 0xab, 0x3d,
  0xdc, 0xa6, 0xed, 0xbd, 0xc8, 0xf6, 0x3e, 0x3c, 0x72, 0xfb, 0xf0, 0xbd,
  0x86, 0x04, 0x68, 0x3d, 0x59, 0xda, 0x4f, 0x3d, 0xbb, 0x27, 0x87, 0x3c,
  0x90, 0x77, 0x82, 0x3e, 0x43, 0x82, 0x6e, 0x3e, 0x71, 0x08, 0x0e, 0x3e,
  0x44, 0x15, 0xa4, 0x3d, 0x1f, 0xfc, 0x3f, 0xbc, 0xe7, 0xeb, 0x7d, 0x3e,
  0x2a, 0x64, 0xce, 0x3d, 0xd6, 0x15, 0xc4, 0x3d, 0x0e, 0x8d, 0x48, 0xbe,
  0xd1, 0xc7, 0xd8, 0xbd, 0x48, 0xee, 0xf4, 0xbd, 0xb7, 0x8c, 0x53, 0xbe,
  0xcf, 0x7b, 0x15, 0x3e, 0x86, 0xa8, 0x58, 0x3e, 0x72, 0x10, 0xc5, 0xbd,
  0x67, 0x33, 0xbb, 0xbd, 0x12, 0xf6, 0xa9, 0xbd, 0x38, 0x9e, 0x11, 0xbc,
  0xdf, 0x22, 0x2e, 0x3e, 0x32, 0x99, 0x03, 0xbe, 0x70, 0x58, 0x83, 0xbe,
  0x71, 0x01, 0x32, 0xbe, 0x7e, 0xed, 0x87, 0xbd, 0x10, 0x3a, 0x96, 0x3d,
  0x32, 0x03, 0x47, 0x3e, 0x4c, 0x6d, 0x08, 0x3e, 0xca, 0x4c, 0xa7, 0x3e,
  0xb0, 0x53, 0xf0, 0xbd, 0x25, 0x8d, 0x73, 0xbd, 0x13, 0x0b, 0xa2, 0x3d,
  0xd7, 0xb1, 0x67, 0x3e, 0x61, 0x7e, 0x67, 0xbe, 0x66, 0xcc, 0xe4, 0x3c,
  0x65, 0x12, 0x14, 0x3e, 0x38, 0xd5, 0x20, 0x3e, 0xe0, 0xf7, 0x8e, 0xbe,
  0xc2, 0x4c, 0xe4, 0xbd, 0x4b, 0x54, 0x90, 0xbd, 0xc9, 0xba, 0x26, 0x3e,
  0x0d, 0x8e, 0xdf, 0xbd, 0x95, 0x5e, 0x7e, 0xbe, 0x83, 0xc1, 0x83, 0x3e,
  0xc3, 0x1c, 0x3a, 0x3e, 0x22, 0xac, 0x9f, 0x3e, 0xed, 0x8c, 0xbb, 0x3e,
  0x99, 0x1f, 0x90, 0xbe, 0x16, 0xbe, 0xfa, 0xbc, 0xfd, 0xa5, 0x08, 0x3d,
  0x2a, 0x9d, 0x4a, 0x3e, 0xec, 0xab, 0x23, 0x3d, 0x3b, 0x30, 0x1b, 0xbe,
  0x6b, 0xf2, 0x96, 0xbd, 0xe6, 0x5e, 0x9d, 0xbe, 0x84, 0x25, 0xb4, 0x3c,
  0xc8, 0x65, 0x79, 0x3e, 0x15, 0x95, 0x49, 0xbd, 0xc2, 0x30, 0xa8, 0x3e,
  0x92, 0xa6, 0xdb, 0x3b, 0x9e, 0x2f, 0xe5, 0xbd, 0x99, 0xf4, 0x58, 0x3e,
  0xb0, 0x5f, 0x7c, 0x3e, 0x2c, 0xf9, 0xc4, 0x3d, 0x1f, 0x74, 0x74, 0x3e,
  0x84, 0x82, 0x94, 0xbd, 0xc1, 0x6e, 0x4c, 0x3e, 0x8a, 0xa4, 0x35, 0x3e,
  0x02, 0x00, 0xf9, 0x3c, 0xf7, 0x8f, 0x61, 0x3e, 0x73, 0x1a, 0xc0, 0x3e,
  0x3a, 0x86, 0x94, 0xbd, 0xf0, 0x14, 0x9e, 0x3d, 0x08, 0xde, 0x98, 0x3e,
  0x5e, 0xfc, 0xf0, 0xbd, 0xd5, 0x1e, 0xe3, 0xbd, 0xcb, 0x75, 0xaa, 0x3e,
  0x55, 0x6b, 0xb1, 0x3d, 0x67, 0x75, 0x2c, 0xbe, 0xea, 0xcc, 0xe7, 0x3d,
  0x94, 0xfb, 0x82, 0x3e, 0x3a, 0xfe, 0xd1, 0xbd, 0xf4, 0x62, 0xc2, 0x3e,
  0x22, 0xfc, 0x97, 0x3e, 0x8d, 0x5e, 0x42, 0xbe, 0x0a, 0x36, 0x0c, 0xbb,
  0x25, 0xc3, 0x88, 0xbd, 0x79, 0x30, 0xdf, 0xbd, 0x98, 0x30, 0xe1, 0x3d,
  0x0a, 0xaa, 0x90, 0x3e, 0x7f, 0x54, 0x87, 0x3d, 0xe1, 0x3f, 0x9d, 0x3e,
  0xbc, 0x24, 0x90, 0x3e, 0x01, 0xab, 0xbd, 0x3d, 0xc0, 0xcc, 0x9c, 0xbe,
  0xca, 0xb5, 0xe5, 0x3b, 0x57, 0xd7, 0x39, 0x3e, 0x52, 0x42, 0xd0, 0xbc,
  0x22, 0x1c, 0x9b, 0x3d, 0xca, 0x2d, 0x30, 0x3e, 0x6e, 0x54, 0xea, 0x3d,
  0x24, 0xda, 0x42, 0x3e, 0xbd, 0x9e, 0x98, 0xbd, 0x35, 0x46, 0xdf, 0xbc,
  0x18, 0xe5, 0x51, 0xbe, 0xb1, 0x11, 0x85, 0x3e, 0x4c, 0x7f, 0xee, 0x3c,
  0xa3, 0xe1, 0x2e, 0xbe, 0x2b, 0xe0, 0xc0, 0x3d, 0x9e, 0xc7, 0x0b, 0xbe,
  0x7a, 0xed, 0x66, 0xbe, 0x04, 0xea, 0x36, 0xbe, 0xab, 0x66, 0x91, 0xbd,
  0xd6, 0x6b, 0x83, 0x3d, 0x92, 0xbf, 0x9f, 0xbd, 0x3f, 0x78, 0xf6, 0x3c,
  0x7e, 0xfa, 0x36, 0x3e, 0xdf, 0xec, 0x8e, 0x3e, 0x89, 0x56, 0x6e, 0x3e,
  0x6a, 0x0c, 0x60, 0x3e, 0xd5, 0x7d, 0x0a, 0xbe, 0x19, 0xed, 0x0b, 0x3e,
  0x61, 0x9d, 0x58, 0xbe, 0xbf, 0xeb, 0xb2, 0xbc, 0x39, 0x09, 0x60, 0x3d,
  0x37, 0x64, 0x53, 0xbe, 0x41, 0x95, 0xdd, 0xbd, 0xde, 0xca, 0x77, 0xbd,
  0xa5, 0xa7, 0xc1, 0x3d, 0x8b, 0x4f, 0x8f, 0x3d, 0xfe, 0x85, 0xba, 0x3d,
  0x73, 0xd3, 0x0b, 0x3e, 0x66, 0x9d, 0x7d, 0x3d, 0xfd, 0x13, 0xae, 0xbd,
  0xb8, 0xeb, 0x8e, 0xbd, 0xde, 0xf4, 0x0c, 0xbe, 0x3c, 0xb6, 0x0c, 0x3e,
  0x66, 0xd4, 0xdc, 0x3d, 0x4f, 0x09, 0x49, 0x3b, 0x91, 0x7b, 0x5e, 0xbe,
  0xac, 0xb5, 0x69, 0x3e, 0xd7, 0xdd, 0x4f, 0x3e, 0x45, 0x7c, 0xad, 0xbe,
  0xcc, 0x46, 0x15, 0x3e, 0x72, 0x0b, 0x42, 0x3e, 0x35, 0x36, 0xbf, 0x3e,
  0x78, 0x78, 0xdd, 0xbe, 0x39, 0xd2, 0x80, 0x3e, 0xfa, 0x2d, 0xad, 0x3e,
  0x4e, 0x24, 0x3e, 0x3c, 0x78, 0x34, 0x31, 0x3e, 0x56, 0x54, 0xdd, 0x3d,
  0x84, 0x48, 0x5e, 0xbe, 0x35, 0xa3, 0x89, 0x3e, 0xe4, 0x68, 0x53, 0x3e,
  0xef, 0xf1, 0x00, 0x3e, 0xcb, 0x3f, 0x59, 0xbe, 0x55, 0xcd, 0x1c, 0xbe,
  0x0d, 0xb9, 0x8e, 0xbe, 0x4b, 0x81, 0x8e, 0xbe, 0x3a, 0x33, 0x1f, 0x3d,
  0x7b, 0x60, 0x97, 0xbd, 0xb3, 0x2f, 0x55, 0x3d, 0x9c, 0x82, 0x41, 0x3e,
  0xd1, 0x7d, 0x98, 0xbe, 0xab, 0x87, 0x1a, 0x3e, 0xb6, 0xa0, 0xd2, 0x3d,
  0x2b, 0xae, 0x20, 0x3e, 0xd0, 0x5a, 0x8a, 0xbc, 0x90, 0x5f, 0x17, 0x3e,
  0xeb, 0x3c, 0xe1, 0x3d, 0x16, 0x9c, 0x1f, 0xbe, 0x95, 0x24, 0x16, 0xbe,
  0xf1, 0x7c, 0xb4, 0xbd, 0xf2, 0x8a, 0x00, 0x3e, 0xb7, 0x79, 0xea, 0x3b,
  0x06, 0xd8, 0xb8, 0x3d, 0xcd, 0xbc, 0x3a, 0x3e, 0x40, 0x1c, 0x57, 0x3e,
  0x79, 0x4d, 0x43, 0x3e, 0x1b, 0xcf, 0xc9, 0x3b, 0x6b, 0x97, 0x01, 0x3e,
  0x79, 0xd7, 0x28, 0x3c, 0x14, 0xc9, 0x86, 0xbe, 0x83, 0x5d, 0x06, 0x3d,
  0xf9, 0xab, 0xf6, 0x3c, 0x3b, 0xdf, 0x6c, 0xbe, 0xb4, 0x3e, 0x9a, 0x3e,
  0xba, 0x88, 0x67, 0xbe, 0x88, 0xb2, 0x03, 0xbe, 0x03, 0x02, 0x55, 0x3e,
  0x7e, 0x6f, 0x1a, 0xbe, 0x2e, 0x34, 0x14, 0x3e, 0xac, 0x86, 0x9a, 0x3d,
  0x79, 0xa4, 0x43, 0x3e, 0x28, 0x04, 0x8c, 0x3e, 0xf3, 0x55, 0xa9, 0xbe,
  0xf4, 0x43, 0x25, 0xbe, 0x53, 0x15, 0x86, 0xbe, 0xa4, 0x0d, 0x9a, 0xbe,
  0x2c, 0x7f, 0xd3, 0xbd, 0x09, 0xa8, 0x98, 0xbd, 0x7c, 0x3b, 0xcc, 0xbd,
  0x9b, 0x5c, 0x79, 0xbe, 0x77, 0xae, 0xba, 0x3d, 0xa4, 0xc1, 0x02, 0xbd,
  0x35, 0x0f, 0x9d, 0x3e, 0x2d, 0xc8, 0xb4, 0x3d, 0x37, 0x61, 0xee, 0x3d,
  0xc3, 0x62, 0x7c, 0x3d, 0x07, 0xaa, 0x99, 0xbd, 0x4c, 0x85, 0xf8, 0x3d,
  0x21, 0x03, 0x25, 0x3e, 0x16, 0x0d, 0x36, 0x3e, 0xda, 0xb8, 0x82, 0xbe,
  0xfa, 0x98, 0x44, 0xbe, 0x9f, 0x30, 0x43, 0x3e, 0x3a, 0xd1, 0x34, 0x3e,
  0xad, 0xbc, 0x0a, 0xbe, 0x26, 0xd9, 0xb8, 0x3e, 0xd5, 0x7a, 0x82, 0xbd,
  0x4c, 0x2c, 0xfc, 0x3d, 0xed, 0x39, 0x72, 0x3e, 0x53, 0x41, 0x34, 0xbe,
  0xd8, 0xb1, 0xac, 0x3e, 0xc8, 0x56, 0x48, 0x3e, 0xd6, 0x26, 0x06, 0x3e,
  0xb1, 0x33, 0x8a, 0x3e, 0x45, 0x34, 0x2f, 0x3e, 0x58, 0xd9, 0x6d, 0xbe,
  0x45, 0xd3, 0x4e, 0x3e, 0x50, 0x73, 0x45, 0x3e, 0xfa, 0x25, 0xcb, 0x3c,
  0x3e, 0x8e, 0xb4, 0xbc, 0xb5, 0x82, 0x03, 0xbe, 0xcd, 0x33, 0x97, 0x3e,
  0xb7, 0x87, 0x83, 0x3e, 0x21, 0x56, 0x42, 0x3d, 0x6d, 0xda, 0x9a, 0x3e,
  0x88, 0x75, 0x69, 0xbd, 0x40, 0x6b, 0xde, 0xbd, 0x87, 0xda, 0x3e, 0xbe,
  0x0b, 0xd2, 0xc1, 0xbb, 0x71, 0x8e, 0x23, 0xbe, 0x46, 0x08, 0xba, 0x3c,
  0xb5, 0xb4, 0x82, 0x3e, 0xbd, 0x3a, 0x2d, 0xbe, 0x95, 0xdd, 0xc7, 0xbd,
  0x22, 0xab, 0x80, 0x3e, 0x2d, 0x81, 0x06, 0x3d, 0x8c, 0xad, 0x6e, 0x3e,
  0xb2, 0x3d, 0xcc, 0xbd, 0xf1, 0x73, 0x84, 0x3d, 0x9b, 0xc6, 0x90, 0xbd,
  0xc2, 0x9e, 0x09, 0x3e, 0x1b, 0x52, 0xf5, 0xbd, 0x5e, 0x2e, 0x73, 0x3e,
  0xe2, 0x21, 0xd1, 0xbd, 0x81, 0x14, 0x01, 0xbe, 0x12, 0x54, 0x4e, 0x3e,
  0x60, 0x18, 0x05, 0xbe, 0x5f, 0x47, 0x65, 0x3e, 0x51, 0x3a, 0xea, 0xbc,
  0xd1, 0x05, 0x9b, 0x3e, 0x50, 0xc4, 0x0e, 0x3e, 0x56, 0x84, 0xdf, 0xbc,
  0xa9, 0xc1, 0x18, 0x3e, 0x7a, 0xa1, 0x32, 0x3e, 0x45, 0xd5, 0x6d, 0x3e,
  0x07, 0x3e, 0xd7, 0x3d, 0x93, 0xb6, 0x02, 0x3e, 0xe0, 0xca, 0x98, 0xbd,
  0x12, 0x37, 0x6d, 0x3e, 0x9f, 0x4f, 0xaa, 0xbe, 0x7b, 0xf8, 0x7d, 0x3e,
  0xbf, 0xf6, 0xb7, 0x3e, 0xa8, 0xbe, 0x59, 0xbe, 0xa0, 0x6a, 0x82, 0x3c,
  0x2c, 0x20, 0x16, 0x3e, 0xcc, 0xed, 0xe1, 0xbd, 0x41, 0x41, 0x2e, 0x3d,
  0xf9, 0xee, 0x40, 0x3c, 0x50, 0x4a, 0xd3, 0xbd, 0xeb, 0xdc, 0x40, 0xbe,
  0x3d, 0x9c, 0x22, 0x3e, 0x67, 0x20, 0x90, 0xbb, 0x8d, 0xf0, 0xcc, 0xbd,
  0x20, 0x6c, 0xd1, 0x3d, 0xdf, 0x29, 0xf5, 0x3d, 0x5d, 0x00, 0x24, 0x3e,
  0x1e, 0x83, 0x96, 0xbd, 0xab, 0x52, 0x49, 0x3e, 0xf7, 0x83, 0x86, 0x3e,
  0xe9, 0x93, 0x4d, 0xbe, 0xba, 0x49, 0x9e, 0x3e, 0xef, 0x95, 0x4c, 0xbe,
  0xd6, 0x42, 0x2d, 0xbe, 0x79, 0xfa, 0x3e, 0x3e, 0x95, 0xe4, 0xdb, 0x3d,
  0xb9, 0xba, 0x50, 0xbe, 0x1d, 0x74, 0x2f, 0xbe, 0x6d, 0xd6, 0xff, 0xbd,
  0x0b, 0xf2, 0x3d, 0xbe, 0x37, 0x4b, 0x0e, 0x3e, 0x12, 0x3d, 0x58, 0x3e,
  0xa1, 0x7f, 0x3d, 0x3e, 0x94, 0x2b, 0xdb, 0xbd, 0xc9, 0x2a, 0x0d, 0x3e,
  0x20, 0xd9, 0xa5, 0xbd, 0x34, 0x08, 0x77, 0x3e, 0x00, 0x0e, 0x07, 0x3c,
  0x64, 0x6d, 0x87, 0x3e, 0x31, 0x59, 0x91, 0xbd, 0xa2, 0x6c, 0xcc, 0xbd,
  0x54, 0xb2, 0xb3, 0x3e, 0x37, 0x6c, 0x73, 0x3e, 0x2d, 0xa8, 0x8a, 0x3e,
  0x14, 0xdb, 0xeb, 0x3b, 0x9f, 0xa7, 0x2b, 0xbe, 0xed, 0x49, 0x86, 0x3d,
  0xac, 0x5f, 0xc6, 0xbd, 0x14, 0xa2, 0xaf, 0x3e, 0x45, 0x02, 0xc9, 0x3d,
  0x60, 0x40, 0x01, 0x3e, 0x78, 0x00, 0x16, 0xbd, 0x09, 0x5a, 0x61, 0x3d,
  0xaa, 0x59, 0x9b, 0xbd, 0xf4, 0x0c, 0x5d, 0x3e, 0x73, 0x04, 0x8a, 0x3d,
  0xfe, 0x85, 0xbd, 0xbd, 0xbe, 0x77, 0x68, 0x3c, 0x4b, 0x21, 0x91, 0x3d,
  0xc3, 0x44, 0x82, 0xbe, 0xf7, 0x4c, 0xdb, 0xbd, 0x4c, 0xac, 0x38, 0xbe,
  0x3e, 0xe0, 0x9a, 0xbb, 0x29, 0xbd, 0x95, 0xbd, 0x30, 0x22, 0x98, 0x3e,
  0xff, 0xff, 0x0d, 0xbf, 0xf0, 0x59, 0xb1, 0x3d, 0xf0, 0x64, 0x8b, 0x3e,
  0x87, 0x1a, 0x9b, 0x3d, 0x58, 0x32, 0x76, 0xbe, 0xc6, 0xff, 0x99, 0xbc,
  0x95, 0x4b, 0xd6, 0xbd, 0xe2, 0x50, 0x6e, 0x3e, 0x86, 0x8d, 0x49, 0x3e,
  0x79, 0x63, 0x8d, 0x3e, 0x37, 0x09, 0x00, 0xbf, 0xcc, 0x8e, 0x42, 0x3e,
  0x1d, 0x43, 0xd4, 0x3c, 0xa2, 0x42, 0x93, 0xbc, 0xaa, 0xee, 0x27, 0x3e,
  0x06, 0x2d, 0x43, 0x3e, 0x4f, 0x13, 0x25, 0x3c, 0x60, 0x30, 0xbe, 0xbc,
  0x55, 0x56, 0x4e, 0xbe, 0x3a, 0xb4, 0xa7, 0x3e, 0x47, 0x79, 0x75, 0xbe,
  0xdc, 0xf6, 0xae, 0xbd, 0xce, 0x93, 0x76, 0x3e, 0xf8, 0x87, 0x87, 0x3e,
  0x3e, 0xa4, 0xf7, 0xbd, 0xeb, 0x4d, 0x21, 0x3e, 0x4e, 0xe3, 0x42, 0xbe,
  0x0c, 0x68, 0x20, 0x3e, 0xf6, 0x33, 0x35, 0xbc, 0x92, 0x0a, 0xbb, 0xbd,
  0xda, 0x42, 0x3e, 0x3e, 0x1e, 0x6a, 0xf1, 0xbd, 0xde, 0x0c, 0x28, 0x3e,
  0x4f, 0x1c, 0x9f, 0xbd, 0x4a, 0xfb, 0x5b, 0x3c, 0xc8, 0x20, 0xa4, 0xbe,
  0x27, 0x68, 0x44, 0x3e, 0x03, 0x0b, 0x2f, 0xbe, 0xd7, 0xcb, 0x4d, 0xbe,
  0x0a, 0x34, 0xf7, 0x3d, 0x77, 0xfb, 0xd3, 0x3d, 0x99, 0x7b, 0x9d, 0xbd,
  0x25, 0xf9, 0xe4, 0x3d, 0x41, 0x7e, 0x4b, 0x3e, 0x75, 0x24, 0xdf, 0xbc,
  0x8b, 0x53, 0xd8, 0xbd, 0x9e, 0x66, 0x7f, 0xbb, 0xc5, 0x23, 0x8c, 0xbe,
  0xce, 0xd1, 0x5c, 0x3d, 0x1c, 0x1c, 0x89, 0x3e, 0x8d, 0xe9, 0x92, 0xbe,
  0x71, 0x1d, 0xc2, 0xbc, 0xe0, 0xbc, 0x23, 0x3e, 0x73, 0x9d, 0x92, 0x3e,
  0xfd, 0x7a, 0x18, 0x3d, 0xf2, 0x9c, 0xa3, 0x3d, 0xd8, 0x6c, 0xd6, 0xbd,
  0xc7, 0xad, 0xab, 0x3d, 0x7e, 0x96, 0x4f, 0x3e, 0x9c, 0x20, 0x3b, 0x3c,
  0x98, 0xc0, 0x1a, 0x3d, 0x2c, 0x9d, 0x01, 0xbd, 0xa9, 0xfc, 0x53, 0xbd,
  0x16, 0x9b, 0x20, 0x3e, 0x99, 0x34, 0x62, 0x3e, 0xb2, 0xf2, 0x08, 0x3e,
  0x10, 0x26, 0xd5, 0xbd, 0xc4, 0x16, 0x85, 0xbe, 0x94, 0x93, 0x99, 0x3d,
  0x29, 0x0f, 0x87, 0x3e, 0x47, 0xc8, 0xc7, 0x3e, 0x25, 0x66, 0x88, 0x3e,
  0x69, 0x39, 0xc3, 0x3e, 0x19, 0x35, 0x0d, 0xbc, 0x82, 0x1e, 0x8a, 0xbc,
  0xed, 0xe1, 0xa3, 0xbe, 0x39, 0xad, 0xaf, 0xbe, 0x0f, 0xce, 0x11, 0xbe,
  0x9c, 0x60, 0x95, 0x3e, 0xd9, 0xbf, 0x96, 0x3e, 0x41, 0x80, 0x11, 0x3d,
  0xc6, 0x54, 0x65, 0xbe, 0x3e, 0x93, 0x75, 0xbd, 0x56, 0x5f, 0x99, 0x3d,
  0xd0, 0x21, 0x7d, 0x3d, 0x0b, 0x6f, 0x9b, 0x3e, 0x07, 0x0a, 0x2d, 0xbf,
  0x75, 0xe8, 0x33, 0xbe, 0x0a, 0x0f, 0x3d, 0xbe, 0x8a, 0x17, 0x3a, 0x3e,
  0xb2, 0x26, 0x32, 0xbe, 0x0e, 0x33, 0x25, 0xbd, 0x45, 0x06, 0x6f, 0x3e,
  0x9a, 0xb2, 0x90, 0xbd, 0xb4, 0x86, 0xa3, 0xbd, 0x61, 0x13, 0xcf, 0xbc,
  0x04, 0x97, 0x41, 0xbe, 0x7e, 0x90, 0x61, 0xbd, 0x90, 0x71, 0x81, 0x3e,
  0xaa, 0x97, 0xc5, 0x3c, 0x66, 0xff, 0x9c, 0x3e, 0xc0, 0xaa, 0x1b, 0xbe,
  0xc1, 0xe9, 0x2d, 0xbc, 0x29, 0xda, 0x04, 0xbe, 0xbd, 0xb8, 0xaa, 0xbe,
  0x89, 0x18, 0x01, 0x3e, 0x6a, 0x23, 0x59, 0x3d, 0xf8, 0x29, 0xab, 0x3d,
  0x5a, 0x2e, 0xee, 0xbd, 0x66, 0x1e, 0x6b, 0xbe, 0x2d, 0x14, 0xb5, 0x3d,
  0xc4, 0xa7, 0x15, 0xbe, 0xb3, 0x68, 0x61, 0x3e, 0xdc, 0x54, 0x9b, 0x3c,
  0x5a, 0x90, 0x88, 0xbd, 0x0f, 0x5c, 0x84, 0xbe, 0x1a, 0x48, 0xcb, 0xbe,
  0x59, 0x0c, 0xbc, 0xbe, 0x8d, 0x6a, 0x97, 0xbd, 0x41, 0x09, 0xb9, 0x3d,
  0xe3, 0x29, 0xdd, 0x3d, 0x26, 0x9b, 0x70, 0xbe, 0x47, 0xdf, 0x0d, 0x3d,
  0xe7, 0x68, 0x42, 0x3e, 0xe4, 0xe3, 0x24, 0xbc, 0x91, 0x7f, 0x49, 0xbe,
  0xd8, 0x3d, 0x8a, 0x3d, 0x21, 0x79, 0x12, 0x3c, 0x0b, 0xac, 0x58, 0x3e,
  0x1b, 0xef, 0x1a, 0x3d, 0xa9, 0x6d, 0x09, 0x3d, 0x0b, 0x68, 0xa8, 0xbd,
  0xc6, 0x2a, 0x6f, 0x3e, 0x6f, 0x0d, 0x89, 0x3e, 0x32, 0x9a, 0x78, 0x3e,
  0x1c, 0x7c, 0xd3, 0x3d, 0xe3, 0x01, 0x16, 0xbd, 0xac, 0x84, 0x84, 0x3d,
  0xc0, 0x47, 0x14, 0xbd, 0xd8, 0xe1, 0x52, 0x3e, 0x4c, 0xec, 0x85, 0xbc,
  0xec, 0x26, 0x3e, 0x3d, 0x0e, 0x6f, 0x27, 0xbe, 0x17, 0xc0, 0x49, 0xbd,
  0x7d, 0x4e, 0x9f, 0xbe, 0xa0, 0x81, 0x03, 0xbe, 0x1b, 0x3e, 0x7e, 0x3d,
  0x72, 0x5b, 0x6a, 0xbe, 0xf0, 0x4e, 0xbc, 0x3d, 0xff, 0x61, 0x2f, 0xbb,
  0x32, 0x74, 0xbd, 0x3d, 0xb1, 0xa3, 0xe4, 0x3d, 0xa0, 0xe8, 0xaf, 0x3e,
  0x53, 0x75, 0x8f, 0x3d, 0x49, 0x6f, 0xd6, 0x3d, 0xfa, 0x46, 0x49, 0x3b,
  0x4f, 0xbd, 0xf7, 0x3d, 0x5b, 0xa6, 0xe5, 0x3d, 0x01, 0xd1, 0x3a, 0xbe,
  0x48, 0xa4, 0x21, 0x3d, 0x37, 0x0c, 0x27, 0x3e, 0x4f, 0x52, 0x08, 0xbe,
  0x84, 0x57, 0x47, 0x3d, 0x16, 0xaa, 0x29, 0x3e, 0x7e, 0x17, 0x95, 0xbc,
  0xd2, 0xb8, 0x19, 0x3e, 0xaf, 0x69, 0x30, 0xbe, 0x63, 0x60, 0x3b, 0x3e,
  0xc4, 0x1c, 0x83, 0xbe, 0x2d, 0x72, 0x81, 0x3e, 0xce, 0xff, 0x33, 0xbe,
  0x8b, 0x6d, 0x7e, 0xbe, 0x3c, 0x52, 0x3e, 0x3e, 0x64, 0xe5, 0x99, 0xbb,
  0x8a, 0x39, 0x54, 0x3e, 0x9b, 0xb7, 0x95, 0x3e, 0xd6, 0xc8, 0x75, 0xbd,
  0x59, 0xd6, 0x56, 0x3d, 0x2b, 0x19, 0x71, 0xbd, 0xf2, 0xa3, 0x23, 0x3e,
  0xb6, 0x8e, 0xb6, 0x3d, 0x16, 0x60, 0x06, 0xbe, 0xf6, 0xa7, 0xfc, 0x3d,
  0x97, 0x91, 0x0c, 0xbe, 0x4d, 0x9f, 0xd8, 0xbc, 0x78, 0x61, 0xe7, 0xbc,
  0x03, 0xf8, 0x85, 0xbe, 0x0c, 0xf1, 0x61, 0x3c, 0x78, 0xf3, 0x4f, 0xbe,
  0xd8, 0x5f, 0x61, 0x3e, 0x90, 0xf1, 0x24, 0xbe, 0xf5, 0xb5, 0x8a, 0xbc,
  0x8a, 0x45, 0xa5, 0x3e, 0x10, 0xfb, 0xd7, 0xbc, 0x16, 0xc3, 0x08, 0x3e,
  0x2a, 0xdb, 0x8c, 0x3e, 0x34, 0xe4, 0xa9, 0xbe, 0x76, 0xe4, 0x15, 0xbd,
  0xfa, 0xf2, 0x08, 0x3d, 0x4a, 0xc0, 0x23, 0x3c, 0x9c, 0xf3, 0x43, 0xbe,
  0xf2, 0xfc, 0xcd, 0xbd, 0xa4, 0x77, 0x92, 0x3e, 0x3b, 0x43, 0x51, 0xbb,
  0x7f, 0x7f, 0x09, 0x3d, 0x56, 0x3a, 0xef, 0xbd, 0xdb, 0x27, 0x36, 0xbe,
  0x9a, 0x21, 0xfe, 0xbd, 0xec, 0x78, 0x62, 0x3c, 0xd3, 0xc5, 0x5a, 0x3e,
  0x4d, 0xba, 0x94, 0xbd, 0xd4, 0x9d, 0xa6, 0xbe, 0xeb, 0x6f, 0xf5, 0xbb,
  0x5c, 0xc8, 0x55, 0x3e, 0xaf, 0x9e, 0x5f, 0x3e, 0xa5, 0x3a, 0x77, 0x3e,
  0x5c, 0x30, 0x25, 0xbe, 0x8e, 0x64, 0x97, 0x3e, 0xc8, 0xc6, 0x4e, 0xbe,
  0x60, 0x77, 0x47, 0x3e, 0x9d, 0x46, 0xe8, 0xbd, 0x2e, 0x92, 0x2d, 0x3e,
  0x77, 0xcb, 0xae, 0xbd, 0x6d, 0x64, 0xdf, 0x3c, 0x52, 0xa5, 0x9d, 0xbe,
  0xe7, 0xc0, 0x92, 0x3e, 0x41, 0xe2, 0x18, 0x3e, 0x8b, 0x89, 0x84, 0x3d,
  0xc1, 0x21, 0xe9, 0x3d, 0x5f, 0xe4, 0xac, 0x3d, 0x8f, 0x95, 0x74, 0x3e,
  0xd3, 0xe9, 0x91, 0x3e, 0xec, 0x08, 0x6b, 0x3e, 0xcd, 0x83, 0x24, 0xbe,
  0xc3, 0xe2, 0xe1, 0x3b, 0x07, 0x02, 0x99, 0xbd, 0xae, 0x7f, 0xbf, 0x3d,
  0x94, 0xa4, 0xc5, 0xbd, 0x6b, 0xe8, 0x3f, 0x3e, 0x47, 0x38, 0x58, 0x3e,
  0x1c, 0x19, 0xcd, 0xbd, 0x16, 0xde, 0x53, 0x3d, 0x39, 0xa9, 0x93, 0x3b,
  0x2b, 0x10, 0x8d, 0x3e, 0x97, 0xa0, 0xbc, 0x3e, 0x7d, 0x45, 0xda, 0x3e,
  0x4c, 0x1c, 0x7c, 0xbd, 0x4f, 0xa9, 0xc1, 0xbe, 0xf4, 0x76, 0x10, 0x3e,
  0xa2, 0x3a, 0x19, 0x3e, 0x2b, 0x5e, 0xba, 0x3e, 0x9e, 0xac, 0xff, 0xff,
  0x04, 0x00, 0x00, 0x00, 0x00, 0x51, 0x00, 0x00, 0xe5, 0x49, 0x0e, 0xbe,
  0xb4, 0x22, 0xfc, 0x3c, 0x40, 0x41, 0x2e, 0xbd, 0x03, 0xca, 0xdf, 0xbd,
  0x04, 0x52, 0x35, 0x3e, 0xfa, 0x71, 0x32, 0x3e, 0x50, 0x6c, 0x1b, 0x3e,
  0xc2, 0x73, 0x20, 0x3e, 0xef, 0x69, 0xb7, 0xba, 0xc3, 0x4c, 0x20, 0x3e,
  0xb6, 0x02, 0x36, 0xbd, 0x1f, 0x56, 0xe1, 0xbc, 0x1f, 0xf9, 0x1c, 0x3e,
  0xa9, 0x75, 0xa5, 0x3d, 0x3d, 0x8c, 0x8c, 0x3d, 0xb1, 0xef, 0x8e, 0xbb,
  0x08, 0x9c, 0x22, 0x3d, 0x73, 0x67, 0xc0, 0x3d, 0x8c, 0x0c, 0x13, 0x3e,
  0x9e, 0x4f, 0x04, 0xbd, 0x6e, 0x9b, 0x27, 0x3e, 0xe1, 0xd5, 0xca, 0xbd,
  0xd7, 0xc2, 0x36, 0x3e, 0x9c, 0x35, 0x2e, 0x3e, 0xa3, 0x98, 0xf7, 0x3d,
  0x13, 0x14, 0xea, 0x3c, 0x3b, 0x53, 0x08, 0xba, 0xc6, 0xba, 0x72, 0xbd,
  0xae, 0x37, 0xbd, 0xbd, 0xce, 0xc3, 0x72, 0x3e, 0xc0, 0xdc, 0x64, 0x3d,
  0x8b, 0x0a, 0xad, 0x3b, 0xcd, 0xcc, 0x79, 0x3d, 0x1a, 0x31, 0x8c, 0x3c,
  0x0a, 0x35, 0x27, 0xbe, 0x82, 0x02, 0xf4, 0xbd, 0x34, 0x8d, 0x43, 0x3e,
  0xb9, 0xf5, 0x9c, 0xbd, 0x0a, 0xcc, 0x23, 0x3e, 0x04, 0x47, 0x48, 0x3e,
  0x08, 0x01, 0x4b, 0x3e, 0xb4, 0xa2, 0x95, 0xbc, 0x3d, 0xef, 0x66, 0x3d,
  0x9d, 0x95, 0xb7, 0xbd, 0x8d, 0x5a, 0xe5, 0xbd, 0x7e, 0xc1, 0xd0, 0xbc,
  0xb1, 0x6f, 0x3a, 0xbe, 0x96, 0x3d, 0x34, 0xbc, 0x8c, 0x87, 0x2a, 0xbd,
  0xa7, 0x48, 0x69, 0xbd, 0x6b, 0x61, 0x0e, 0xbb, 0x83, 0x25, 0xc2, 0xbd,
  0x7b, 0x49, 0xde, 0x3d, 0x3b, 0x27, 0x90, 0x3d, 0x96, 0xfc, 0x41, 0x3d,
  0x10, 0x7d, 0x0a, 0x3e, 0x3b, 0x38, 0x9f, 0x3d, 0xcd, 0xfb, 0x0a, 0x3e,
  0xa9, 0x99, 0x8d, 0xbc, 0x2f, 0x54, 0xca, 0xbd, 0x04, 0x11, 0x9f, 0xbd,
  0x18, 0x98, 0x64, 0xbe, 0x50, 0x3f, 0xff, 0x3c, 0xf9, 0xac, 0x5b, 0xbe,
  0x38, 0xda, 0x76, 0xbd, 0xb3, 0x26, 0x28, 0xbe, 0xa2, 0x75, 0x45, 0xbd,
  0xe2, 0x6a, 0x42, 0x3d, 0x96, 0x08, 0x85, 0x3d, 0xce, 0xfe, 0x98, 0x3d,
  0x85, 0x1b, 0x27, 0xbc, 0x88, 0xec, 0xab, 0xbc, 0x85, 0x91, 0x37, 0xbe,
  0x5a, 0x9e, 0x0e, 0x3e, 0x3d, 0xeb, 0x66, 0xbe, 0x69, 0x4c, 0xec, 0xbd,
  0xd8, 0x98, 0x26, 0xbe, 0xb6, 0x05, 0xd2, 0x3d, 0x45, 0x1e, 0x06, 0xbe,
  0xa1, 0xa9, 0x77, 0x3c, 0x6a, 0x21, 0xa8, 0xbd, 0x1d, 0x88, 0x71, 0x3c,
  0x26, 0xf3, 0xf9, 0x3d, 0x1a, 0x0c, 0x9b, 0x3d, 0x61, 0xa5, 0x06, 0xbe,
  0x8b, 0xc0, 0x7a, 0xbe, 0x66, 0xdb, 0x0d, 0xbe, 0x11, 0xdf, 0x45, 0xba,
  0xc1, 0x8b, 0x8c, 0xbe, 0xb5, 0x87, 0x69, 0xbe, 0x6f, 0xbd, 0x04, 0x3d,
  0xeb, 0x2f, 0x89, 0xbd, 0x24, 0xa8, 0x02, 0x3e, 0xbf, 0x17, 0x67, 0xbd,
  0x39, 0x05, 0x9f, 0x3c, 0x54, 0x78, 0x7e, 0xbd, 0xdf, 0x48, 0xa5, 0x3d,
  0xff, 0xf6, 0xe6, 0xbd, 0x08, 0xa6, 0x38, 0xbe, 0xa1, 0x86, 0x15, 0x3d,
  0xce, 0x3c, 0x71, 0xbe, 0xc8, 0xb0, 0x0f, 0xbd, 0x62, 0x2e, 0x78, 0x3d,
  0xb7, 0x03, 0x33, 0xbe, 0xff, 0x42, 0xd7, 0xbd, 0x16, 0x10, 0x6b, 0xbe,
  0x0d, 0xbd, 0x91, 0x3d, 0xdc, 0x31, 0xc8, 0xbc, 0x79, 0x8d, 0x49, 0xbe,
  0x0c, 0xc3, 0x82, 0xbe, 0xa3, 0xd7, 0x4b, 0xbe, 0x15, 0x2c, 0xd2, 0x3d,
  0xa6, 0xa0, 0xb1, 0xbd, 0x0b, 0x7b, 0x89, 0xbe, 0x45, 0x10, 0x12, 0xbe,
  0x37, 0xe2, 0x1b, 0xbe, 0xad, 0xa3, 0xb1, 0x3b, 0xd7, 0xd8, 0x44, 0x3e,
  0xe4, 0x38, 0xc7, 0x3c, 0x87, 0xc6, 0x56, 0x3e, 0x12, 0x42, 0x34, 0x3e,
  0xb9, 0xb4, 0xc2, 0xbd, 0xd4, 0x6c, 0x19, 0xbe, 0xa4, 0x92, 0xb0, 0xbd,
  0x75, 0xa6, 0x91, 0xbd, 0xeb, 0x0f, 0x92, 0xbe, 0x13, 0x4a, 0x26, 0x3e,
  0x5c, 0xdd, 0x40, 0x3e, 0x24, 0xab, 0x28, 0x3d, 0xa5, 0x4c, 0x5a, 0x3e,
  0x58, 0x3c, 0x76, 0x3e, 0xc1, 0x90, 0x98, 0x3d, 0x37, 0x2c, 0x39, 0x3e,
  0xff, 0xf2, 0xae, 0x3d, 0x7a, 0x64, 0x80, 0xbe, 0xfd, 0xd1, 0xef, 0xbd,
  0xc3, 0x15, 0x36, 0x3e, 0x05, 0x96, 0xa0, 0x3e, 0x56, 0x80, 0x80, 0x3e,
  0x54, 0xa3, 0xac, 0x3d, 0x45, 0x65, 0x07, 0x3e, 0x06, 0x49, 0xdb, 0x3d,
  0x41, 0x2f, 0x60, 0x3d, 0xbe, 0xd0, 0xab, 0xbe, 0xd5, 0xeb, 0x16, 0xbe,
  0x69, 0x9e, 0x28, 0x3d, 0xdd, 0x6b, 0x3a, 0x3e, 0xdf, 0x93, 0x9f, 0x3c,
  0x16, 0xe0, 0x4a, 0x3e, 0xe3, 0x38, 0xc9, 0xbd, 0x1b, 0xa6, 0x02, 0xbd,
  0x33, 0x0b, 0x58, 0xbd, 0x6d, 0x7a, 0x1c, 0xbd, 0x38, 0x98, 0xe7, 0xbd,
  0x64, 0x39, 0xc6, 0xbc, 0xa7, 0x85, 0x25, 0xbe, 0xfe, 0x53, 0x35, 0xbe,
  0xbc, 0xb2, 0x0a, 0x3e, 0xf3, 0x98, 0x0d, 0x3e, 0xe1, 0x8d, 0x02, 0xbe,
  0xaf, 0xa7, 0x36, 0xbe, 0x26, 0x46, 0x79, 0xbe, 0x16, 0x72, 0xd1, 0xbc,
  0x19, 0xb4, 0x90, 0x3d, 0xe9, 0x27, 0x29, 0xbe, 0xe9, 0x36, 0x2a, 0x3e,
  0x5e, 0xb8, 0x3e, 0xbc, 0xbe, 0xd4, 0xef, 0x3d, 0xfd, 0x2e, 0xef, 0xbc,
  0x79, 0x02, 0xda, 0x3d, 0x96, 0x7d, 0xa2, 0xbd, 0x01, 0x89, 0xef, 0xbb,
  0xbe, 0x20, 0x10, 0x3e, 0x80, 0xa9, 0x2b, 0x3d, 0x20, 0xa3, 0x17, 0xbe,
  0xa4, 0x57, 0xca, 0x3b, 0xd2, 0xab, 0x45, 0x3e, 0x9d, 0x0b, 0xe1, 0x3d,
  0x97, 0x6c, 0x26, 0xbe, 0x30, 0x0e, 0x54, 0x3e, 0x36, 0x4e, 0xc0, 0x3d,
  0x12, 0x8b, 0x16, 0x3e, 0x02, 0xcd, 0xcc, 0x3d, 0x84, 0xeb, 0x97, 0xbd,
  0x61, 0x3c, 0x47, 0xbd, 0x0e, 0x9b, 0xd4, 0x3d, 0xba, 0xc9, 0x58, 0x3d,
  0x49, 0xd2, 0x36, 0x3d, 0x60, 0xfb, 0x47, 0xbe, 0xb1, 0x2d, 0x6a, 0xbe,
  0x8a, 0xbf, 0xf6, 0x3d, 0x50, 0x24, 0x3e, 0xbe, 0xc0, 0xd3, 0x89, 0x3b,
  0xb6, 0x48, 0xb1, 0xbd, 0x1c, 0x98, 0x9f, 0x3d, 0x8e, 0x08, 0x1b, 0x3d,
  0xb8, 0x85, 0x95, 0x3c, 0x80, 0x94, 0x0c, 0x3e, 0x95, 0xeb, 0x27, 0x3c,
  0xc0, 0xe3, 0x90, 0xbd, 0x65, 0xd2, 0xd0, 0xbd, 0x65, 0x05, 0x34, 0xbe,
  0xb0, 0xe9, 0x0d, 0x3e, 0x85, 0x26, 0x41, 0xbe, 0x63, 0x1c, 0x2c, 0x3e,
  0xcf, 0x71, 0xf7, 0x3d, 0x7d, 0x84, 0x4c, 0xbc, 0x17, 0x48, 0xc6, 0xbd,
  0xca, 0xea, 0xd9, 0xbd, 0x52, 0x2a, 0xb4, 0x3c, 0xeb, 0x10, 0xaf, 0xba,
  0x40, 0xb2, 0xae, 0xbd, 0x3d, 0xab, 0xb4, 0x3c, 0xa3, 0x28, 0x38, 0x3b,
  0xdc, 0xb2, 0x27, 0xbe, 0x09, 0x74, 0x83, 0xbd, 0xeb, 0x6b, 0x4b, 0xbc,
  0x9f, 0x55, 0x45, 0x3e, 0xde, 0x6d, 0x85, 0xbc, 0xfd, 0x8d, 0x1e, 0x3e,
  0x21, 0x48, 0x3a, 0x3e, 0x67, 0x4d, 0xd1, 0x3c, 0xd1, 0x9d, 0x5e, 0xbd,
  0x5e, 0x50, 0x1a, 0xbe, 0x7a, 0x4b, 0x20, 0xbe, 0x85, 0x1d, 0x76, 0x3e,
  0x8c, 0xbb, 0xaa, 0x3d, 0x5a, 0xc8, 0x89, 0x3d, 0x4b, 0x22, 0x1a, 0x3e,
  0x99, 0x06, 0x66, 0x3e, 0x9a, 0x5c, 0xf1, 0x3c, 0x02, 0xc6, 0x6f, 0x3e,
  0x56, 0xa0, 0x04, 0x3e, 0x8e, 0x07, 0x23, 0x3e, 0xc3, 0xcc, 0x03, 0x3e,
  0x37, 0x42, 0x00, 0xbc, 0xca, 0x21, 0x39, 0x3e, 0x5e, 0xe4, 0xc8, 0x3c,
  0x81, 0xd7, 0x81, 0x3d, 0x8b, 0x5b, 0x10, 0x3c, 0x56, 0x0e, 0x3f, 0x3e,
  0x77, 0x14, 0x06, 0xbc, 0x30, 0xd6, 0xdc, 0x3d, 0x35, 0xc3, 0x1f, 0x3d,
  0x31, 0x8a, 0x4a, 0x3e, 0x1b, 0xf9, 0xa7, 0xbd, 0x65, 0x5d, 0x39, 0xbc,
  0x7c, 0x9e, 0x8c, 0x3d, 0xc2, 0x84, 0x89, 0xbd, 0x4b, 0x7f, 0x73, 0x3e,
  0x91, 0xd1, 0xef, 0xbd, 0x13, 0x28, 0x16, 0xbe, 0x48, 0x36, 0x78, 0xbd,
  0x2b, 0x26, 0x9d, 0x3d, 0x72, 0x77, 0x37, 0x3d, 0x90, 0x4f, 0x7a, 0xbc,
  0x95, 0x88, 0xa8, 0x3d, 0x65, 0x85, 0x52, 0x3d, 0x4a, 0x54, 0x08, 0xbe,
  0xf2, 0x92, 0x2e, 0xbe, 0xc5, 0x44, 0x3e, 0x3e, 0x3f, 0x71, 0x69, 0xbe,
  0xbb, 0xd8, 0x1f, 0x3c, 0x1c, 0xe3, 0x83, 0xbe, 0x3d, 0x6a, 0x32, 0xbe,
  0x14, 0x4b, 0x91, 0x3d, 0x73, 0x89, 0x7c, 0xbe, 0x63, 0xae, 0x2b, 0xbe,
  0x86, 0x83, 0x4c, 0xbe, 0xbe, 0x5d, 0xff, 0xbb, 0x3e, 0x2b, 0x1a, 0xbd,
  0x53, 0x71, 0xbf, 0xbd, 0x32, 0xdf, 0x5c, 0xbe, 0x2d, 0x9a, 0x91, 0xbe,
  0x0e, 0xc5, 0x81, 0xbe, 0xf0, 0xc4, 0xab, 0x3d, 0xa3, 0xf7, 0x40, 0xbe,
  0x7d, 0x54, 0x0d, 0xbe, 0x52, 0x2c, 0xd1, 0x3c, 0x68, 0x3e, 0x85, 0xbe,
  0xf7, 0x2e, 0x02, 0xbe, 0xda, 0xe9, 0x92, 0xbe, 0x9e, 0x24, 0xdd, 0xbd,
  0xb5, 0x61, 0x82, 0xbe, 0x50, 0x0d, 0x9c, 0xbe, 0x0f, 0x68, 0x82, 0xbe,
  0x67, 0xa7, 0x51, 0xbe, 0x3e, 0x88, 0x91, 0xbd, 0xd7, 0x70, 0x56, 0xbd,
  0xb3, 0x9a, 0x3a, 0xbe, 0xf4, 0xbf, 0x84, 0xbe, 0xa8, 0xe8, 0x58, 0xbe,
  0x42, 0x29, 0xa3, 0x3c, 0x91, 0xb4, 0xa3, 0xbd, 0x47, 0x3a, 0x15, 0xbe,
  0x42, 0x15, 0x72, 0xbd, 0x2b, 0x17, 0x14, 0x3e, 0x1f, 0xc6, 0xdc, 0x3c,
  0x42, 0xb3, 0xcc, 0x3d, 0x81, 0x70, 0xe3, 0xbd, 0x20, 0x31, 0x50, 0x3d,
  0x36, 0x0c, 0x03, 0xbe, 0x37, 0xf6, 0x0d, 0x3b, 0xf2, 0xda, 0x22, 0x3c,
  0xbd, 0xac, 0x1d, 0xbc, 0xf7, 0x50, 0x07, 0x3e, 0x34, 0xc7, 0xcb, 0x3d,
  0xc4, 0x6c, 0xf1, 0xbd, 0x7e, 0xc5, 0x4e, 0x3d, 0x3a, 0x4f, 0xf9, 0xbd,
  0xe3, 0x95, 0x5c, 0xbd, 0x7e, 0xa4, 0xf9, 0x3c, 0xca, 0x36, 0x21, 0xbe,
  0xd1, 0x92, 0x37, 0xbe, 0x6a, 0x6c, 0x8a, 0x3d, 0xfb, 0x58, 0x21, 0xbe,
  0x9c, 0xea, 0xf1, 0xbd, 0xd6, 0xbc, 0x3a, 0x3e, 0x9f, 0x0b, 0xc5, 0x3c,
  0x8f, 0x68, 0x49, 0x3e, 0x8f, 0x24, 0x26, 0x3e, 0xfc, 0x41, 0x01, 0x3e,
  0xb1, 0xd4, 0xbf, 0x3d, 0x3d, 0x2f, 0xa2, 0xbc, 0x14, 0x79, 0x78, 0xbd,
  0x0c, 0xdc, 0x12, 0xbe, 0x1a, 0x67, 0x74, 0xbe, 0xd8, 0xc2, 0xe7, 0xbd,
  0xf0, 0x38, 0x98, 0xbd, 0x21, 0xae, 0x7a, 0x3d, 0x4f, 0xaa, 0x6e, 0xbe,
  0xc4, 0x5c, 0x35, 0xbe, 0x27, 0x2f, 0x2e, 0xbe, 0xe8, 0x60, 0x42, 0x3e,
  0x96, 0x56, 0x00, 0xbe, 0xc4, 0x54, 0x3f, 0xbe, 0xd0, 0x74, 0x22, 0xbe,
  0xd3, 0x85, 0x82, 0xbd, 0xe2, 0xe2, 0x81, 0xbc, 0x4b, 0x42, 0x44, 0xbe,
  0x97, 0x6e, 0xaa, 0xbb, 0xd5, 0x5a, 0x32, 0xbe, 0x4b, 0xb2, 0x31, 0x3e,
  0xba, 0x00, 0x0a, 0x3c, 0x01, 0x53, 0x03, 0x3e, 0x5a, 0x10, 0xee, 0xbc,
  0x00, 0x11, 0x79, 0xbd, 0xc5, 0x07, 0x52, 0xbe, 0x38, 0x63, 0xa0, 0xbd,
  0x3f, 0xf9, 0x08, 0xbe, 0x64, 0xdd, 0xd2, 0xbc, 0x41, 0xc3, 0x57, 0x3e,
  0xa7, 0x7c, 0x96, 0x3d, 0xf6, 0xbb, 0x89, 0x3d, 0xfa, 0xbd, 0x4e, 0x3e,
  0x81, 0xc1, 0x34, 0x3e, 0x21, 0x49, 0x85, 0xbd, 0xb3, 0xdf, 0x54, 0xbb,
  0xf5, 0x1e, 0xb2, 0x3d, 0x30, 0x6f, 0x9a, 0xbd, 0x5b, 0x89, 0x90, 0xbe,
  0x0e, 0x95, 0x97, 0xbd, 0x02, 0xd6, 0x96, 0x3c, 0x4e, 0x97, 0x62, 0xbe,
  0x89, 0xf1, 0xa6, 0x3d, 0x0c, 0x28, 0x57, 0x3c, 0x26, 0x26, 0x82, 0x3d,
  0x51, 0x1c, 0xba, 0xbc, 0xbc, 0xd6, 0x09, 0x3e, 0xdd, 0xf6, 0x5f, 0x3d,
  0xab, 0x2e, 0x0a, 0xbe, 0xe2, 0xb6, 0x0b, 0xbe, 0x78, 0xe7, 0x1d, 0x3e,
  0xe4, 0x95, 0xc7, 0xbd, 0x2e, 0x23, 0x02, 0xbe, 0xa3, 0x0d, 0xc9, 0x3d,
  0xce, 0xcf, 0x14, 0xbd, 0x38, 0x70, 0x1d, 0x3e, 0xbd, 0xf9, 0x3c, 0x3e,
  0xb5, 0x11, 0xa3, 0x3b, 0x84, 0xde, 0x30, 0xbe, 0x20, 0x64, 0xd1, 0x3d,
  0xb1, 0xd0, 0x6f, 0x3e, 0x2f, 0x24, 0xce, 0xbd, 0xe0, 0xa6, 0x4a, 0x3e,
  0xc0, 0xcd, 0x08, 0xbe, 0x73, 0x62, 0xf0, 0x3d, 0xa9, 0x87, 0x8d, 0xbd,
  0xa4, 0xb6, 0xc7, 0x3a, 0x43, 0x03, 0x3f, 0xbe, 0x3c, 0x1e, 0x71, 0xbe,
  0x55, 0xc7, 0x2b, 0xbe, 0xdc, 0x20, 0xaa, 0xbd, 0x1c, 0xdf, 0xea, 0x3d,
  0x6f, 0xe7, 0x90, 0x3d, 0xb0, 0x54, 0x80, 0xbd, 0xe6, 0x68, 0xfa, 0xbd,
  0x51, 0x12, 0x81, 0x3d, 0xc7, 0xf8, 0xa3, 0xbd, 0x16, 0xa8, 0x61, 0xbe,
  0x83, 0x8b, 0x25, 0xbd, 0xa4, 0xa1, 0xdb, 0x3d, 0x41, 0xe2, 0x8c, 0x37,
  0xf8, 0xc1, 0x74, 0x3d, 0x77, 0xcf, 0xf9, 0xbd, 0x1c, 0x95, 0xfe, 0xbd,
  0xba, 0x6f, 0xbd, 0xbc, 0x5f, 0xdb, 0xd8, 0xbc, 0x52, 0x00, 0xab, 0x3d,
  0x42, 0xda, 0x58, 0xbd, 0xb5, 0xab, 0x3f, 0x3e, 0x5c, 0xa0, 0x31, 0x3d,
  0x70, 0xa1, 0x83, 0xbd, 0x77, 0x17, 0x10, 0x3e, 0x19, 0xab, 0x14, 0xbd,
  0x72, 0xec, 0x61, 0x3d, 0xe3, 0x2e, 0xce, 0xbd, 0x12, 0x47, 0xf4, 0xbc,
  0x4b, 0x74, 0x4f, 0xbd, 0xf2, 0x51, 0x4b, 0x3e, 0x47, 0xc4, 0x36, 0x3d,
  0x7d, 0x09, 0xba, 0x3c, 0xd1, 0x12, 0x96, 0xbd, 0x98, 0xb5, 0x0f, 0x3e,
  0xa1, 0xb0, 0xf8, 0x3d, 0xfa, 0x70, 0xf0, 0x3d, 0x75, 0x0e, 0xc7, 0x3d,
  0xa1, 0x4c, 0x10, 0x3e, 0xb6, 0x78, 0xa9, 0xbd, 0x14, 0x5a, 0x5e, 0xbc,
  0xdd, 0x69, 0x08, 0xbe, 0x7c, 0x15, 0x87, 0x3e, 0x15, 0x15, 0xb1, 0xbd,
  0xf2, 0x26, 0xdd, 0x3c, 0x43, 0x50, 0x96, 0x3d, 0x83, 0xc3, 0xf5, 0xbd,
  0x75, 0x4c, 0xef, 0xbd, 0x36, 0x83, 0x52, 0x3d, 0xf7, 0x47, 0x1d, 0xbe,
  0x0c, 0x21, 0x84, 0xbd, 0xa0, 0x49, 0x4b, 0x3e, 0xf6, 0xed, 0x5a, 0x3d,
  0x26, 0x88, 0x47, 0x3e, 0xc8, 0xa2, 0x9e, 0xbd, 0xf2, 0xe5, 0x28, 0xbe,
  0x5e, 0xff, 0x20, 0x3e, 0xba, 0x4c, 0x35, 0x3e, 0xbf, 0x49, 0x18, 0x3e,
  0x2b, 0xba, 0xc4, 0xbc, 0xc9, 0x29, 0x38, 0xbd, 0xad, 0x4d, 0x0b, 0x3d,
  0x45, 0x0d, 0x14, 0x3e, 0x89, 0x06, 0x04, 0xbe, 0x9b, 0xc7, 0x08, 0xbd,
  0xea, 0x78, 0xf6, 0x3c, 0x50, 0x8a, 0x21, 0xbe, 0x63, 0x14, 0x87, 0xbd,
  0x20, 0xdc, 0xe9, 0x3c, 0x17, 0xa3, 0x30, 0x3d, 0xe1, 0xdb, 0xe9, 0xbd,
  0x99, 0x88, 0x92, 0xbe, 0xd2, 0x96, 0x1e, 0xbc, 0x0d, 0xf2, 0xd9, 0xbd,
  0x19, 0xf5, 0x3f, 0xbe, 0x5d, 0x94, 0xf2, 0xbb, 0x3d, 0xb7, 0x44, 0xbe,
  0x43, 0x49, 0x2a, 0xbd, 0xed, 0xb9, 0x99, 0x3d, 0xfe, 0x41, 0xc7, 0x3d,
  0x79, 0xaf, 0x7b, 0x3d, 0x54, 0xdc, 0xe7, 0x3c, 0xe4, 0x68, 0x31, 0xbe,
  0x13, 0xce, 0xe1, 0x3d, 0xc7, 0xa0, 0x6d, 0x3d, 0x4d, 0xa4, 0x04, 0x3e,
  0xf7, 0xcb, 0x2b, 0xbe, 0x31, 0x3a, 0xe9, 0x3a, 0x92, 0x60, 0xd4, 0x3d,
  0x8e, 0x95, 0xca, 0xbc, 0x13, 0x57, 0x61, 0xbe, 0x5f, 0x24, 0xa1, 0xbd,
  0x16, 0xf8, 0x1b, 0xbe, 0x4a, 0xe5, 0x06, 0xbe, 0x15, 0x88, 0x0d, 0x3e,
  0xa3, 0xc7, 0x12, 0x3d, 0x28, 0x1c, 0xc7, 0x3d, 0x6a, 0x6e, 0x47, 0xbd,
  0x87, 0x93, 0x20, 0x3e, 0x59, 0x94, 0xbc, 0xbd, 0x5f, 0x18, 0x73, 0xbe,
  0xa5, 0x40, 0xd5, 0xbd, 0x86, 0x63, 0xe1, 0xbd, 0xc8, 0xb3, 0x59, 0x3d,
  0x08, 0x52, 0x2e, 0x3d, 0xae, 0x50, 0xbf, 0x3d, 0x20, 0x4a, 0x79, 0x3c,
  0x11, 0x8b, 0x16, 0xbc, 0x52, 0xeb, 0xb0, 0xbc, 0x58, 0xbb, 0x04, 0xbe,
  0xd5, 0xa4, 0x11, 0x3c, 0x79, 0x8e, 0x86, 0xbd, 0x8a, 0x1f, 0x15, 0xbe,
  0xa6, 0x7c, 0x9c, 0x3d, 0x32, 0xbb, 0x13, 0xbe, 0x28, 0xd5, 0x80, 0xbe,
  0x78, 0x2c, 0x21, 0xbd, 0xba, 0x7e, 0xbd, 0x3c, 0x94, 0x46, 0x79, 0xbe,
  0xe4, 0x75, 0x84, 0x3d, 0xd4, 0xad, 0x8e, 0xbd, 0xff, 0xe5, 0xaa, 0xbd,
  0xe2, 0xb1, 0x01, 0xbd, 0x94, 0xa8, 0x2d, 0xbe, 0x76, 0x37, 0x6c, 0x3d,
  0x7c, 0xf8, 0x4e, 0x3d, 0xa4, 0x78, 0x7c, 0xbd, 0xbc, 0xa3, 0x71, 0xbd,
  0x66, 0xaa, 0x6c, 0xbd, 0x6c, 0xd3, 0x78, 0xbe, 0xd3, 0x80, 0xcc, 0x3d,
  0x7d, 0x12, 0xb1, 0x3d, 0x30, 0xf9, 0xb1, 0x3c, 0x2a, 0x4f, 0xdc, 0xbd,
  0x15, 0x3c, 0x36, 0xbd, 0x7e, 0xc2, 0x64, 0xbe, 0xd5, 0x27, 0x96, 0xbe,
  0x63, 0xa1, 0x2d, 0xbe, 0xb2, 0xa3, 0x88, 0xbd, 0x21, 0xc6, 0x60, 0xbd,
  0x20, 0x1a, 0xd7, 0xbd, 0x1a, 0x96, 0x9b, 0xbd, 0x56, 0xc8, 0x4b, 0xbc,
  0x27, 0xcd, 0x83, 0xbe, 0x44, 0xb4, 0x06, 0xbe, 0x2d, 0x30, 0x24, 0x3c,
  0xce, 0x2e, 0x1a, 0x3e, 0x19, 0x7a, 0xfa, 0xbd, 0xce, 0xef, 0xbb, 0xbc,
  0x79, 0x5f, 0xa8, 0xbd, 0xc5, 0xe8, 0x58, 0x3e, 0x17, 0x1c, 0xbc, 0xbd,
  0xa4, 0x52, 0xf3, 0xbd, 0x53, 0x6f, 0x6f, 0x3d, 0xe2, 0x16, 0x4c, 0x3e,
  0x2d, 0x76, 0x60, 0x3e, 0x0a, 0x0e, 0x66, 0x3e, 0xf0, 0x3c, 0xf0, 0xbd,
  0x8c, 0xcb, 0x55, 0xbe, 0xe3, 0xda, 0x1b, 0xbe, 0x5e, 0x43, 0x1e, 0xbe,
  0xe5, 0x1b, 0x99, 0xbd, 0x0d, 0xbb, 0x94, 0xbd, 0x7e, 0x1a, 0x10, 0x3c,
  0x33, 0x7b, 0x03, 0x3e, 0xc7, 0xca, 0x23, 0xbe, 0x82, 0xd3, 0x57, 0xbe,
  0xda, 0x57, 0x49, 0x3d, 0x7b, 0xb1, 0xcb, 0x3d, 0x37, 0x47, 0x80, 0xbe,
  0xa6, 0xb3, 0x67, 0x3d, 0x45, 0x7b, 0x6d, 0xbc, 0x65, 0x3d, 0x8e, 0x3d,
  0x2f, 0x87, 0x23, 0xbe, 0x5c, 0x2c, 0xa2, 0xbb, 0xf9, 0x8a, 0x47, 0x3b,
  0xac, 0xfd, 0x44, 0xbd, 0x79, 0xb0, 0xee, 0x3d, 0x0e, 0x23, 0x2a, 0x3e,
  0x3f, 0xc9, 0xc6, 0x3c, 0x92, 0x61, 0x45, 0x3d, 0xb7, 0x7c, 0x0e, 0x3c,
  0xeb, 0x88, 0x9a, 0xbd, 0x26, 0x15, 0x5c, 0x3e, 0x14, 0xf2, 0x0c, 0xbe,
  0x44, 0x50, 0x85, 0xbc, 0x22, 0xcf, 0x01, 0xbd, 0x82, 0x8a, 0xec, 0xbb,
  0xa1, 0x46, 0x82, 0x3e, 0x86, 0x95, 0x37, 0xbc, 0xca, 0x25, 0x46, 0x3e,
  0x25, 0x10, 0xb2, 0xbd, 0x28, 0x8c, 0xd8, 0xba, 0x61, 0x09, 0x73, 0x3e,
  0xdd, 0xa5, 0x45, 0xbe, 0x13, 0xc7, 0xcb, 0xbd, 0x95, 0x78, 0xe1, 0x3c,
  0x89, 0x26, 0x01, 0xbe, 0x3a, 0xf0, 0x92, 0x3d, 0x11, 0x6c, 0xbc, 0x3d,
  0x28, 0xb9, 0x98, 0xbd, 0xa4, 0x22, 0x37, 0x3b, 0x7a, 0x9f, 0x8b, 0x3d,
  0x15, 0x10, 0xbe, 0xbd, 0x3c, 0x00, 0x82, 0xbe, 0x9c, 0x48, 0x36, 0xbe,
  0x77, 0x8c, 0x10, 0x3e, 0x54, 0x7c, 0x3b, 0x3e, 0x3b, 0x3f, 0x2a, 0x3e,
  0xca, 0xba, 0x3c, 0x3e, 0xc3, 0x41, 0x1b, 0xbe, 0xa0, 0xb8, 0x65, 0xbd,
  0xa0, 0x8b, 0x11, 0x3d, 0xf8, 0x64, 0x4b, 0xbe, 0x39, 0xb5, 0xb8, 0xbd,
  0xf2, 0x86, 0x70, 0x3d, 0x83, 0xfb, 0x86, 0xbe, 0xbd, 0xe8, 0x3d, 0xbe,
  0x05, 0x07, 0x81, 0xbc, 0x42, 0xcf, 0x1d, 0xbe, 0xfc, 0x67, 0x6d, 0xbe,
  0xd3, 0x76, 0x94, 0x3c, 0x9e, 0x84, 0x26, 0x3e, 0xf6, 0xb1, 0x88, 0xbc,
  0xed, 0x4b, 0x1e, 0x3e, 0x2c, 0x60, 0x6d, 0x3d, 0x05, 0xe8, 0xd2, 0xbd,
  0x98, 0x17, 0x2d, 0x3e, 0x3a, 0xef, 0xca, 0x3c, 0x37, 0x3c, 0x19, 0x3e,
  0xa4, 0x90, 0xc1, 0xbd, 0x27, 0x89, 0xb2, 0x3d, 0x2c, 0x9f, 0x78, 0xbc,
  0xf4, 0x40, 0xe9, 0x3c, 0xa8, 0xa1, 0x47, 0x3e, 0xbf, 0x17, 0x43, 0xbd,
  0x8b, 0xef, 0x3b, 0x3d, 0x7f, 0x2f, 0x11, 0x3e, 0xa6, 0x20, 0xa8, 0xbd,
  0xb1, 0x92, 0xb1, 0x3d, 0x74, 0xb8, 0xd0, 0x3d, 0x83, 0xce, 0xca, 0xbc,
  0x45, 0x4a, 0x38, 0x3d, 0x24, 0x8d, 0xdb, 0xbd, 0xa5, 0x69, 0xe7, 0x3d,
  0x72, 0xe8, 0xae, 0xbd, 0x47, 0x81, 0xa4, 0x3d, 0x1f, 0xa8, 0x56, 0x3d,
  0x54, 0x7d, 0x4a, 0xbe, 0x7b, 0xf1, 0x80, 0x3c, 0xa1, 0x31, 0x3f, 0x3d,
  0xf9, 0x55, 0x21, 0x3e, 0xc2, 0xa2, 0x97, 0xbd, 0xe4, 0xfd, 0x8f, 0x3d,
  0xc4, 0x14, 0x6f, 0xbe, 0x36, 0x4d, 0x1d, 0xbe, 0x9e, 0xa3, 0x31, 0xbe,
  0xad, 0x1d, 0xa6, 0xbd, 0x7a, 0x1d, 0x97, 0x3c, 0xc9, 0x3a, 0x28, 0x3e,
  0x52, 0x77, 0x56, 0x3e, 0x43, 0xb9, 0x8b, 0x3d, 0x14, 0x70, 0x66, 0x3e,
  0x07, 0x61, 0x9f, 0x3d, 0xd0, 0xb0, 0x21, 0xbd, 0xa2, 0x6f, 0xae, 0xbd,
  0x3c, 0x92, 0x39, 0x3d, 0x63, 0xcb, 0xc8, 0xbc, 0x7b, 0x3b, 0x11, 0x3e,
  0x6a, 0x9c, 0x09, 0x3c, 0x49, 0x3c, 0xbd, 0xbd, 0x32, 0x3c, 0x70, 0x3e,
  0x4b, 0xb6, 0xc7, 0x3d, 0x51, 0x4f, 0x9a, 0xbd, 0x63, 0x50, 0x9d, 0x3d,
  0xc3, 0xef, 0xbc, 0x3c, 0xde, 0xb3, 0x8a, 0xbd, 0x37, 0x68, 0x75, 0xbe,
  0xc0, 0x97, 0xbb, 0xbd, 0xce, 0xdc, 0x82, 0xbd, 0xef, 0xba, 0xdf, 0x3d,
  0xc8, 0x49, 0x6c, 0xbd, 0xaa, 0xcd, 0x52, 0x3e, 0xb4, 0xf8, 0xf1, 0xbd,
  0xa6, 0x33, 0xfa, 0x3d, 0x69, 0xf5, 0xb7, 0xbd, 0x07, 0x73, 0x29, 0xbe,
  0xb7, 0xcd, 0xfa, 0x3d, 0x2e, 0x83, 0x77, 0xbd, 0x2a, 0xad, 0x83, 0xbc,
  0x54, 0xbc, 0x88, 0x3c, 0xf5, 0x11, 0x05, 0xbc, 0x05, 0x04, 0x96, 0x3d,
  0x02, 0xd9, 0x13, 0x3e, 0xdf, 0x0a, 0x20, 0x3d, 0x16, 0x21, 0x03, 0xbe,
  0x21, 0xcb, 0xe5, 0xbc, 0xfa, 0xe1, 0x5e, 0x3e, 0xd0, 0x10, 0x93, 0x3d,
  0x23, 0xa5, 0x64, 0x3e, 0x98, 0x98, 0x58, 0x3e, 0xdc, 0x0a, 0xc2, 0xbd,
  0x8e, 0x10, 0xef, 0x3d, 0xc4, 0x66, 0xde, 0xbd, 0x2b, 0x22, 0x03, 0x3e,
  0xdb, 0xae, 0x17, 0xbe, 0x07, 0xf3, 0x27, 0x3e, 0xe8, 0xb6, 0xfe, 0xbc,
  0xb4, 0x74, 0x26, 0x3e, 0xc5, 0x57, 0x12, 0xbd, 0x5f, 0xe6, 0x3e, 0x3d,
  0x9b, 0x36, 0x0a, 0x3e, 0xdc, 0xe7, 0x91, 0x3d, 0xe2, 0x22, 0x13, 0xbe,
  0x35, 0x60, 0x3f, 0xbd, 0x91, 0x0d, 0x95, 0xbe, 0xc7, 0xda, 0x79, 0x3d,
  0x74, 0x7c, 0x9f, 0xbc, 0x62, 0x94, 0x90, 0xba, 0x23, 0xbc, 0x44, 0xbe,
  0xba, 0x67, 0xcc, 0xbd, 0xf0, 0xac, 0x4b, 0xbe, 0x06, 0xc2, 0xf5, 0x3d,
  0x06, 0xe8, 0xb4, 0x3d, 0xec, 0xf4, 0x3b, 0x3e, 0x3b, 0xe6, 0x3a, 0x3e,
  0x36, 0xcc, 0x3d, 0x3d, 0xb3, 0x3c, 0x36, 0xbe, 0x3a, 0x6f, 0x0e, 0x3e,
  0x08, 0x20, 0x2e, 0x3c, 0xdb, 0x34, 0x2f, 0x3e, 0xf0, 0xa0, 0x45, 0xbe,
  0xda, 0x5b, 0x1c, 0x3e, 0x95, 0x22, 0x0b, 0x3e, 0x55, 0xe3, 0x8b, 0x3d,
  0x99, 0xc0, 0x3a, 0xbe, 0xa4, 0xc7, 0xd2, 0x3d, 0x79, 0x19, 0x96, 0xbd,
  0x51, 0xaf, 0xb6, 0xbd, 0x73, 0xb9, 0x5d, 0xbe, 0x8f, 0xa4, 0xf3, 0x3c,
  0x06, 0x31, 0x91, 0x3e, 0xd1, 0xfc, 0x8e, 0x3e, 0x2b, 0xa8, 0x0e, 0xbd,
  0x41, 0x2e, 0xbf, 0x3c, 0x6e, 0x61, 0x9c, 0x3d, 0xec, 0x34, 0xb0, 0x3d,
  0xad, 0x26, 0x4e, 0x3d, 0x46, 0xfb, 0x92, 0x3c, 0x6d, 0x5e, 0x2d, 0x3e,
  0xaa, 0xeb, 0x49, 0x3e, 0x56, 0xd9, 0xba, 0x3d, 0x7f, 0xa6, 0x90, 0x3e,
  0xa8, 0x48, 0x35, 0x3e, 0xd5, 0xcf, 0x06, 0x3e, 0x9a, 0xc2, 0x1e, 0xbd,
  0xca, 0x9b, 0x1b, 0x3d, 0xfd, 0xef, 0x69, 0xbb, 0x73, 0x32, 0xbc, 0x3c,
  0x79, 0xdb, 0x1f, 0x3e, 0x15, 0xc6, 0xc9, 0xbd, 0x1f, 0x19, 0xb0, 0xbc,
  0xd3, 0x2d, 0xd5, 0xbd, 0xb3, 0x1a, 0xa9, 0xbd, 0x2d, 0xdc, 0x7e, 0x3e,
  0x59, 0x98, 0x58, 0xbd, 0xba, 0x3d, 0xe4, 0x3d, 0x37, 0x53, 0x32, 0xbc,
  0x22, 0x12, 0xd4, 0xbd, 0x26, 0xf2, 0x55, 0xbe, 0xe9, 0x01, 0x36, 0x3e,
  0x44, 0x5a, 0x80, 0xbd, 0xb1, 0xc9, 0x80, 0x3e, 0xd2, 0x31, 0x02, 0x3d,
  0xa6, 0xb2, 0x40, 0xbe, 0x39, 0xe6, 0xf3, 0xbd, 0x88, 0xb1, 0x94, 0x3d,
  0x7a, 0x08, 0x28, 0x3e, 0x6a, 0x1d, 0x2c, 0x3d, 0x1c, 0x5a, 0x72, 0xbe,
  0xd4, 0x30, 0x0e, 0x3e, 0x55, 0x17, 0xb4, 0xbd, 0x9b, 0xee, 0x0b, 0x3d,
  0x7d, 0x22, 0x7e, 0x3d, 0xfb, 0x61, 0xa7, 0xbc, 0x48, 0x25, 0x33, 0xbe,
  0x73, 0xe7, 0x9b, 0xbe, 0x05, 0x01, 0x91, 0xbb, 0x48, 0xca, 0x99, 0xbc,
  0xef, 0x88, 0x24, 0x3d, 0xb2, 0x9f, 0x41, 0xbe, 0xf8, 0x31, 0xdc, 0xbd,
  0x4c, 0x05, 0xf7, 0x3b, 0xcd, 0x52, 0x11, 0xbe, 0xdf, 0x1f, 0xd9, 0xbd,
  0x00, 0x11, 0x00, 0xbd, 0x25, 0x26, 0xba, 0xbd, 0x8f, 0x54, 0x58, 0xbe,
  0x4e, 0xed, 0xeb, 0xbc, 0x55, 0x5d, 0x98, 0xbd, 0x88, 0xbc, 0xf8, 0xbd,
  0x56, 0xe6, 0x0c, 0x3e, 0xfd, 0x27, 0x76, 0xbd, 0x5d, 0x56, 0x5b, 0xbe,
  0x3e, 0x90, 0xb9, 0xbd, 0x0b, 0x50, 0x48, 0x3e, 0x2d, 0x76, 0x13, 0x3e,
  0x20, 0x59, 0x3b, 0xbe, 0x54, 0x4e, 0x8d, 0x3a, 0xd7, 0x2f, 0x09, 0x3d,
  0xec, 0x2d, 0x0f, 0xbd, 0xea, 0x82, 0xa0, 0x3d, 0xa4, 0x8e, 0xf3, 0x3d,
  0x77, 0x8d, 0xd9, 0x3b, 0x98, 0x5b, 0x92, 0x3e, 0x6d, 0x6e, 0x37, 0x3e,
  0xc5, 0x3b, 0x8a, 0xbc, 0x9c, 0x5b, 0x82, 0x3e, 0xd8, 0x0f, 0x7c, 0x3e,
  0x0a, 0xdd, 0xb0, 0xbc, 0xaf, 0x38, 0x5c, 0xbe, 0xea, 0xf7, 0x92, 0xbb,
  0x22, 0x8d, 0x3e, 0x3e, 0x3d, 0xdf, 0x65, 0x3d, 0x54, 0xc9, 0x86, 0x3d,
  0xab, 0x80, 0x6f, 0x3e, 0x34, 0xb0, 0xc5, 0xbd, 0xd4, 0xa1, 0x6b, 0x3d,
  0x08, 0x4b, 0x26, 0x3e, 0x73, 0x3c, 0x5a, 0xbe, 0x35, 0x1d, 0x99, 0xbd,
  0xa1, 0xd8, 0x04, 0x3d, 0x91, 0x9c, 0x68, 0x3e, 0xf3, 0x9c, 0x5b, 0x3e,
  0xd5, 0x4a, 0x00, 0x3e, 0x4e, 0x85, 0xc2, 0x3d, 0x58, 0xd5, 0x54, 0x3d,
  0x74, 0xf7, 0xbb, 0x3d, 0x66, 0x47, 0xf4, 0xbc, 0xf8, 0x45, 0xe0, 0xbd,
  0x9c, 0x67, 0x4d, 0x3e, 0xcc, 0x87, 0xe4, 0x3c, 0x43, 0x8e, 0x1f, 0x3e,
  0xed, 0x3e, 0x5b, 0x3e, 0xb0, 0x26, 0xfa, 0xbd, 0x2b, 0xfd, 0x62, 0x3e,
  0x41, 0xb7, 0xad, 0x3d, 0x7a, 0x8e, 0x44, 0xbd, 0x63, 0xb3, 0x85, 0xbc,
  0xca, 0x9c, 0x47, 0x3d, 0x55, 0x81, 0x3b, 0xbd, 0xad, 0xe8, 0x00, 0x3e,
  0x08, 0x1b, 0x31, 0x3e, 0x88, 0xd4, 0xab, 0xbc, 0x8c, 0x7a, 0x43, 0xbe,
  0x1e, 0x2d, 0xb4, 0x3c, 0x7d, 0x87, 0x88, 0x3d, 0x38, 0xf6, 0x28, 0x3d,
  0xcb, 0x00, 0x80, 0xbe, 0x78, 0x1d, 0x43, 0x3c, 0x7a, 0xee, 0x4c, 0xbe,
  0xe5, 0x62, 0x4d, 0x3d, 0x98, 0xc4, 0x85, 0x3d, 0x60, 0xa0, 0x08, 0xb7,
  0xb6, 0xc2, 0x13, 0x3e, 0x4f, 0xfc, 0x1a, 0x3e, 0x1e, 0x67, 0x8a, 0xbe,
  0x08, 0x40, 0x80, 0x3b, 0xd9, 0xe0, 0x29, 0xbe, 0x83, 0x2d, 0x05, 0x3d,
  0x24, 0x95, 0x3b, 0x3d, 0x5a, 0xa3, 0x02, 0xbd, 0x51, 0x6a, 0x42, 0xbe,
  0xd7, 0x67, 0x49, 0x3d, 0x1b, 0x6c, 0xc5, 0xbd, 0x33, 0x31, 0x5f, 0xbe,
  0xf2, 0x88, 0x0a, 0xbd, 0x3c, 0x78, 0x57, 0x3d, 0xf2, 0xb2, 0x0e, 0xbd,
  0x8d, 0x6d, 0x1b, 0xbe, 0x97, 0xb0, 0x30, 0xbe, 0x3e, 0x37, 0xfa, 0xbc,
  0xb5, 0x96, 0x55, 0xbe, 0x98, 0x80, 0x3c, 0x3d, 0x0d, 0x65, 0x02, 0xbe,
  0xa2, 0xad, 0x39, 0xbe, 0x53, 0xfa, 0x55, 0xbe, 0xce, 0x8c, 0x60, 0xbe,
  0x9d, 0xfc, 0x0d, 0xbe, 0xbb, 0xb6, 0x8b, 0xbe, 0x40, 0x03, 0x67, 0xbd,
  0x89, 0x59, 0x2b, 0xbd, 0x78, 0xe0, 0xb2, 0xbd, 0x4b, 0x66, 0xfc, 0x3c,
  0x39, 0xe4, 0xfe, 0x3c, 0xec, 0xf3, 0x31, 0xbe, 0xcf, 0x12, 0xb7, 0x3d,
  0x1b, 0x29, 0x8f, 0xbb, 0x92, 0xc4, 0x43, 0xbe, 0x6f, 0xc1, 0x3d, 0xbc,
  0x93, 0xcb, 0xa6, 0xbd, 0x83, 0x5e, 0xb2, 0xbd, 0x7b, 0x14, 0xd3, 0xbc,
  0xab, 0x02, 0xc5, 0xbc, 0xdd, 0x53, 0xa9, 0xbd, 0x24, 0xbe, 0x8e, 0xbd,
  0xbe, 0xcb, 0xaf, 0xbd, 0xda, 0xf3, 0x10, 0xbe, 0x2c, 0x37, 0xb0, 0xbd,
  0xa9, 0x6f, 0x43, 0x3e, 0x07, 0xb1, 0x14, 0x3d, 0xb8, 0xbd, 0x22, 0xbe,
  0x05, 0x5d, 0xa4, 0x3d, 0xf0, 0x05, 0xa5, 0x3d, 0x7f, 0x15, 0xae, 0xbd,
  0x12, 0x53, 0x88, 0x3d, 0x03, 0x3f, 0xb6, 0x3d, 0xa0, 0xbc, 0x61, 0xbe,
  0x69, 0x32, 0x63, 0xbd, 0x1d, 0x3d, 0x2e, 0x3e, 0x6d, 0xa6, 0x25, 0x3e,
  0xdf, 0xa7, 0x50, 0x3e, 0xb9, 0xdb, 0x1c, 0x3e, 0x40, 0xc7, 0xfd, 0x3c,
  0xa8, 0x26, 0x2d, 0x3e, 0x17, 0xe1, 0x4c, 0x3e, 0x08, 0x39, 0x1d, 0xbd,
  0x68, 0x06, 0x67, 0xbc, 0xd0, 0x84, 0x83, 0x3e, 0xfc, 0x9a, 0x37, 0xbd,
  0x24, 0x21, 0x09, 0xbe, 0xb0, 0xd6, 0x1b, 0x3e, 0xb1, 0x99, 0xb2, 0xbd,
  0x41, 0x0f, 0x18, 0xbe, 0x27, 0xe5, 0x50, 0xbd, 0x84, 0xfc, 0x5b, 0xbe,
  0x4d, 0x8e, 0xab, 0x3d, 0xcf, 0xa2, 0x59, 0x3d, 0x8e, 0xcb, 0x01, 0xbe,
  0x26, 0x90, 0x2e, 0x3e, 0xa8, 0x76, 0xee, 0xbd, 0x37, 0xb1, 0x63, 0x3d,
  0x44, 0xa2, 0xc8, 0xbd, 0x3a, 0xe6, 0xc0, 0x3c, 0x64, 0xf6, 0x3c, 0xbe,
  0x64, 0x8c, 0x73, 0x3d, 0xcd, 0xfd, 0xa4, 0xbc, 0x19, 0xb3, 0x65, 0x3c,
  0xd9, 0x70, 0x31, 0xbe, 0x5a, 0x9a, 0x83, 0xbd, 0xfa, 0x78, 0x1a, 0xbe,
  0x6e, 0x46, 0xb9, 0x3d, 0x53, 0x92, 0x91, 0xbe, 0x0e, 0x45, 0x6e, 0xbe,
  0x17, 0x8e, 0xe2, 0xbd, 0x12, 0x47, 0x9f, 0xbd, 0xd8, 0xc9, 0x18, 0xbe,
  0xd3, 0xda, 0xbd, 0xbd, 0x88, 0xff, 0x36, 0x3b, 0xd3, 0x0d, 0xfd, 0x3d,
  0xd0, 0xa7, 0x40, 0xbe, 0x58, 0xe6, 0x3a, 0xbe, 0xe6, 0x46, 0xaf, 0xbd,
  0x34, 0x0e, 0x24, 0xbe, 0xab, 0x53, 0xb0, 0x3b, 0x30, 0x17, 0x82, 0x3e,
  0xca, 0x8e, 0x27, 0x3e, 0x20, 0x11, 0xe4, 0xbc, 0xf9, 0x1d, 0x5a, 0x3c,
  0xab, 0x34, 0x34, 0x3e, 0x6f, 0x79, 0x43, 0x3e, 0xd3, 0x21, 0x85, 0xbd,
  0x82, 0xc1, 0x34, 0xbe, 0xfa, 0x2e, 0x02, 0x3d, 0x3e, 0x3f, 0x55, 0x3d,
  0x6d, 0x93, 0xd8, 0xbd, 0x3f, 0x93, 0x11, 0xbe, 0x86, 0x0a, 0x2d, 0x3d,
  0xa7, 0xef, 0xaf, 0x3d, 0xd7, 0x83, 0x28, 0xbd, 0xe8, 0x91, 0x2d, 0x3e,
  0x31, 0xf7, 0x5a, 0x3d, 0x2d, 0xc0, 0x23, 0x3e, 0x51, 0x94, 0xef, 0x3d,
  0x9f, 0x84, 0x7d, 0xbd, 0x06, 0xe8, 0xe1, 0xbd, 0x51, 0xc6, 0x60, 0xbe,
  0x00, 0x22, 0xd0, 0x3d, 0x01, 0x4c, 0x73, 0x3d, 0x7d, 0xf7, 0xf6, 0xbc,
  0xe2, 0x0f, 0x46, 0xbe, 0x6b, 0x2a, 0x8e, 0x3d, 0x24, 0x03, 0x81, 0x3e,
  0x47, 0x37, 0x62, 0xbe, 0xef, 0x4b, 0x90, 0xbd, 0x2a, 0xa1, 0x0f, 0xbe,
  0x79, 0x36, 0x12, 0x3e, 0xc7, 0x31, 0xe1, 0x3d, 0xe5, 0x66, 0x36, 0xbe,
  0x95, 0x6e, 0x38, 0xbe, 0x9c, 0xcd, 0x5d, 0x3d, 0x1a, 0x9d, 0x54, 0x3e,
  0xeb, 0x11, 0xe8, 0xbd, 0xc7, 0x88, 0xf9, 0xbb, 0xfa, 0xa0, 0xa0, 0xbd,
  0x22, 0x7e, 0x38, 0x3e, 0x7a, 0xb8, 0x2f, 0x3e, 0x2d, 0xbe, 0x8a, 0xbd,
  0xce, 0x99, 0x2f, 0x3c, 0x45, 0xbb, 0x02, 0x3e, 0x31, 0xa5, 0x57, 0x3e,
  0x49, 0x37, 0xdc, 0x3c, 0x04, 0x22, 0x26, 0x3e, 0x5b, 0xa5, 0x39, 0x3d,
  0x80, 0x47, 0xb2, 0x3d, 0x9f, 0x97, 0xd8, 0xbd, 0xc9, 0x2b, 0x1e, 0x3d,
  0xc6, 0x0e, 0x2f, 0xbe, 0x00, 0x57, 0x07, 0x3e, 0x15, 0xba, 0x41, 0xbe,
  0x06, 0xb3, 0x5f, 0xbe, 0x15, 0x8f, 0xf5, 0x3c, 0xba, 0x90, 0x6e, 0xbe,
  0x82, 0x3a, 0x89, 0xbe, 0xd1, 0x01, 0x87, 0x3d, 0x3c, 0x67, 0x16, 0xbe,
  0xfc, 0x5b, 0x64, 0xbd, 0x88, 0xe9, 0x7a, 0xbe, 0x31, 0x7c, 0x69, 0xbe,
  0x41, 0x6d, 0x8b, 0xbe, 0x76, 0x28, 0x5d, 0xbe, 0x18, 0x29, 0xf0, 0x3d,
  0x9a, 0xd1, 0xc5, 0x3d, 0x68, 0x93, 0xfe, 0x3d, 0x18, 0x97, 0xf6, 0x3d,
  0x2e, 0x81, 0x8c, 0xbe, 0xfd, 0x96, 0x27, 0xbc, 0x64, 0xc9, 0x77, 0xbd,
  0xd3, 0xd4, 0x3f, 0xbe, 0x58, 0x8c, 0x6e, 0x3e, 0x9e, 0xb1, 0xf5, 0xbc,
  0x25, 0xcc, 0x11, 0xbe, 0xc1, 0xa4, 0xa9, 0x3c, 0x0f, 0x22, 0xde, 0x3d,
  0x58, 0x50, 0x02, 0xbe, 0x9b, 0x93, 0x79, 0xbe, 0xbf, 0x28, 0x32, 0xbe,
  0xd3, 0x78, 0x6f, 0xbe, 0xe9, 0x68, 0xb3, 0xba, 0xa8, 0xba, 0x73, 0xbe,
  0xdf, 0x60, 0x5b, 0xbe, 0xcd, 0x7a, 0x15, 0xbd, 0xc1, 0x5e, 0x06, 0x3e,
  0x14, 0xef, 0xa1, 0xbd, 0xb5, 0x41, 0x6a, 0xbe, 0x3e, 0xd2, 0xdf, 0x3d,
  0x87, 0xdb, 0x74, 0x3e, 0x07, 0x7e, 0x51, 0xbd, 0xa6, 0xdd, 0x03, 0x3d,
  0x94, 0xe5, 0x04, 0xbe, 0xa7, 0xa4, 0xb7, 0x3c, 0x8b, 0xe2, 0x0f, 0x3d,
  0x4a, 0x43, 0x12, 0x3e, 0x1e, 0x90, 0x39, 0xbe, 0xc8, 0xd0, 0x1d, 0xbe,
  0xf6, 0x16, 0x23, 0x3d, 0x55, 0xf5, 0xce, 0x3d, 0x74, 0x91, 0x08, 0x3e,
  0x3e, 0x56, 0x9c, 0xbc, 0x82, 0x4e, 0xae, 0x3a, 0xf2, 0xc6, 0x54, 0xbe,
  0xef, 0xad, 0x8c, 0xbe, 0x90, 0xc5, 0x40, 0xbe, 0x68, 0x6e, 0x04, 0x3e,
  0x91, 0x66, 0x83, 0xbe, 0xad, 0xe7, 0xc1, 0xbd, 0xa5, 0x64, 0xc1, 0xbd,
  0x3d, 0xe8, 0x40, 0xbd, 0x73, 0x69, 0x1e, 0xbb, 0x35, 0xa6, 0x2a, 0x3d,
  0xf4, 0x7a, 0x84, 0xbe, 0xde, 0xfb, 0x67, 0xbd, 0x82, 0x28, 0xdc, 0x3d,
  0x1d, 0xad, 0xff, 0xbd, 0x43, 0x38, 0x84, 0xbb, 0x79, 0x30, 0x50, 0xbc,
  0xb2, 0xd4, 0x33, 0xbe, 0x0a, 0xfc, 0xf3, 0xbd, 0x5d, 0xd4, 0x4f, 0xbd,
  0xfc, 0x60, 0xc4, 0x3c, 0x8e, 0xc4, 0xd3, 0xbd, 0xc4, 0x6d, 0xe9, 0x3a,
  0x4f, 0x3d, 0x5d, 0xbe, 0x10, 0xe4, 0x28, 0xbe, 0x9b, 0xc8, 0x03, 0xbe,
  0x7a, 0x97, 0x80, 0x3b, 0xb5, 0xba, 0xe9, 0x3d, 0xe0, 0xbe, 0x57, 0xbe,
  0xae, 0x90, 0xd9, 0x3d, 0xf0, 0xfb, 0x1b, 0xbe, 0xfc, 0x71, 0x94, 0x3d,
  0x1b, 0x74, 0x14, 0xbe, 0x04, 0xbf, 0xa5, 0x3d, 0x8c, 0x2f, 0x87, 0xbe,
  0x89, 0xd1, 0x8b, 0xbe, 0x00, 0x6b, 0xeb, 0xbc, 0xdb, 0x19, 0xac, 0x3d,
  0xcb, 0x5a, 0x2f, 0xbd, 0xef, 0xb5, 0x8e, 0xbd, 0x7e, 0xd3, 0x46, 0x3e,
  0x40, 0xa5, 0xd9, 0xbd, 0x91, 0x25, 0xe0, 0xbb, 0xd8, 0x11, 0xc4, 0xbd,
  0xb2, 0x09, 0x5d, 0x3d, 0x4e, 0x00, 0x5d, 0xbd, 0x0b, 0x04, 0x07, 0xbe,
  0x07, 0x1b, 0x87, 0xbe, 0x00, 0x8d, 0x8a, 0xbe, 0xa6, 0x0e, 0xb4, 0x3e,
  0x15, 0x35, 0x19, 0x3e, 0x18, 0x05, 0x6f, 0xbe, 0xc9, 0x01, 0x5e, 0x3d,
  0x51, 0x90, 0x4c, 0xbe, 0x5f, 0xa6, 0x16, 0xbe, 0x0d, 0x6a, 0xed, 0x3c,
  0x5a, 0x57, 0x3d, 0xbe, 0x3f, 0x3c, 0x25, 0xbe, 0xe5, 0x89, 0x7b, 0x3e,
  0x74, 0x6f, 0x4e, 0x3e, 0x70, 0x6f, 0xb0, 0xbc, 0x00, 0xc3, 0xdb, 0x3d,
  0xf1, 0x20, 0x53, 0x3e, 0x44, 0xf9, 0x0d, 0x3d, 0xff, 0xa6, 0x5c, 0xbd,
  0xe2, 0x3b, 0x6a, 0x3d, 0x34, 0x16, 0x54, 0xbe, 0x6d, 0xed, 0x1f, 0xbd,
  0x38, 0x51, 0x82, 0xbc, 0x1a, 0x49, 0x25, 0xbe, 0x20, 0xa0, 0x9a, 0x3d,
  0x78, 0xd5, 0x17, 0x3e, 0xf6, 0x0d, 0xf8, 0x3d, 0xed, 0x7d, 0x2f, 0xbe,
  0x63, 0x81, 0x55, 0xbe, 0x25, 0x16, 0x9d, 0xbd, 0x07, 0x8f, 0xfc, 0x3d,
  0xf4, 0x3b, 0xa3, 0xbe, 0x3b, 0xf6, 0xf3, 0x3b, 0x82, 0x3a, 0x91, 0xbd,
  0xa8, 0xd4, 0x44, 0xbd, 0x61, 0xf6, 0xb6, 0xbd, 0xa6, 0xc5, 0x50, 0xbe,
  0x07, 0x32, 0x76, 0xbe, 0x06, 0x7f, 0xa2, 0xbe, 0x26, 0x8b, 0xe8, 0xbd,
  0x4a, 0x56, 0x50, 0xbe, 0x8b, 0xdb, 0x76, 0xbe, 0xe9, 0xa7, 0x40, 0xbc,
  0x6e, 0xef, 0x0b, 0xbe, 0x22, 0x28, 0x96, 0xbd, 0xf9, 0x87, 0xc3, 0x3d,
  0x16, 0x51, 0x1b, 0xbe, 0x7a, 0x7d, 0x8e, 0xbd, 0x43, 0xde, 0xbf, 0xbd,
  0xcb, 0x25, 0x39, 0x3d, 0x2f, 0xaf, 0xe8, 0x3c, 0xf4, 0x7e, 0x88, 0xbd,
  0xef, 0x01, 0x55, 0xbe, 0x4b, 0xd8, 0x9f, 0x3d, 0x40, 0xee, 0x4b, 0x3d,
  0x67, 0x66, 0x8b, 0xbe, 0x7d, 0x81, 0x9b, 0xbe, 0x1b, 0x31, 0x54, 0x3e,
  0x0b, 0x3a, 0xcb, 0x3d, 0x89, 0x07, 0x44, 0x3e, 0xae, 0xf5, 0xb8, 0xbd,
  0x77, 0xcd, 0x98, 0x3d, 0xc3, 0xfa, 0x90, 0x3c, 0xbb, 0x1e, 0x0f, 0xbe,
  0xe1, 0x21, 0xb1, 0xbc, 0x66, 0x76, 0x88, 0xbe, 0x64, 0x1a, 0xef, 0x3d,
  0xa1, 0x36, 0xbc, 0xbd, 0x34, 0x94, 0x47, 0xbe, 0xa4, 0xe3, 0xb0, 0x3d,
  0xf2, 0x5b, 0x0e, 0xbe, 0x03, 0x1b, 0x2d, 0x3a, 0xf9, 0x63, 0xa7, 0x3d,
  0x39, 0x5c, 0x92, 0xbc, 0x25, 0xfc, 0x7b, 0xbe, 0x52, 0x5d, 0xc1, 0x3d,
  0x2a, 0xff, 0x08, 0x3c, 0x6e, 0x8e, 0x9f, 0xbd, 0xe2, 0xc4, 0x5f, 0xbd,
  0xbb, 0x91, 0xa0, 0x3d, 0x05, 0xeb, 0x34, 0xbe, 0xa3, 0x71, 0x8b, 0xbd,
  0x66, 0xb5, 0x17, 0xb9, 0x4e, 0x0b, 0xa1, 0x3c, 0x6f, 0x7d, 0x98, 0xbd,
  0x62, 0x82, 0x81, 0x3e, 0xac, 0xf2, 0x2a, 0x3e, 0x6a, 0xa8, 0xd2, 0xbb,
  0x5c, 0xfb, 0x46, 0xbc, 0x32, 0xb4, 0xf1, 0xbb, 0x07, 0x6b, 0xab, 0x3d,
  0x0b, 0x49, 0x73, 0xbd, 0x70, 0xa5, 0x73, 0x3d, 0xa5, 0x23, 0xb1, 0xbb,
  0x28, 0x6d, 0x7e, 0xbb, 0x20, 0x9d, 0xea, 0xbd, 0x14, 0x55, 0x17, 0x3e,
  0x52, 0x6a, 0x2c, 0x3d, 0xdd, 0xeb, 0x71, 0x3d, 0x79, 0x5e, 0xd3, 0x3d,
  0xec, 0x02, 0x38, 0x3e, 0xf0, 0x64, 0xb0, 0xbd, 0x4a, 0x53, 0x9f, 0x3d,
  0x2e, 0xb3, 0x7b, 0x3e, 0xe3, 0x24, 0xb5, 0x3d, 0x95, 0x8a, 0x8c, 0xbd,
  0xc1, 0x27, 0x32, 0x3e, 0xba, 0x8c, 0x5c, 0x3d, 0x7f, 0x46, 0x65, 0x3c,
  0x11, 0xd7, 0x97, 0x3d, 0xaa, 0x08, 0x06, 0xbe, 0x9b, 0x1f, 0xbd, 0xbc,
  0xa3, 0xd4, 0x2e, 0xbd, 0x13, 0x20, 0x55, 0x3e, 0x8d, 0x0e, 0x8b, 0x3d,
  0x47, 0xbc, 0xc8, 0x3b, 0xe4, 0xd6, 0x20, 0xbd, 0x70, 0xa7, 0x21, 0xbe,
  0xb3, 0x0f, 0xcd, 0x3d, 0xd3, 0x53, 0x6f, 0x3e, 0xd4, 0xbe, 0x7c, 0x3c,
  0xd4, 0xcb, 0x53, 0x3d, 0xf3, 0x9f, 0x2c, 0xbe, 0x88, 0x9c, 0x1b, 0xbe,
  0xbd, 0x0f, 0xcf, 0x3d, 0x61, 0xaf, 0x4a, 0xbe, 0xf5, 0x28, 0x90, 0xb8,
  0x09, 0x14, 0x36, 0x3d, 0xea, 0x17, 0x52, 0xbc, 0x5d, 0x4a, 0x3c, 0xbd,
  0x08, 0x81, 0x1f, 0xbe, 0x64, 0xe5, 0x73, 0xbd, 0x96, 0x68, 0x68, 0x3d,
  0x37, 0xb9, 0x1a, 0xbe, 0x73, 0x3e, 0x03, 0x3e, 0x7a, 0x3a, 0x9b, 0x3d,
  0x8d, 0x25, 0xaa, 0xbd, 0xce, 0xbc, 0x84, 0x3e, 0x24, 0x1c, 0x8a, 0xbb,
  0xaf, 0x37, 0x05, 0xbe, 0x6e, 0x5a, 0x30, 0x3a, 0xaa, 0xd2, 0xb7, 0x3d,
  0x88, 0x11, 0x86, 0xbe, 0x92, 0xba, 0xf5, 0xbd, 0xc3, 0x65, 0x6b, 0xbe,
  0x9b, 0x7c, 0x53, 0xbc, 0xb3, 0xaa, 0x5e, 0x3d, 0xa6, 0xf1, 0x63, 0x3e,
  0x00, 0x2a, 0x0b, 0xbd, 0xc0, 0xa4, 0x11, 0x3e, 0xba, 0x4b, 0xfd, 0x3d,
  0xd4, 0x04, 0x99, 0xbd, 0xeb, 0x6a, 0xa1, 0xbd, 0xaa, 0x0e, 0x4d, 0x3e,
  0xae, 0x35, 0xa1, 0x3d, 0xc0, 0xb5, 0xf9, 0x3c, 0xe8, 0x9e, 0xe9, 0xbd,
  0x6d, 0xba, 0xfd, 0x3d, 0x98, 0x10, 0x8b, 0x3e, 0x3e, 0x98, 0x93, 0x3d,
  0x18, 0xa8, 0x6c, 0x3e, 0x0c, 0x47, 0xc0, 0xbd, 0xd6, 0x29, 0x03, 0x3d,
  0x7d, 0x45, 0x30, 0xbe, 0xbb, 0xb0, 0x06, 0x3e, 0xf3, 0xb2, 0x91, 0xbe,
  0x92, 0x9e, 0x8b, 0xbd, 0xd9, 0xda, 0xe9, 0x3d, 0xa5, 0x11, 0xc2, 0x3d,
  0xe4, 0x3e, 0xfa, 0xbd, 0xf4, 0xa8, 0x55, 0xbd, 0x6a, 0x2b, 0x74, 0xbe,
  0xef, 0x9d, 0x9c, 0xbd, 0x22, 0x6c, 0x5d, 0xbd, 0x56, 0x98, 0xa8, 0x3d,
  0x95, 0x87, 0x04, 0x3e, 0xd2, 0x82, 0xe3, 0x3d, 0x73, 0xfd, 0xcd, 0xbd,
  0x7e, 0xc5, 0x21, 0x3e, 0x9d, 0xd2, 0x71, 0x3e, 0x3f, 0xd0, 0x1c, 0xbe,
  0xb1, 0x76, 0x49, 0x3e, 0xb9, 0x26, 0x6d, 0x3e, 0xab, 0x0e, 0x73, 0x3d,
  0x57, 0xe3, 0x34, 0xbe, 0xd7, 0xe3, 0xb3, 0xbd, 0xc3, 0x9b, 0x0b, 0x3c,
  0xad, 0x1f, 0x2f, 0xbe, 0x1d, 0xe5, 0x3f, 0xbd, 0x50, 0x1c, 0x0e, 0xbe,
  0xe9, 0x59, 0x25, 0xbe, 0x8e, 0x2b, 0x47, 0x3e, 0x6b, 0x3a, 0x00, 0xbd,
  0x87, 0xfa, 0x9a, 0x3d, 0x44, 0x9c, 0x0f, 0xbe, 0x36, 0x31, 0x53, 0xbe,
  0x7a, 0x47, 0x02, 0x3e, 0x2e, 0xa7, 0x1c, 0x3e, 0xf1, 0x60, 0xbb, 0x3d,
  0xa8, 0x09, 0x16, 0x3d, 0xd5, 0x2b, 0x54, 0x3e, 0x50, 0x3b, 0xc9, 0xbc,
  0x95, 0x97, 0x07, 0x3e, 0xea, 0xcb, 0xad, 0xbb, 0x7a, 0xa2, 0x48, 0x3d,
  0xb1, 0x0f, 0x16, 0x3e, 0x6b, 0x52, 0x40, 0xbd, 0x94, 0xf9, 0x03, 0xbe,
  0x6c, 0x17, 0x0c, 0xbe, 0x88, 0x00, 0x53, 0x3e, 0xfd, 0x7c, 0xff, 0x3c,
  0x1a, 0x20, 0x02, 0x3d, 0xfd, 0xd1, 0x5f, 0xbe, 0xc0, 0x25, 0xa7, 0x3d,
  0x2e, 0xe5, 0x94, 0x3c, 0xb0, 0xcb, 0xec, 0x3d, 0xb0, 0x52, 0xbe, 0xbc,
  0x14, 0x47, 0x08, 0x3e, 0xec, 0x69, 0x0e, 0x3d, 0x9c, 0x40, 0x02, 0xbd,
  0x62, 0x33, 0xad, 0x3d, 0x46, 0x3d, 0x4d, 0xbe, 0x31, 0x5f, 0x2e, 0x3e,
  0xd3, 0x73, 0xae, 0xbd, 0x02, 0x42, 0x10, 0x3e, 0xb7, 0x10, 0x0b, 0xbe,
  0x7f, 0xd0, 0xfa, 0x3d, 0x40, 0xee, 0xb5, 0x3d, 0x9d, 0x05, 0x29, 0xbe,
  0x66, 0x6c, 0x37, 0x3d, 0xdf, 0xf6, 0x5f, 0x3d, 0x5d, 0x85, 0x0c, 0x3e,
  0x85, 0x4c, 0x69, 0xbd, 0xa8, 0xf9, 0x8b, 0xbd, 0xf3, 0x4d, 0x9b, 0x3d,
  0x8b, 0x5c, 0x64, 0x3e, 0x11, 0x85, 0x7e, 0x3d, 0x31, 0xc5, 0x27, 0x3e,
  0x2c, 0x10, 0xca, 0x3d, 0x83, 0xda, 0x13, 0xbe, 0xb2, 0x15, 0x42, 0x3e,
  0xb1, 0xeb, 0x8d, 0xbc, 0x1c, 0x4d, 0x24, 0xbe, 0x7f, 0xff, 0x13, 0x3e,
  0x25, 0x27, 0x4d, 0x3e, 0x1f, 0x7a, 0x96, 0xbd, 0xc3, 0xba, 0xce, 0x3d,
  0x8a, 0x0c, 0xbc, 0x3d, 0x09, 0x4d, 0x5e, 0xbe, 0x34, 0xcc, 0x41, 0xbe,
  0xf0, 0xf6, 0x12, 0x3e, 0x9f, 0x5b, 0x68, 0xbd, 0x5e, 0x19, 0x3e, 0xbd,
  0x5d, 0xcf, 0xb4, 0x3b, 0xce, 0xf5, 0x1b, 0xbd, 0xc3, 0x9e, 0xd3, 0x3d,
  0x7e, 0x3f, 0xd8, 0x3d, 0x86, 0x29, 0xba, 0x3d, 0xa8, 0x9d, 0xfb, 0xbd,
  0xdb, 0x35, 0xee, 0x3d, 0xb2, 0xc8, 0xa0, 0x3b, 0x1e, 0x13, 0x00, 0x3e,
  0x9e, 0x76, 0x22, 0xbe, 0x30, 0x4f, 0x86, 0x3d, 0xb2, 0xef, 0x29, 0xbe,
  0x91, 0xc3, 0x9f, 0x3d, 0x88, 0xdf, 0x9f, 0x3c, 0xb6, 0x12, 0x00, 0xbe,
  0x09, 0x41, 0xcf, 0xbd, 0x4e, 0xb2, 0x42, 0xbe, 0x8c, 0x9e, 0x73, 0xbe,
  0x01, 0xca, 0x7c, 0xbc, 0xbe, 0xa3, 0x27, 0xbd, 0x18, 0xe1, 0xbf, 0xbd,
  0xb6, 0x22, 0xc1, 0xbd, 0x27, 0x61, 0x33, 0x3e, 0xdf, 0x13, 0x5e, 0x3e,
  0xd7, 0x63, 0xaa, 0xbb, 0x54, 0xce, 0x89, 0x3d, 0x3d, 0x00, 0x36, 0x3d,
  0xe9, 0xb6, 0x49, 0xbe, 0xf1, 0xdf, 0xc3, 0x3c, 0x68, 0xe1, 0xb2, 0x3c,
  0x94, 0xb8, 0x37, 0x3d, 0x51, 0xc3, 0xda, 0x3d, 0x8b, 0x2c, 0x65, 0x3e,
  0x02, 0x0f, 0x07, 0x3e, 0x45, 0x7c, 0x8b, 0x3e, 0xf0, 0x82, 0x1f, 0x3c,
  0x54, 0xc9, 0xf0, 0x3d, 0x40, 0x91, 0x12, 0xbd, 0x02, 0xd2, 0x02, 0xbc,
  0xc4, 0x02, 0xb1, 0x3d, 0xcd, 0xf7, 0xc9, 0xbc, 0xfd, 0x19, 0xe7, 0x3d,
  0x9f, 0x78, 0xec, 0x3d, 0x66, 0xa2, 0x27, 0xbd, 0xaa, 0x1e, 0x4b, 0xbd,
  0x5a, 0xbf, 0x6d, 0x3d, 0xdb, 0x58, 0x9d, 0x3b, 0xc7, 0xfb, 0x23, 0x3e,
  0x24, 0x2e, 0xe9, 0x3d, 0x8a, 0x97, 0xc3, 0xbc, 0xfb, 0x66, 0x59, 0x3b,
  0x5b, 0xd8, 0x09, 0x3e, 0x68, 0xa2, 0x8d, 0xbd, 0x7f, 0xf9, 0xc7, 0x3c,
  0xd3, 0xea, 0x67, 0xbc, 0x07, 0x9b, 0x7d, 0xbd, 0x49, 0x41, 0xb1, 0xbc,
  0x1f, 0x6a, 0xb1, 0x3d, 0x54, 0x73, 0x03, 0x3e, 0x26, 0x03, 0x37, 0x3d,
  0x20, 0x62, 0x35, 0x3e, 0xe1, 0x13, 0x6c, 0xbb, 0x1b, 0x66, 0x67, 0x3d,
  0x4d, 0xbc, 0x94, 0x3d, 0x2d, 0x91, 0x49, 0xbe, 0x39, 0x11, 0x05, 0xbe,
  0xc2, 0x71, 0x3c, 0x3d, 0x18, 0x2d, 0xb7, 0x3d, 0x47, 0xae, 0x42, 0x3b,
  0xa1, 0x7f, 0xed, 0xbd, 0x63, 0xec, 0xff, 0x3d, 0x4b, 0x75, 0x3e, 0xbe,
  0xe2, 0x1e, 0x78, 0x3d, 0x7f, 0xc8, 0x5a, 0xbd, 0x48, 0x47, 0x80, 0xbc,
  0x44, 0x4d, 0x15, 0xbe, 0x06, 0xa1, 0x00, 0x3e, 0xc4, 0x14, 0xce, 0xbd,
  0x95, 0xa1, 0x2c, 0x3e, 0xd2, 0xcc, 0xc2, 0xbd, 0x0b, 0x30, 0x10, 0xbe,
  0x5e, 0x57, 0xe3, 0xbd, 0x4a, 0x8e, 0x08, 0xbe, 0x5e, 0x39, 0x1b, 0x3e,
  0x7f, 0xb6, 0xfb, 0x3d, 0x34, 0xa0, 0xae, 0xbd, 0x56, 0x1c, 0x15, 0xbe,
  0xf5, 0xbe, 0x41, 0x3e, 0x35, 0x86, 0xe5, 0x3c, 0x6b, 0xd7, 0xb0, 0xbd,
  0xbe, 0x78, 0x0b, 0xbe, 0x28, 0x81, 0xf6, 0x3d, 0xc1, 0xee, 0x7c, 0xbe,
  0x87, 0xe8, 0x23, 0xbe, 0xf0, 0xdb, 0x6b, 0xbe, 0x21, 0x29, 0x58, 0xbe,
  0x8b, 0x14, 0x73, 0xbe, 0xcc, 0xe2, 0x81, 0xbe, 0xf8, 0x71, 0x6a, 0xbe,
  0x93, 0x7c, 0x65, 0xbe, 0xeb, 0x7f, 0xd6, 0x3d, 0x78, 0x7f, 0x8b, 0x3c,
  0x09, 0xa5, 0x2a, 0xbe, 0xc8, 0xd3, 0x0e, 0xbe, 0x59, 0xd8, 0x71, 0xbc,
  0x1c, 0x5f, 0x53, 0xbe, 0x2e, 0x03, 0x29, 0x3e, 0x8c, 0xfa, 0xa1, 0x3d,
  0x9b, 0x1e, 0x01, 0xbe, 0x1d, 0x76, 0x81, 0xbe, 0x31, 0xa4, 0xa1, 0xbc,
  0x22, 0xe8, 0x41, 0xbd, 0xa9, 0xe7, 0xe4, 0xbd, 0xd4, 0xf7, 0xfd, 0xbd,
  0x38, 0x1d, 0x9c, 0xbd, 0xe1, 0x58, 0xfa, 0x3d, 0x61, 0x89, 0x04, 0xbe,
  0xa3, 0x63, 0x15, 0x3e, 0xd2, 0xa7, 0x0c, 0x3e, 0x4c, 0x64, 0x2b, 0xbe,
  0x51, 0x6c, 0x80, 0x3d, 0x1f, 0x31, 0x34, 0xbe, 0x2a, 0xe0, 0x21, 0xbe,
  0x0e, 0x1a, 0x0d, 0x3e, 0x02, 0xcb, 0x2e, 0x3d, 0xeb, 0x23, 0xed, 0x3d,
  0x0f, 0x74, 0x1b, 0x3e, 0x56, 0xc6, 0x4a, 0xbe, 0xb3, 0x6a, 0x31, 0xbd,
  0xc4, 0x88, 0xd6, 0xbd, 0x7f, 0x83, 0xdf, 0xbd, 0x3a, 0x98, 0xa8, 0xbd,
  0xa1, 0xe3, 0xc4, 0xbd, 0xc7, 0x48, 0xee, 0xbd, 0x04, 0xcb, 0x07, 0x3d,
  0x09, 0x14, 0x20, 0x3e, 0x2c, 0x3f, 0x5d, 0x3d, 0x35, 0x79, 0x27, 0x3d,
  0xf4, 0x6e, 0xd2, 0xbd, 0xf4, 0x4b, 0x0c, 0x3e, 0xd9, 0xa8, 0x61, 0x3e,
  0x77, 0x77, 0xcf, 0x3d, 0xf4, 0xf1, 0x0d, 0xbc, 0x59, 0x7b, 0x70, 0xbd,
  0xa5, 0x85, 0xb7, 0xbb, 0x09, 0x26, 0x5b, 0xbd, 0xf5, 0xf4, 0xf6, 0x3d,
  0x2d, 0xdb, 0xcb, 0xbc, 0xee, 0x18, 0xd9, 0x3d, 0x2d, 0xa0, 0x6b, 0xbd,
  0x13, 0x25, 0x90, 0xbd, 0xd0, 0x90, 0xf5, 0xbc, 0xaa, 0x66, 0x68, 0x3e,
  0x4b, 0x8c, 0x1d, 0x3e, 0x92, 0xa6, 0xd1, 0xbd, 0xbe, 0x80, 0x77, 0xbd,
  0x59, 0x45, 0x4a, 0x3e, 0xc8, 0x51, 0xe6, 0x3d, 0xaa, 0x96, 0x94, 0xbc,
  0xb0, 0x5f, 0x2c, 0x3e, 0x3a, 0x17, 0xa1, 0xbc, 0x7d, 0xe6, 0x3d, 0xbe,
  0x26, 0x18, 0x0e, 0x3e, 0x20, 0x44, 0xf5, 0xbd, 0x2e, 0x51, 0x5c, 0xbd,
  0x28, 0x8d, 0xae, 0xbd, 0xa4, 0x23, 0x34, 0x3c, 0x2d, 0x90, 0x25, 0x3e,
  0xf3, 0x09, 0xbc, 0xbd, 0x22, 0x8d, 0x1e, 0x3d, 0xab, 0xcd, 0x0d, 0xbd,
  0x80, 0x78, 0xa9, 0xbd, 0xc6, 0xca, 0xfe, 0x3d, 0x24, 0xac, 0x84, 0xbc,
  0x34, 0x5a, 0x37, 0x3d, 0x2d, 0x62, 0x1d, 0xbe, 0x7b, 0x08, 0xec, 0x3d,
  0x7b, 0x1e, 0xb1, 0x3d, 0x0b, 0x31, 0xea, 0x3d, 0x3a, 0x7c, 0x8c, 0x3d,
  0xa4, 0x8e, 0x4c, 0xbe, 0x9a, 0xa5, 0xc4, 0x3d, 0x68, 0x5a, 0x8b, 0xbe,
  0xe8, 0xf9, 0xcd, 0xbd, 0x3a, 0xa8, 0x22, 0xbe, 0xbb, 0xf1, 0xe9, 0xbd,
  0xdf, 0x07, 0x96, 0x3d, 0x7c, 0xcc, 0x5a, 0xbd, 0xe0, 0x4a, 0x2e, 0x3c,
  0x9a, 0x88, 0x34, 0x3d, 0xd9, 0xff, 0x71, 0xbe, 0x5c, 0xa4, 0x0b, 0x3e,
  0x11, 0x11, 0xc5, 0xbd, 0xd9, 0x69, 0x78, 0xbe, 0x6c, 0x53, 0x5d, 0xbe,
  0x8e, 0xfa, 0xc6, 0x3d, 0xbe, 0xeb, 0x2f, 0xbe, 0xd5, 0x62, 0x70, 0xbe,
  0xbe, 0xff, 0x73, 0xbe, 0x20, 0xea, 0x74, 0xbe, 0xd4, 0xda, 0x0d, 0xbe,
  0x30, 0xb7, 0xa7, 0x3d, 0xa3, 0x9e, 0x52, 0x3d, 0x9a, 0x24, 0x10, 0x3b,
  0x84, 0x6e, 0xcb, 0xbd, 0xcf, 0x24, 0xfb, 0xbd, 0xdb, 0x8d, 0x5b, 0x3d,
  0xed, 0xb2, 0x97, 0x3d, 0x43, 0x06, 0x60, 0xbd, 0x0d, 0xb5, 0xe4, 0x3d,
  0xe1, 0x3f, 0x29, 0x3e, 0x24, 0xec, 0x9e, 0xbd, 0xe0, 0x92, 0x69, 0x3e,
  0xf3, 0x4c, 0x9d, 0xbd, 0x7f, 0xcc, 0x75, 0xbd, 0xcb, 0x0c, 0x4b, 0x3e,
  0x5a, 0x77, 0xa2, 0x3d, 0x4d, 0x56, 0x1d, 0xbe, 0xda, 0x37, 0x8e, 0x3d,
  0x13, 0x06, 0x27, 0x3d, 0x0c, 0xb7, 0xc2, 0xbc, 0x8a, 0x8e, 0xae, 0xbc,
  0x68, 0xec, 0x58, 0xbe, 0x77, 0xea, 0x0b, 0x3e, 0xf0, 0x5d, 0x87, 0xbc,
  0x40, 0x7d, 0xfb, 0x3d, 0x4c, 0x52, 0xab, 0x3c, 0x7b, 0x93, 0xc1, 0x3d,
  0xf4, 0xd6, 0x72, 0xbb, 0xef, 0x12, 0x31, 0xbe, 0x10, 0xd8, 0x82, 0xbd,
  0x35, 0x6f, 0x5c, 0xbe, 0xc5, 0x56, 0x67, 0xbe, 0x86, 0x9e, 0x0d, 0x3e,
  0x18, 0xfb, 0x15, 0x3d, 0xf1, 0xb7, 0x12, 0xbe, 0x54, 0xe7, 0x7d, 0xbb,
  0x3e, 0xe3, 0x85, 0x3d, 0x40, 0xfe, 0xe9, 0xbc, 0x62, 0xce, 0xe1, 0x3d,
  0x7d, 0xca, 0xa1, 0xbc, 0x82, 0x68, 0x88, 0x3d, 0xe7, 0x08, 0xd2, 0x3b,
  0x85, 0x52, 0x10, 0x3d, 0xa4, 0xa0, 0x80, 0xbe, 0x42, 0xba, 0x05, 0x3d,
  0xad, 0x66, 0x41, 0xbd, 0xa9, 0xd6, 0xf1, 0x3d, 0xc1, 0xe3, 0x02, 0xbd,
  0x02, 0xdc, 0x24, 0x3e, 0xe8, 0x74, 0x5d, 0xbd, 0xba, 0xd0, 0xac, 0x3d,
  0x4e, 0x68, 0xff, 0xbc, 0xf7, 0x38, 0xf7, 0xbd, 0x9a, 0x29, 0x3a, 0x3e,
  0x44, 0x73, 0x66, 0x3e, 0xe5, 0x47, 0xee, 0x3c, 0xf3, 0x98, 0x0f, 0x3e,
  0x4a, 0x65, 0x10, 0x3d, 0x43, 0x6f, 0x68, 0xbd, 0xe8, 0x3f, 0xca, 0x3d,
  0x73, 0xa8, 0x08, 0xbe, 0x7b, 0x35, 0xd3, 0x3d, 0x1b, 0x20, 0xdf, 0xbd,
  0x16, 0xc4, 0xf4, 0xbd, 0x0d, 0x82, 0x12, 0xbe, 0x88, 0xc2, 0xec, 0xbd,
  0xd2, 0x2b, 0x29, 0xbe, 0xa2, 0xd1, 0x18, 0x3e, 0x0f, 0xf1, 0xae, 0xbd,
  0x16, 0x75, 0x24, 0x3e, 0x02, 0x9b, 0xf9, 0x3d, 0x6b, 0xe9, 0xfa, 0x3d,
  0x1f, 0xc6, 0x2f, 0x3d, 0x52, 0x08, 0x97, 0xbd, 0xfb, 0xe7, 0x32, 0xbe,
  0x47, 0x4f, 0x37, 0xbe, 0x02, 0xed, 0x2a, 0x3e, 0xb7, 0x54, 0xd6, 0x3d,
  0x84, 0x7e, 0x22, 0x3d, 0xed, 0xa3, 0xb9, 0x3b, 0x38, 0x8a, 0x28, 0x3e,
  0x6d, 0x98, 0x3c, 0x3d, 0x52, 0x2c, 0x08, 0xbe, 0x0a, 0xbe, 0x97, 0xbd,
  0xca, 0xfe, 0x00, 0x3d, 0x42, 0xaf, 0xb5, 0xbd, 0xbf, 0xf5, 0x2d, 0xbb,
  0xca, 0x4d, 0x9a, 0x3d, 0x26, 0x5c, 0x50, 0x3e, 0x8f, 0x7e, 0x67, 0x3e,
  0x36, 0xb8, 0xf8, 0x3d, 0xd4, 0x60, 0x4a, 0xbe, 0x2c, 0x39, 0x05, 0x3e,
